{
  "version": "1.0",
  "truncation": null,
  "padding": null,
  "added_tokens": [
    {
      "id": 0,
      "content": "[UNK]",
      "single_word": false,
      "lstrip": false,
      "rstrip": false,
      "normalized": false,
      "special": true
    }
  ],
  "normalizer": {
    "type": "NFKC"
  },
  "pre_tokenizer": {
    "type": "Metaspace",
    "replacement": "▁",
    "prepend_scheme": "never",
    "split": true
  },
  "post_processor": null,
  "decoder": {
    "type": "Metaspace",
    "replacement": "▁",
    "prepend_scheme": "never",
    "split": true
  },
  "model": {
    "type": "BPE",
    "dropout": null,
    "unk_token": "[UNK]",
    "continuing_subword_prefix": null,
    "end_of_word_suffix": null,
    "fuse_unk": false,
    "byte_fallback": false,
    "ignore_merges": false,
    "vocab": {
      "[UNK]": 0,
      "\n": 1,
      "\r": 2,
      "!": 3,
      "\"": 4,
      "#": 5,
      "$": 6,
      "%": 7,
      "&": 8,
      "'": 9,
      "(": 10,
      ")": 11,
      "*": 12,
      "+": 13,
      ",": 14,
      "-": 15,
      ".": 16,
      "/": 17,
      "0": 18,
      "1": 19,
      "2": 20,
      "3": 21,
      "4": 22,
      "5": 23,
      "6": 24,
      "7": 25,
      "8": 26,
      "9": 27,
      ":": 28,
      ";": 29,
      "<": 30,
      "=": 31,
      ">": 32,
      "?": 33,
      "A": 34,
      "B": 35,
      "C": 36,
      "D": 37,
      "E": 38,
      "F": 39,
      "G": 40,
      "H": 41,
      "I": 42,
      "J": 43,
      "K": 44,
      "L": 45,
      "M": 46,
      "N": 47,
      "O": 48,
      "P": 49,
      "Q": 50,
      "R": 51,
      "S": 52,
      "T": 53,
      "U": 54,
      "V": 55,
      "W": 56,
      "X": 57,
      "Y": 58,
      "Z": 59,
      "[": 60,
      "\\": 61,
      "]": 62,
      "^": 63,
      "_": 64,
      "`": 65,
      "a": 66,
      "b": 67,
      "c": 68,
      "d": 69,
      "e": 70,
      "f": 71,
      "g": 72,
      "h": 73,
      "i": 74,
      "j": 75,
      "k": 76,
      "l": 77,
      "m": 78,
      "n": 79,
      "o": 80,
      "p": 81,
      "q": 82,
      "r": 83,
      "s": 84,
      "t": 85,
      "u": 86,
      "v": 87,
      "w": 88,
      "x": 89,
      "y": 90,
      "z": 91,
      "{": 92,
      "|": 93,
      "}": 94,
      "~": 95,
      "°": 96,
      "·": 97,
      "Ö": 98,
      "á": 99,
      "â": 100,
      "æ": 101,
      "ç": 102,
      "è": 103,
      "é": 104,
      "í": 105,
      "ñ": 106,
      "ö": 107,
      "ü": 108,
      "ā": 109,
      "ī": 110,
      "İ": 111,
      "ņ": 112,
      "Ś": 113,
      "ś": 114,
      "ū": 115,
      "ș": 116,
      "ə": 117,
      "ɦ": 118,
      "ɪ": 119,
      "ɾ": 120,
      "ʊ": 121,
      "ʼ": 122,
      "ˈ": 123,
      "ː": 124,
      "ί": 125,
      "α": 126,
      "δ": 127,
      "θ": 128,
      "ν": 129,
      "π": 130,
      "ς": 131,
      "ό": 132,
      "ँ": 133,
      "ं": 134,
      "ः": 135,
      "अ": 136,
      "आ": 137,
      "इ": 138,
      "ई": 139,
      "उ": 140,
      "ऊ": 141,
      "ऋ": 142,
      "ऍ": 143,
      "ए": 144,
      "ऐ": 145,
      "ऑ": 146,
      "ओ": 147,
      "औ": 148,
      "क": 149,
      "ख": 150,
      "ग": 151,
      "घ": 152,
      "ङ": 153,
      "च": 154,
      "छ": 155,
      "ज": 156,
      "झ": 157,
      "ञ": 158,
      "ट": 159,
      "ठ": 160,
      "ड": 161,
      "ढ": 162,
      "ण": 163,
      "त": 164,
      "थ": 165,
      "द": 166,
      "ध": 167,
      "न": 168,
      "प": 169,
      "फ": 170,
      "ब": 171,
      "भ": 172,
      "म": 173,
      "य": 174,
      "र": 175,
      "ल": 176,
      "ळ": 177,
      "व": 178,
      "श": 179,
      "ष": 180,
      "स": 181,
      "ह": 182,
      "़": 183,
      "ा": 184,
      "ि": 185,
      "ी": 186,
      "ु": 187,
      "ू": 188,
      "ृ": 189,
      "े": 190,
      "ै": 191,
      "ॉ": 192,
      "ॊ": 193,
      "ो": 194,
      "ौ": 195,
      "्": 196,
      "।": 197,
      "०": 198,
      "१": 199,
      "२": 200,
      "३": 201,
      "४": 202,
      "५": 203,
      "६": 204,
      "७": 205,
      "८": 206,
      "९": 207,
      "॰": 208,
      "ం": 209,
      "ః": 210,
      "అ": 211,
      "ఆ": 212,
      "ఇ": 213,
      "ఈ": 214,
      "ఉ": 215,
      "ఋ": 216,
      "ఎ": 217,
      "ఏ": 218,
      "ఐ": 219,
      "ఒ": 220,
      "ఓ": 221,
      "ఔ": 222,
      "క": 223,
      "ఖ": 224,
      "గ": 225,
      "ఘ": 226,
      "చ": 227,
      "ఛ": 228,
      "జ": 229,
      "ఞ": 230,
      "ట": 231,
      "ఠ": 232,
      "డ": 233,
      "ఢ": 234,
      "ణ": 235,
      "త": 236,
      "థ": 237,
      "ద": 238,
      "ధ": 239,
      "న": 240,
      "ప": 241,
      "ఫ": 242,
      "బ": 243,
      "భ": 244,
      "మ": 245,
      "య": 246,
      "ర": 247,
      "ల": 248,
      "ళ": 249,
      "వ": 250,
      "శ": 251,
      "ష": 252,
      "స": 253,
      "హ": 254,
      "ా": 255,
      "ి": 256,
      "ీ": 257,
      "ు": 258,
      "ూ": 259,
      "ృ": 260,
      "ె": 261,
      "ే": 262,
      "ై": 263,
      "ొ": 264,
      "ో": 265,
      "ౌ": 266,
      "్": 267,
      "ಂ": 268,
      "ಅ": 269,
      "ಆ": 270,
      "ಇ": 271,
      "ಈ": 272,
      "ಉ": 273,
      "ಋ": 274,
      "ಎ": 275,
      "ಏ": 276,
      "ಐ": 277,
      "ಒ": 278,
      "ಓ": 279,
      "ಕ": 280,
      "ಖ": 281,
      "ಗ": 282,
      "ಘ": 283,
      "ಚ": 284,
      "ಛ": 285,
      "ಜ": 286,
      "ಝ": 287,
      "ಞ": 288,
      "ಟ": 289,
      "ಠ": 290,
      "ಡ": 291,
      "ಢ": 292,
      "ಣ": 293,
      "ತ": 294,
      "ಥ": 295,
      "ದ": 296,
      "ಧ": 297,
      "ನ": 298,
      "ಪ": 299,
      "ಫ": 300,
      "ಬ": 301,
      "ಭ": 302,
      "ಮ": 303,
      "ಯ": 304,
      "ರ": 305,
      "ಲ": 306,
      "ಳ": 307,
      "ವ": 308,
      "ಶ": 309,
      "ಷ": 310,
      "ಸ": 311,
      "ಹ": 312,
      "಼": 313,
      "ಾ": 314,
      "ಿ": 315,
      "ೀ": 316,
      "ು": 317,
      "ೂ": 318,
      "ೃ": 319,
      "ೆ": 320,
      "ೇ": 321,
      "ೈ": 322,
      "ೊ": 323,
      "ೋ": 324,
      "ೌ": 325,
      "್": 326,
      "೦": 327,
      "೧": 328,
      "೨": 329,
      "೩": 330,
      "೪": 331,
      "೫": 332,
      "೬": 333,
      "೭": 334,
      "೮": 335,
      "೯": 336,
      "ṅ": 337,
      "ṇ": 338,
      "Ṛ": 339,
      "ṣ": 340,
      "ṭ": 341,
      "Ἰ": 342,
      "‌": 343,
      "‍": 344,
      "‎": 345,
      "–": 346,
      "—": 347,
      "‘": 348,
      "’": 349,
      "“": 350,
      "”": 351,
      "†": 352,
      "‡": 353,
      "•": 354,
      "′": 355,
      "‹": 356,
      "›": 357,
      "⁡": 358,
      "₹": 359,
      "↑": 360,
      "−": 361,
      "▁": 362,
      "▪": 363,
      "﻿": 364,
      "wi": 365,
      "ki": 366,
      "wiki": 367,
      "di": 368,
      "dia": 369,
      "or": 370,
      "ht": 371,
      "tp": 372,
      "](": 373,
      ":/": 374,
      "http": 375,
      "://": 376,
      "pe": 377,
      "](http": 378,
      "s://": 379,
      "](https://": 380,
      "g/": 381,
      ".or": 382,
      ".org/": 383,
      "pedia": 384,
      ".wiki": 385,
      ".org/wiki": 386,
      ".org/wiki/": 387,
      ".wikipedia": 388,
      ".wikipedia.org/wiki/": 389,
      "▁[": 390,
      "te": 391,
      "en": 392,
      "▁\"": 393,
      "\")": 394,
      "in": 395,
      "an": 396,
      "on": 397,
      "In": 398,
      "ti": 399,
      "\r\n": 400,
      "th": 401,
      "al": 402,
      "India": 403,
      "](https://en": 404,
      "](https://en.wikipedia.org/wiki/": 405,
      "▁|": 406,
      "er": 407,
      "ar": 408,
      "20": 409,
      "es": 410,
      "hi": 411,
      "re": 412,
      "ci": 413,
      "of": 414,
      "tion": 415,
      "the": 416,
      "ार": 417,
      "is": 418,
      "om": 419,
      "](https://hi": 420,
      "](https://hi.wikipedia.org/wiki/": 421,
      "▁क": 422,
      "▁-": 423,
      "and": 424,
      "te_": 425,
      "▁of": 426,
      "▁(": 427,
      "ou": 428,
      "్ర": 429,
      "#ci": 430,
      "#cite_": 431,
      "▁the": 432,
      "ri": 433,
      "्र": 434,
      "](https://te": 435,
      "](https://te.wikipedia.org/wiki/": 436,
      "as": 437,
      "201": 438,
      "](https://en.wikipedia.org/wiki/India": 439,
      "ార": 440,
      "भार": 441,
      "भारत": 442,
      "le": 443,
      "▁India": 444,
      "19": 445,
      "no": 446,
      "ed": 447,
      "ation": 448,
      "▁स": 449,
      "oo": 450,
      "▁in": 451,
      "OT": 452,
      "ate": 453,
      "**": 454,
      "ac": 455,
      "si": 456,
      "ent": 457,
      "li": 458,
      "am": 459,
      "at": 460,
      "](https://en.wikipedia.org/wiki/India#cite_": 461,
      "▁and": 462,
      "et": 463,
      "▁p": 464,
      "▁s": 465,
      "200": 466,
      "-0": 467,
      "\\_": 468,
      "ాల": 469,
      "▁c": 470,
      "kn": 471,
      "](https://kn": 472,
      "](https://kn.wikipedia.org/wiki/": 473,
      "▁C": 474,
      "ag": 475,
      "id": 476,
      "▁म": 477,
      "-1": 478,
      "ಾರ": 479,
      "▁A": 480,
      "्य": 481,
      "్య": 482,
      "್ರ": 483,
      "ref": 484,
      "us": 485,
      "ing": 486,
      "note": 487,
      ").": 488,
      "భార": 489,
      "భారత": 490,
      "ad": 491,
      "దే": 492,
      "▁f": 493,
      "[[": 494,
      "▁S": 495,
      "ve": 496,
      "దేశ": 497,
      "స్": 498,
      "ook": 499,
      "रा": 500,
      "▁प": 501,
      "ang": 502,
      "▁b": 503,
      "ref-": 504,
      "note-": 505,
      "lo": 506,
      "▁ప": 507,
      "ic": 508,
      "▁1": 509,
      "▁t": 510,
      "▁|\r\n": 511,
      "um": 512,
      "సా": 513,
      "ur": 514,
      "ww": 515,
      ".\r\n": 516,
      "\"),": 517,
      "lin": 518,
      "ర్": 519,
      "edi": 520,
      "78": 521,
      "ist": 522,
      "▁P": 523,
      "▁m": 524,
      "fi": 525,
      "we": 526,
      "న్": 527,
      "ें": 528,
      "of_": 529,
      "00": 530,
      "ul": 531,
      "ಭಾರ": 532,
      "ver": 533,
      "_of_": 534,
      "ಭಾರತ": 535,
      "com": 536,
      "ान": 537,
      "red": 538,
      "ro": 539,
      "it": 540,
      "ter": 541,
      "▁201": 542,
      "he": 543,
      "र्": 544,
      "್ಯ": 545,
      "▁के": 546,
      "ra": 547,
      "](https://hi.wikipedia.org/wiki/भारत": 548,
      "=1": 549,
      "IS": 550,
      "ce": 551,
      "▁[↑": 552,
      "21": 553,
      "ch": 554,
      "link": 555,
      "▁ह": 556,
      "FO": 557,
      "ory": 558,
      "action": 559,
      "edit": 560,
      "NOT": 561,
      "OTNOT": 562,
      "FOOTNOT": 563,
      "FOOTNOTE": 564,
      "st": 565,
      "action=": 566,
      "?action=": 567,
      "&red": 568,
      "link=1": 569,
      "edit&red": 570,
      "?action=edit&red": 571,
      "?action=edit&redlink=1": 572,
      "्त": 573,
      "un": 574,
      "978": 575,
      "BN": 576,
      "ISBN": 577,
      "▁w": 578,
      "our": 579,
      "లు": 580,
      "▁R": 581,
      "▁T": 582,
      "▁**": 583,
      "రా": 584,
      "]](https://en.wikipedia.org/wiki/India#cite_": 585,
      "cial": 586,
      "](https://en.wikipedia.org/wiki/India#cite_ref-": 587,
      "]](https://en.wikipedia.org/wiki/India#cite_note-": 588,
      "chi": 589,
      "▁M": 590,
      "enti": 591,
      "tic": 592,
      "web": 593,
      "ons": 594,
      "್ತ": 595,
      "భారతదేశ": 596,
      "ol": 597,
      "de": 598,
      "\")\r\n": 599,
      "या": 600,
      ".శ": 601,
      ".శ.": 602,
      "िक": 603,
      "లో": 604,
      "▁2": 605,
      "india": 606,
      "identi": 607,
      "సా.శ.": 608,
      "il": 609,
      "fier": 610,
      "identifier": 611,
      "ni": 612,
      "▁to": 613,
      "▁में": 614,
      "-0)": 615,
      "▁క": 616,
      "age": 617,
      "identifier)": 618,
      ".g": 619,
      "ीय": 620,
      "res": 621,
      "ರ್": 622,
      "ಲಿ": 623,
      "book": 624,
      "▁अ": 625,
      "es/": 626,
      "▁a": 627,
      "▁D": 628,
      "ment": 629,
      "oun": 630,
      "▁B": 631,
      "త్ర": 632,
      "▁ಸ": 633,
      ")\r\n": 634,
      "ాలు": 635,
      "ty": 636,
      "రి": 637,
      "23": 638,
      "),": 639,
      "క్": 640,
      "em": 641,
      "ంద": 642,
      "▁ಮ": 643,
      "pg": 644,
      "ों": 645,
      "angu": 646,
      "ig": 647,
      "ని": 648,
      "10": 649,
      "_(": 650,
      "▁వ": 651,
      "50": 652,
      ".j": 653,
      "ir": 654,
      "▁19": 655,
      ".com": 656,
      "▁\"S": 657,
      "▁l": 658,
      "books": 659,
      "me": 660,
      "वि": 661,
      "ay": 662,
      "IT": 663,
      ".com/": 664,
      "ना": 665,
      "ct": 666,
      "ld": 667,
      "▁ज": 668,
      "\").": 669,
      "ved": 670,
      "▁*": 671,
      "al_": 672,
      "ಂದ": 673,
      "ly": 674,
      "्ष": 675,
      "ల్": 676,
      "భారతదేశం": 677,
      "ER": 678,
      "con": 679,
      "EF": 680,
      "▁[↑](https://en.wikipedia.org/wiki/India#cite_ref-": 681,
      "▁e": 682,
      "ITER": 683,
      "ाल": 684,
      "▁ಪ": 685,
      "Uni": 686,
      "www": 687,
      "24": 688,
      "_क": 689,
      "pecial": 690,
      "ITEREF": 691,
      "▁है": 692,
      "ourc": 693,
      ".in": 694,
      "ంగ": 695,
      "ಗಳ": 696,
      "▁E": 697,
      "·**": 698,
      "▁G": 699,
      "▁--": 700,
      "▁**·**": 701,
      "26": 702,
      "ber": 703,
      "▁స": 704,
      "op": 705,
      "▁द": 706,
      "](https://hi.wikipedia.org/wiki/भारत#cite_": 707,
      "ateg": 708,
      "www.": 709,
      "cal": 710,
      "▁మ": 711,
      "▁•": 712,
      "pecial:": 713,
      "ategory": 714,
      "त्र": 715,
      "▁h": 716,
      "ategory:": 717,
      "_India": 718,
      "▁N": 719,
      "राज": 720,
      "ेश": 721,
      "न्": 722,
      "ount": 723,
      "up": 724,
      "िया": 725,
      "rom": 726,
      "▁India\")": 727,
      "్రా": 728,
      "ನ್": 729,
      "11": 730,
      "ources/": 731,
      "28": 732,
      "ರಾ": 733,
      "ಲ್": 734,
      "▁---": 735,
      "Book": 736,
      "#C": 737,
      "ry": 738,
      "▁H": 739,
      "▁20": 740,
      "Sources/": 741,
      "_in": 742,
      "ీయ": 743,
      "pecial:Book": 744,
      "pecial:BookSources/": 745,
      "#CITEREF": 746,
      "और": 747,
      "30": 748,
      "ary": 749,
      "outh": 750,
      "ew": 751,
      "▁on": 752,
      "-4": 753,
      "ండ": 754,
      "▁ब": 755,
      "pecial:BookSources/978": 756,
      "archi": 757,
      "22": 758,
      "sh": 759,
      "ंग": 760,
      "for": 761,
      "ng": 762,
      "ತ್ತ": 763,
      "ಭಾರತದ": 764,
      "▁भारत": 765,
      "▁की": 766,
      "_S": 767,
      "▁g": 768,
      "##": 769,
      "List": 770,
      "du": 771,
      "▁प्र": 772,
      "ला": 773,
      "ov": 774,
      "▁त": 775,
      "भा": 776,
      "्व": 777,
      "జ్య": 778,
      "ಸ್": 779,
      "anguage": 780,
      "-3": 781,
      "▁न": 782,
      "▁చ": 783,
      "▁से": 784,
      "archive": 785,
      "ab": 786,
      "▁200": 787,
      "per": 788,
      "18": 789,
      "▁.": 790,
      "▁J": 791,
      "mp": 792,
      "▁F": 793,
      "_A": 794,
      "tu": 795,
      "ap": 796,
      "తా": 797,
      "▁or": 798,
      "▁और": 799,
      "ము": 800,
      "▁th": 801,
      "ress": 802,
      "నా": 803,
      ".[[": 804,
      "orld": 805,
      "sia": 806,
      "తి": 807,
      "్ట": 808,
      "ak": 809,
      "▁[\"": 810,
      "est": 811,
      "▁n": 812,
      "ub": 813,
      "▁re": 814,
      "▁का": 815,
      "▁by": 816,
      "-8": 817,
      "25": 818,
      "ain": 819,
      "ational": 820,
      "The": 821,
      "_स": 822,
      "se": 823,
      "rit": 824,
      "](https://en.wikipedia.org/wiki/India#CITEREF": 825,
      "el": 826,
      "సి": 827,
      "▁In": 828,
      "calf": 829,
      "199": 830,
      ".gov": 831,
      "ion": 832,
      "త్": 833,
      "ted": 834,
      "▁from": 835,
      "_of_India": 836,
      "्रे": 837,
      "ता": 838,
      "etcalf": 839,
      "archive.org/": 840,
      "्ट": 841,
      "▁./": 842,
      "15": 843,
      "▁d": 844,
      "▁[S": 845,
      ".jpg": 846,
      "-0-": 847,
      "web.": 848,
      "ge": 849,
      "](https://web.": 850,
      "/http": 851,
      "web/": 852,
      "archive.org/web/": 853,
      "](https://web.archive.org/web/": 854,
      "13": 855,
      "▁(సా.శ.": 856,
      "ens": 857,
      "16": 858,
      "]](https://en.wikipedia.org/wiki/India#cite_note-FOOTNOTE": 859,
      "im": 860,
      "ast": 861,
      "యా": 862,
      ".in/": 863,
      "ులు": 864,
      "▁ಹ": 865,
      "▁రా": 866,
      "with": 867,
      "s/": 868,
      "ish": 869,
      "17": 870,
      "over": 871,
      "▁\"भारत": 872,
      "inal": 873,
      "್ಟ": 874,
      "–సా.శ.": 875,
      "ಲ್ಲಿ": 876,
      "ep": 877,
      "▁(identifier)": 878,
      "versi": 879,
      "_(identifier)": 880,
      "▁(identifier)\")": 881,
      "▁అ": 882,
      "29": 883,
      "40": 884,
      "ి.": 885,
      "ಕ್": 886,
      "▁\"C": 887,
      "▁for": 888,
      "conom": 889,
      "_and": 890,
      "स्त": 891,
      "▁व": 892,
      "▁is": 893,
      "ort": 894,
      "err": 895,
      "ust": 896,
      "ಾನ": 897,
      "▁ಕ": 898,
      "राज्य": 899,
      "▁ప్ర": 900,
      "nd": 901,
      "क्ष": 902,
      "ित": 903,
      "ిక": 904,
      "▁O": 905,
      "▁ar": 906,
      "▁[A": 907,
      "a](https://en.wikipedia.org/wiki/": 908,
      "▁p.": 909,
      "14": 910,
      "Metcalf": 911,
      "తం": 912,
      "▁ವ": 913,
      "न्द": 914,
      "error": 915,
      "_C": 916,
      "▁([": 917,
      "▁ನ": 918,
      "Har": 919,
      "har": 920,
      "versity": 921,
      "AA": 922,
      "ిన": 923,
      "ಂತ": 924,
      "ರಿ": 925,
      "umb": 926,
      "జ్యం": 927,
      "▁आ": 928,
      "ensus": 929,
      "n_": 930,
      "▁Indian": 931,
      "षा": 932,
      "ತ್ತು": 933,
      "av": 934,
      "पु": 935,
      "gle": 936,
      "ot": 937,
      "జా": 938,
      "27": 939,
      "ut": 940,
      "ति": 941,
      "▁L": 942,
      "ಗಳು": 943,
      "late": 944,
      "ास": 945,
      "ంచ": 946,
      "కు": 947,
      "'s": 948,
      "*.": 949,
      "](http://": 950,
      "rie": 951,
      "oogle": 952,
      "▁be": 953,
      "](https://te.wikipedia.org/wiki/భారతదేశం": 954,
      "▁W": 955,
      ".p": 956,
      "a_": 957,
      "?id": 958,
      "ను": 959,
      "పూ": 960,
      "ries": 961,
      "do": 962,
      "▁[C": 963,
      "s](https://en.wikipedia.org/wiki/": 964,
      "?id=": 965,
      "భా": 966,
      "▁[ISBN": 967,
      ".google": 968,
      "books.google": 969,
      ".com/books": 970,
      "_in_India": 971,
      "books.google.com/books": 972,
      "-9": 973,
      "books.google.com/books?id=": 974,
      "स्": 975,
      "ದೇ": 976,
      "▁K": 977,
      "▁ಅ": 978,
      "▁ಬ": 979,
      "opul": 980,
      "media": 981,
      "px": 982,
      "ప్ర": 983,
      "▁\"ISBN": 984,
      "ISBN_(identifier)": 985,
      "▁[978": 986,
      "_P": 987,
      "ద్": 988,
      "ింద": 989,
      "ance": 990,
      "](https://kn.wikipedia.org/wiki/ಭಾರತ": 991,
      "ದೇಶ": 992,
      "ha": 993,
      "▁3": 994,
      "arg": 995,
      "ages": 996,
      "▁orig": 997,
      "47": 998,
      "▁ఉ": 999,
      "भाषा": 1000,
      "ం:": 1001,
      "▁Uni": 1002,
      "▁\"M": 1003,
      "ther": 1004,
      "](https://books.google.com/books?id=": 1005,
      "lig": 1006,
      "▁The": 1007,
      "ountries": 1008,
      "mons": 1009,
      "ತಿ": 1010,
      "ರು": 1011,
      "▁de": 1012,
      "▁[*": 1013,
      "▁original": 1014,
      "मा": 1015,
      "▁को": 1016,
      ")[[": 1017,
      "hin": 1018,
      "s,": 1019,
      "था": 1020,
      "▁ఆ": 1021,
      "load": 1022,
      "]](https://hi.wikipedia.org/wiki/भारत#cite_": 1023,
      "ana": 1024,
      "ong": 1025,
      "upload": 1026,
      "opulation": 1027,
      "Category:": 1028,
      "aj": 1029,
      "णी": 1030,
      "ಸಂ": 1031,
      "ction": 1032,
      "der": 1033,
      "rchi": 1034,
      "री": 1035,
      ".wikimedia": 1036,
      "log": 1037,
      "![": 1038,
      "ow": 1039,
      "ss": 1040,
      "ची": 1041,
      "](S": 1042,
      "pedia/": 1043,
      ".org/wikipedia/": 1044,
      "tern": 1045,
      "▁Ret": 1046,
      "upload.wikimedia": 1047,
      "upload.wikimedia.org/wikipedia/": 1048,
      "-2": 1049,
      "देश": 1050,
      "ಷ್ಟ": 1051,
      "ಾಗ": 1052,
      "▁ర": 1053,
      "](https://upload.wikimedia.org/wikipedia/": 1054,
      "rieved": 1055,
      "▁Retrieved": 1056,
      "▁ग": 1057,
      "%20": 1058,
      "umm": 1059,
      "▁[↑](https://en.wikipedia.org/wiki/India#cite_ref-FOOTNOTE": 1060,
      "35": 1061,
      "7.": 1062,
      "p.": 1063,
      "ड़": 1064,
      "మా": 1065,
      "▁సా": 1066,
      "thumb": 1067,
      "భారతీయ": 1068,
      "gh": 1069,
      "/thumb": 1070,
      "వా": 1071,
      "▁[M": 1072,
      "▁पर": 1073,
      "/thumb/": 1074,
      "6.": 1075,
      "▁उ": 1076,
      "▁as": 1077,
      "commons": 1078,
      "a\")": 1079,
      "రు": 1080,
      "ಿಕ": 1081,
      "2011": 1082,
      "](https://kn.wikipedia.org/wiki/ಭಾರತ#cite_": 1083,
      "s\")": 1084,
      "▁ए": 1085,
      "_and_": 1086,
      "px-": 1087,
      "ष्ट": 1088,
      "ाद": 1089,
      "▁है।": 1090,
      "](https://web.archive.org/web/201": 1091,
      "ence": 1092,
      "▁pp.": 1093,
      "](https://upload.wikimedia.org/wikipedia/commons": 1094,
      "వి": 1095,
      "ష్ట": 1096,
      "omm": 1097,
      "ార్": 1098,
      "పూ.": 1099,
      "cy": 1100,
      "Harv": 1101,
      "2.": 1102,
      "▁श": 1103,
      "క్ష": 1104,
      "_के": 1105,
      "rchived": 1106,
      "](https://upload.wikimedia.org/wikipedia/commons/thumb/": 1107,
      "36": 1108,
      "70": 1109,
      "ys": 1110,
      "](https://en.wikipedia.org/wiki/S": 1111,
      "nic": 1112,
      "ಂಗ": 1113,
      "ಂಡ": 1114,
      "ಿಂದ": 1115,
      "](https://en.wikipedia.org/wiki/ISBN_(identifier)": 1116,
      "స్థ": 1117,
      "రిత్ర": 1118,
      "▁[ISBN](https://en.wikipedia.org/wiki/ISBN_(identifier)": 1119,
      "1.": 1120,
      "PA": 1121,
      "ma": 1122,
      "ru": 1123,
      "▁[B": 1124,
      "ans": 1125,
      "▁\"Special:BookSources/978": 1126,
      "](Special:BookSources/978": 1127,
      "oli": 1128,
      "▁\"B": 1129,
      "og": 1130,
      "▁[म": 1131,
      "्रेणी": 1132,
      "-5": 1133,
      "_म": 1134,
      "ಸಿ": 1135,
      "್ರಾ": 1136,
      "ff": 1137,
      "श्रेणी": 1138,
      "ष्ट्र": 1139,
      "38": 1140,
      "tate": 1141,
      "న్న": 1142,
      "का": 1143,
      "▁सं": 1144,
      "विश": 1145,
      "श्रेणी:": 1146,
      "ud": 1147,
      "▁\"P": 1148,
      "fn": 1149,
      "ले": 1150,
      "▁with": 1151,
      "▁Category:": 1152,
      "india.gov": 1153,
      "-7": 1154,
      "60": 1155,
      "ने": 1156,
      "▁I": 1157,
      "la": 1158,
      "all": 1159,
      "](https://en.wikipedia.org/wiki/C": 1160,
      "DP": 1161,
      "ेत्र": 1162,
      "▁\"List": 1163,
      "ani": 1164,
      "](https://hi.wikipedia.org/wiki/भारत#cite_ref-": 1165,
      "]](https://hi.wikipedia.org/wiki/भारत#cite_note-": 1166,
      "ಷ್ಟ್ರ": 1167,
      "%2": 1168,
      "4.": 1169,
      "_D": 1170,
      "▁\"A": 1171,
      "39": 1172,
      "प्र": 1173,
      "म्": 1174,
      "tein": 1175,
      "\"))": 1176,
      "ity": 1177,
      "_b": 1178,
      "les": 1179,
      "land": 1180,
      "os": 1181,
      "िल": 1182,
      "overn": 1183,
      "&pg": 1184,
      "ಜ್ಯ": 1185,
      "ore": 1186,
      "temp": 1187,
      "್ಯಾ": 1188,
      "](https://te.wikipedia.org/wiki/భారతదేశం#cite_": 1189,
      "&pg=": 1190,
      "గా": 1191,
      "ank": 1192,
      "ere": 1193,
      "▁Press": 1194,
      "emp": 1195,
      "List_of_": 1196,
      "ంట": 1197,
      "కి": 1198,
      "ದೆ": 1199,
      "್ವ": 1200,
      "▁ಮತ್ತು": 1201,
      "/https://": 1202,
      "_के_": 1203,
      "ai": 1204,
      "ear": 1205,
      "▁इ": 1206,
      "titu": 1207,
      "Indian": 1208,
      "▁*[": 1209,
      "మ్రా": 1210,
      "▁\"G": 1211,
      "ism": 1212,
      "्या": 1213,
      "und": 1214,
      "ష్ట్ర": 1215,
      "ib": 1216,
      "िय": 1217,
      "▁di": 1218,
      "▁Asia": 1219,
      ".jp": 1220,
      "to": 1221,
      "ంత": 1222,
      "▁no": 1223,
      "▁ಪ್ರ": 1224,
      "ummit": 1225,
      "हि": 1226,
      "ी](https://hi.wikipedia.org/wiki/": 1227,
      "▁&": 1228,
      "](https://en.wikipedia.org/wiki/M": 1229,
      "45": 1230,
      "9.": 1231,
      "language": 1232,
      "ज़": 1233,
      "ations": 1234,
      "&pg=PA": 1235,
      "Hin": 1236,
      "_M": 1237,
      "](https://www.": 1238,
      "8.": 1239,
      "పు": 1240,
      "ಜನ": 1241,
      "ೆಯ": 1242,
      "htm": 1243,
      "ರಾಷ್ಟ್ರ": 1244,
      ".jpg)": 1245,
      "सं": 1246,
      "सा": 1247,
      "▁\"T": 1248,
      "eral": 1249,
      "▁న": 1250,
      "2006": 1251,
      "overnment": 1252,
      "80": 1253,
      "PP": 1254,
      "y_": 1255,
      "ata": 1256,
      "lop": 1257,
      ".jpg/": 1258,
      "त्त": 1259,
      "మి": 1260,
      "ాన": 1261,
      "ೀಯ": 1262,
      "▁र": 1263,
      "▁[G": 1264,
      "▁was": 1265,
      "ನ್ನ": 1266,
      "▁University": 1267,
      "77": 1268,
      "90": 1269,
      "▁[P": 1270,
      "vi": 1271,
      "పా": 1272,
      "▁ఇ": 1273,
      "▁త": 1274,
      "భాష": 1275,
      "3.": 1276,
      "ori": 1277,
      "2018": 1278,
      "▁are": 1279,
      "ಖ್ಯ": 1280,
      "▁4": 1281,
      "▁ಆ": 1282,
      "▁an": 1283,
      "-10": 1284,
      "▁2011": 1285,
      "-6": 1286,
      "ck": 1287,
      "▁language": 1288,
      "పాల": 1289,
      "లీ": 1290,
      "\").\r\n": 1291,
      "](https://en.wikipedia.org/wiki/B": 1292,
      "art": 1293,
      "*](https://books.google.com/books?id=": 1294,
      "dge": 1295,
      "ard": 1296,
      "र्व": 1297,
      "ंड": 1298,
      "▁దేశ": 1299,
      "▁\"D": 1300,
      "▁\"E": 1301,
      "ali": 1302,
      "స్తా": 1303,
      "istory": 1304,
      "ರ್ಮ": 1305,
      "anguages": 1306,
      "CS": 1307,
      "▁De": 1308,
      "▁ex": 1309,
      "5.": 1310,
      "ll": 1311,
      "िस": 1312,
      "వర్": 1313,
      "ాయ": 1314,
      "tem": 1315,
      "48": 1316,
      "ue": 1317,
      "](https://en.wikipedia.org/wiki/P": 1318,
      "राष्ट्र": 1319,
      "hm": 1320,
      "ಸ್ತ": 1321,
      "ont": 1322,
      "tim": 1323,
      "ountry": 1324,
      "▁ल": 1325,
      "33": 1326,
      "df": 1327,
      "onstitu": 1328,
      "మ్రాజ్యం": 1329,
      "ile": 1330,
      "▁सा": 1331,
      "ame": 1332,
      "्षेत्र": 1333,
      "conomy": 1334,
      "12": 1335,
      "_T": 1336,
      "ಭಾ": 1337,
      "ಿತ": 1338,
      "als": 1339,
      "sion": 1340,
      "దేశ్": 1341,
      "▁Hin": 1342,
      "_N": 1343,
      "rad": 1344,
      "चि": 1345,
      "▁it": 1346,
      "esh": 1347,
      "amb": 1348,
      "sher": 1349,
      "मन": 1350,
      "ी_": 1351,
      "ం](https://te.wikipedia.org/wiki/": 1352,
      "▁राज्य": 1353,
      "▁error": 1354,
      "lic": 1355,
      ").\r\n": 1356,
      "पा": 1357,
      "श्रेणी:Harv": 1358,
      "%2C": 1359,
      "Re": 1360,
      "जा": 1361,
      "ంబ": 1362,
      "టి": 1363,
      "ಿಯ": 1364,
      "▁\"म": 1365,
      "▁whi": 1366,
      "ಸ್ಥ": 1367,
      "▁V": 1368,
      "▁भाषा": 1369,
      "2010": 1370,
      "velop": 1371,
      "000": 1372,
      "/http://": 1373,
      "Stein": 1374,
      "rou": 1375,
      "ంలో": 1376,
      "pend": 1377,
      "▁\"N": 1378,
      "sian": 1379,
      "▁हैं": 1380,
      "conomic": 1381,
      "errors": 1382,
      "arget": 1383,
      "స్తాన్": 1384,
      "46": 1385,
      "gen": 1386,
      "ke": 1387,
      "▁य": 1388,
      "▁वि": 1389,
      "au": 1390,
      "other": 1391,
      "గు": 1392,
      "డు": 1393,
      "నే": 1394,
      "్చ": 1395,
      "ನೇ": 1396,
      "▁भ": 1397,
      "▁ಇ": 1398,
      "ari": 1399,
      "omp": 1400,
      "್ರಿ": 1401,
      "ult": 1402,
      "india-": 1403,
      "AJ": 1404,
      "eng": 1405,
      "artic": 1406,
      "stan": 1407,
      "ford": 1408,
      "1)": 1409,
      "BAJ": 1410,
      "QBAJ": 1411,
      "lish": 1412,
      "new": 1413,
      "ूची": 1414,
      "మూ": 1415,
      "▁(P": 1416,
      "్రీ": 1417,
      "జాత": 1418,
      "velopment": 1419,
      "aki": 1420,
      "census": 1421,
      "गर": 1422,
      "▁[![": 1423,
      "ine": 1424,
      ",_": 1425,
      "_B": 1426,
      "cl": 1427,
      "ob": 1428,
      "లా": 1429,
      "ನಾ": 1430,
      "ವಿ": 1431,
      "▁ಭಾರತದ": 1432,
      "-1)": 1433,
      "▁ಸಂ": 1434,
      "ంగా": 1435,
      "ಭಾಷ": 1436,
      "49": 1437,
      "DF": 1438,
      "xford": 1439,
      "▁[D": 1440,
      "ated": 1441,
      "▁[↑](https://hi.wikipedia.org/wiki/भारत#cite_ref-": 1442,
      ".pdf": 1443,
      ".pdf)": 1444,
      ".nic": 1445,
      "43": 1446,
      "ure": 1447,
      "డ్": 1448,
      "ిల్": 1449,
      "▁5": 1450,
      "▁r": 1451,
      "▁జ": 1452,
      "▁–": 1453,
      "▁[2": 1454,
      "▁[N": 1455,
      "RI": 1456,
      "_s": 1457,
      "ven": 1458,
      "ेला": 1459,
      "tive": 1460,
      "](https://en.wikipedia.org/wiki/D": 1461,
      "-0-19": 1462,
      "udd": 1463,
      "dust": 1464,
      "हा": 1465,
      "లి": 1466,
      "ಧರ್ಮ": 1467,
      "▁ಜನ": 1468,
      "స్త్ర": 1469,
      "tics": 1470,
      "United": 1471,
      "AAQBAJ": 1472,
      "▁(PDF": 1473,
      "ire": 1474,
      "▁at": 1475,
      "_p": 1476,
      "ath": 1477,
      "ec": 1478,
      "कार": 1479,
      "पर": 1480,
      "కా": 1481,
      "ణా": 1482,
      "దక్ష": 1483,
      "ధిక": 1484,
      "▁कर": 1485,
      "▁ప్రా": 1486,
      "▁mo": 1487,
      "▁వి": 1488,
      "ंग्रे": 1489,
      "ublic": 1490,
      "సియా": 1491,
      "india.gov.in/": 1492,
      "జాతీయ": 1493,
      "-p": 1494,
      "क्त": 1495,
      "िर": 1496,
      "ोल": 1497,
      "▁7": 1498,
      "ficial": 1499,
      "▁[Archived": 1500,
      "MetcalfMetcalf": 1501,
      "html": 1502,
      "port": 1503,
      "कि": 1504,
      "मी": 1505,
      "వం": 1506,
      "ದಲ್ಲಿ": 1507,
      "ವರ್": 1508,
      "▁un": 1509,
      "▁[1": 1510,
      "ase": 1511,
      "▁సం": 1512,
      "ರಾಜ್ಯ": 1513,
      "▁చరిత్ర": 1514,
      "ture": 1515,
      "ನ್ನು": 1516,
      "ex": 1517,
      "ant": 1518,
      "](https://en.wikipedia.org/wiki/E": 1519,
      "ational_": 1520,
      "1,": 1521,
      "85": 1522,
      "s.": 1523,
      "sv": 1524,
      "డి": 1525,
      "▁[the": 1526,
      "ark": 1527,
      "his": 1528,
      "riti": 1529,
      "ach": 1530,
      "हिन्द": 1531,
      "▁which": 1532,
      "0%": 1533,
      "4)": 1534,
      "ंध": 1535,
      "ेष": 1536,
      "▁[E": 1537,
      "](https://en.wikipedia.org/wiki/T": 1538,
      "](https://hi.wikipedia.org/wiki/म": 1539,
      "out": 1540,
      "_by_": 1541,
      "_G": 1542,
      "ी\")": 1543,
      "ంధ": 1544,
      "ದ್": 1545,
      "ಮು": 1546,
      "▁ಭಾರತ": 1547,
      "ack": 1548,
      "▁pro": 1549,
      "స్త": 1550,
      "ाना": 1551,
      "▁अन": 1552,
      "▁రాజ్యం": 1553,
      "ಕ್ಷ": 1554,
      "ಾಗಿ": 1555,
      "▁సామ్రాజ్యం": 1556,
      "వర్గ": 1557,
      "ಭಾಷೆ": 1558,
      ".nic.in/": 1559,
      "దక్షి": 1560,
      "World": 1561,
      "ik": 1562,
      "द्": 1563,
      "से": 1564,
      "▁li": 1565,
      "▁[T": 1566,
      "▁क्षेत्र": 1567,
      "62": 1568,
      "fe": 1569,
      "uc": 1570,
      "దీ": 1571,
      "ding": 1572,
      "ingh": 1573,
      "र्म": 1574,
      "ండి": 1575,
      "▁that": 1576,
      "వర్గం:": 1577,
      "250": 1578,
      "ef": 1579,
      "ते": 1580,
      "धान": 1581,
      "वा": 1582,
      "ess": 1583,
      "cies": 1584,
      "aste": 1585,
      "▁South": 1586,
      "\"](https://web.archive.org/web/201": 1587,
      "भि": 1588,
      "श्": 1589,
      "తర": 1590,
      "ది": 1591,
      "ವೇ": 1592,
      "್ಚ": 1593,
      "▁బ": 1594,
      "\")•": 1595,
      "sic": 1596,
      "territ": 1597,
      "▁199": 1598,
      "2)": 1599,
      "bot": 1600,
      "धार": 1601,
      "ृत": 1602,
      "ties": 1603,
      "ree": 1604,
      "▁India's": 1605,
      "▁ने": 1606,
      "37": 1607,
      "_R": 1608,
      "countries": 1609,
      "sland": 1610,
      "world": 1611,
      "ట్": 1612,
      "ిత": 1613,
      "्रा": 1614,
      "ames": 1615,
      "10.": 1616,
      "▁has": 1617,
      "RICS": 1618,
      "ah": 1619,
      "od": 1620,
      "albot": 1621,
      "###": 1622,
      "विशेष": 1623,
      "]](https://kn.wikipedia.org/wiki/ಭಾರತ#cite_": 1624,
      "_చ": 1625,
      "के": 1626,
      "ం\")": 1627,
      "ಕಿ": 1628,
      "ಗಣ": 1629,
      "ದಿ": 1630,
      "ಮಿ": 1631,
      "ರೆ": 1632,
      "ಹಿಂದ": 1633,
      "▁ದ": 1634,
      "▁\"మ": 1635,
      "▁\"In": 1636,
      "ass": 1637,
      "entr": 1638,
      "ange": 1639,
      "ింది.": 1640,
      "लेख": 1641,
      "vis": 1642,
      "ोत": 1643,
      "▁[अ": 1644,
      "ril": 1645,
      "▁countries": 1646,
      "ile:": 1647,
      "120": 1648,
      "6)": 1649,
      "65": 1650,
      "67": 1651,
      "Asher": 1652,
      "iki": 1653,
      "▁१": 1654,
      "▁ఎ": 1655,
      "▁[మ": 1656,
      "ten": 1657,
      "\")*": 1658,
      "inist": 1659,
      "](https://en.wikipedia.org/wiki/A": 1660,
      "ission": 1661,
      "rig": 1662,
      "amil": 1663,
      "ीय_": 1664,
      "▁(సా.శ.పూ.": 1665,
      "_E": 1666,
      "hy": 1667,
      "ions": 1668,
      "ंद": 1669,
      "ंत्र": 1670,
      "ूल": 1671,
      "▁\"अ": 1672,
      "](https://en.wikipedia.org/wiki/N": 1673,
      "▁ति": 1674,
      "](http://www.": 1675,
      "▁एक": 1676,
      "\"\r\n": 1677,
      "-m": 1678,
      "3)": 1679,
      "File:": 1680,
      "co": 1681,
      "ho": 1682,
      "par": 1683,
      "ధ్య": 1684,
      "ಗ:": 1685,
      "▁గ": 1686,
      "▁శ": 1687,
      "▁[भारत": 1688,
      "▁\"The": 1689,
      "isation": 1690,
      "ous": 1691,
      "▁पु": 1692,
      "une": 1693,
      "ంద్ర": 1694,
      "cont": 1695,
      "▁ಹೆ": 1696,
      "onstitution": 1697,
      "roup": 1698,
      "ವರ್ಗ:": 1699,
      "विशेष:": 1700,
      "GDP": 1701,
      "ia": 1702,
      "ोग": 1703,
      "nolog": 1704,
      "2003": 1705,
      "rap": 1706,
      "outh_A": 1707,
      "AAQBAJ&pg=PA": 1708,
      "..": 1709,
      "IN": 1710,
      "oh": 1711,
      "िण": 1712,
      "ైన": 1713,
      "▁\"स": 1714,
      "ers": 1715,
      "ric": 1716,
      "](https://te.wikipedia.org/wiki/మ": 1717,
      "2009": 1718,
      "▁పే": 1719,
      "▁Re": 1720,
      "स्तान": 1721,
      "/https://www.": 1722,
      "ritish": 1723,
      "0.": 1724,
      "ts": 1725,
      "mpire": 1726,
      "ommission": 1727,
      "List_of_countries": 1728,
      "ram": 1729,
      "ట్ట": 1730,
      "హింద": 1731,
      "ಟಿ": 1732,
      "ಣಿ": 1733,
      "ತಂತ": 1734,
      "▁8": 1735,
      "▁ಎ": 1736,
      "▁ರ": 1737,
      "▁భారతదేశం": 1738,
      "](File:": 1739,
      "▁[R": 1740,
      "](https://en.wikipedia.org/wiki/G": 1741,
      "hist": 1742,
      "lection": 1743,
      "lion": 1744,
      "2004": 1745,
      "▁ಸಾ": 1746,
      "ంగ్": 1747,
      ".jpg)\r\n": 1748,
      "ద్ధ": 1749,
      "▁ಜನಸಂ": 1750,
      "ತಂತ್ರ": 1751,
      ")\")": 1752,
      "ati": 1753,
      "cre": 1754,
      "qu": 1755,
      "ीप": 1756,
      "▁pe": 1757,
      "▁le": 1758,
      "▁[K": 1759,
      "▁2014": 1760,
      "-in": 1761,
      "ించ": 1762,
      "▁ఒ": 1763,
      "▁భాష": 1764,
      "▁[క": 1765,
      "▁\"R": 1766,
      "ini": 1767,
      "ridge": 1768,
      "ాల్": 1769,
      "](https://en.wikipedia.org/wiki/India#cite_ref-FOOTNOTE": 1770,
      "▁2021": 1771,
      "▁प्रदेश": 1772,
      "elhi": 1773,
      "-0-5": 1774,
      "क्षिण": 1775,
      "ansk": 1776,
      "template": 1777,
      "times": 1778,
      "MetcalfMetcalf2006": 1779,
      "-b": 1780,
      "_1": 1781,
      "गमन": 1782,
      "थि": 1783,
      "▁U": 1784,
      "▁[स": 1785,
      "/978": 1786,
      "7)": 1787,
      "]](https://te.wikipedia.org/wiki/భారతదేశం#cite_": 1788,
      "gion": 1789,
      "rg": 1790,
      "wn": 1791,
      "द्य": 1792,
      "नी": 1793,
      "ी_स": 1794,
      "చ్చ": 1795,
      "జీ": 1796,
      "ేంద్ర": 1797,
      "ಂಧ": 1798,
      "ಗೆ": 1799,
      "ವಾ": 1800,
      "ಿಮ": 1801,
      "▁ಚ": 1802,
      "▁ಧರ್ಮ": 1803,
      "▁\"K": 1804,
      "▁\"క": 1805,
      "ಂದಿ": 1806,
      "ಭಾರತದ_": 1807,
      "▁./ವರ್ಗ:": 1808,
      "do-": 1809,
      "tates": 1810,
      "▁तिथि": 1811,
      "anskrit": 1812,
      "/c": 1813,
      "RC": 1814,
      "dom": 1815,
      "o-": 1816,
      "ope": 1817,
      "usic": 1818,
      "ँच": 1819,
      "यु": 1820,
      "ून": 1821,
      "orth": 1822,
      "▁\"Indian": 1823,
      "ater": 1824,
      "▁st": 1825,
      "2007": 1826,
      "emplate": 1827,
      "▁its": 1828,
      "69": 1829,
      "_F": 1830,
      "_language": 1831,
      "త్య": 1832,
      "బ్": 1833,
      "మీ": 1834,
      "▁ख": 1835,
      "](https://te.wikipedia.org/wiki/ద": 1836,
      "్యా": 1837,
      "▁18": 1838,
      "ury": 1839,
      "రాష్ట్ర": 1840,
      "▁./వర్గం:": 1841,
      "ower": 1842,
      "▁तिथि:": 1843,
      "eb": 1844,
      "mer": 1845,
      "na": 1846,
      "▁te": 1847,
      "dit": 1848,
      "ord": 1849,
      "any": 1850,
      "uman": 1851,
      "hel": 1852,
      "▁languages": 1853,
      "▁भारतीय": 1854,
      "ambridge": 1855,
      "-s": 1856,
      "_ಮ": 1857,
      "जन": 1858,
      "ढ़": 1859,
      "धिक": 1860,
      "ంక": 1861,
      "ప్": 1862,
      "యు": 1863,
      "ಪಾ": 1864,
      "ಪ್ರ": 1865,
      "▁೧": 1866,
      "▁[L": 1867,
      "▁[In": 1868,
      "▁\"L": 1869,
      "arch": 1870,
      "ome": 1871,
      "▁अभि": 1872,
      "\").[[": 1873,
      "▁देश": 1874,
      "తంత్ర": 1875,
      "ಂಗ್": 1876,
      "late_": 1877,
      "](https://te.wikipedia.org/wiki/భారతదేశం#cite_ref-": 1878,
      "▁ಪ್ರದೇಶ": 1879,
      "ರಾಷ್ಟ್ರೀಯ": 1880,
      "దక్షిణ": 1881,
      "▁ಜನಸಂಖ್ಯ": 1882,
      "]](https://te.wikipedia.org/wiki/భారతదేశం#cite_note-": 1883,
      "▁अभिगमन": 1884,
      "Oxford": 1885,
      "_m": 1886,
      "kno": 1887,
      "धर्म": 1888,
      "eneral": 1889,
      "inent": 1890,
      "on-": 1891,
      "्री": 1892,
      "्रोत": 1893,
      "▁cont": 1894,
      "uly": 1895,
      "ulture": 1896,
      "▁जन": 1897,
      "▁तथा": 1898,
      "▁\"भारतीय": 1899,
      "yson": 1900,
      "56": 1901,
      "59": 1902,
      "E0%": 1903,
      "_స": 1904,
      "ave": 1905,
      "mb": 1906,
      "oc": 1907,
      "ती": 1908,
      "त्": 1909,
      "बर": 1910,
      "తము": 1911,
      "వే": 1912,
      "ష్": 1913,
      "ాన్": 1914,
      "▁6": 1915,
      "▁च": 1916,
      "encies": 1917,
      "▁\"क": 1918,
      "alth": 1919,
      "▁(201": 1920,
      "ament": 1921,
      "▁Ap": 1922,
      "స్క": 1923,
      "ligion": 1924,
      "ograp": 1925,
      "▁हैं।": 1926,
      "ిల్లీ": 1927,
      "hand": 1928,
      "ili": 1929,
      "national": 1930,
      "हर": 1931,
      "ूर्व": 1932,
      "्ल": 1933,
      "▁ad": 1934,
      "dition": 1935,
      "ashm": 1936,
      "ood": 1937,
      "act": 1938,
      "▁Archived": 1939,
      "uring": 1940,
      "akistan": 1941,
      "-t": 1942,
      ".sv": 1943,
      "34": 1944,
      "वं": 1945,
      "జి": 1946,
      "ధాన": 1947,
      "బె": 1948,
      "ಟ್ಟ": 1949,
      "ತ್ರ": 1950,
      "ದು": 1951,
      "ಾಲ": 1952,
      "೨೦": 1953,
      "▁ಉ": 1954,
      "▁ಶ": 1955,
      "▁ಭಾಷೆ": 1956,
      "end": 1957,
      "alay": 1958,
      "cient": 1959,
      "](https://hi.wikipedia.org/wiki/क": 1960,
      "ారు": 1961,
      "▁se": 1962,
      "\\_S": 1963,
      "ಾರ್": 1964,
      "▁కా": 1965,
      "▁ಪಾ": 1966,
      "▁రాజ": 1967,
      "स्तक": 1968,
      "AARC": 1969,
      "पुस्तक": 1970,
      "▁[978-1": 1971,
      "dern": 1972,
      "ಸ್ತಾನ": 1973,
      "विशेष:पुस्तक": 1974,
      "्रोत/978": 1975,
      "05": 1976,
      "3,": 1977,
      "Dw": 1978,
      "dus": 1979,
      "val": 1980,
      "ves": 1981,
      "मान": 1982,
      "ally": 1983,
      "usin": 1984,
      "urope": 1985,
      "िका": 1986,
      "▁जा": 1987,
      "राष्ट्रीय": 1988,
      "radesh": 1989,
      "द्ध": 1990,
      "\"](https://www.": 1991,
      "[![": 1992,
      "ober": 1993,
      "ug": 1994,
      "दी": 1995,
      "रकार": 1996,
      "हार": 1997,
      "దు": 1998,
      "మ్": 1999,
      "శ్": 2000,
      "▁\"H": 2001,
      "](https://hi.wikipedia.org/wiki/स": 2002,
      "](https://te.wikipedia.org/wiki/క": 2003,
      "▁sub": 2004,
      "్యవ": 2005,
      "▁17": 2006,
      "umber": 2007,
      "▁were": 2008,
      "ంది.": 2009,
      "▁History": 2010,
      "पुर": 2011,
      "Stein2010": 2012,
      "_చరిత్ర": 2013,
      "/p": 2014,
      "mber": 2015,
      "▁si": 2016,
      "▁राज": 2017,
      "▁[क": 2018,
      "▁\"ब": 2019,
      "▁cent": 2020,
      "peration": 2021,
      "1998": 2022,
      "doi": 2023,
      "विश्व": 2024,
      "▁इस": 2025,
      "▁Hindu": 2026,
      "ommissioner": 2027,
      ".;": 2028,
      "8)": 2029,
      "ఢిల్లీ": 2030,
      "పంచ": 2031,
      "ವಾಗಿ": 2032,
      "ೃತ": 2033,
      "▁\"ಭಾರತದ": 2034,
      "rib": 2035,
      "ారి": 2036,
      "ates": 2037,
      "](https://kn.wikipedia.org/wiki/ಭಾರತದ_": 2038,
      "▁मेला": 2039,
      "▁10": 2040,
      "▁[↑](https://kn.wikipedia.org/wiki/ಭಾರತ#cite_": 2041,
      "▁ಕೋ": 2042,
      "ystem": 2043,
      ".jpg)](File:": 2044,
      "ಸ್ಥೆ": 2045,
      "మూస": 2046,
      "right": 2047,
      "-g": 2048,
      "_Uni": 2049,
      "a,": 2050,
      "les/": 2051,
      "oi": 2052,
      "sc": 2053,
      "गु": 2054,
      "▁स्": 2055,
      "रालेख": 2056,
      "depend": 2057,
      "age/": 2058,
      "irst": 2059,
      "▁June": 2060,
      "▁July": 2061,
      "Hindi": 2062,
      "continent": 2063,
      "▁April": 2064,
      "-l": 2065,
      "Wiki": 2066,
      "country": 2067,
      "ा_": 2068,
      "िव": 2069,
      "వు": 2070,
      "▁\"F": 2071,
      "▁\"प": 2072,
      "▁\"భారతీయ": 2073,
      "](https://en.wikipedia.org/wiki/In": 2074,
      "2005": 2075,
      "ref-1": 2076,
      "note-1": 2077,
      "▁हु": 2078,
      "ound": 2079,
      "ctober": 2080,
      "_की_स": 2081,
      "](https://web.archive.org/web/20": 2082,
      "imf": 2083,
      "▁वर्": 2084,
      "_में": 2085,
      "250px-": 2086,
      "entral": 2087,
      "%E0%": 2088,
      "44": 2089,
      "5)": 2090,
      "57": 2091,
      "_the": 2092,
      "ध्य": 2093,
      "्च": 2094,
      "▁[ब": 2095,
      "ese": 2096,
      "](https://hi.wikipedia.org/wiki/अ": 2097,
      "ace": 2098,
      "▁An": 2099,
      "र्थ": 2100,
      "▁2022": 2101,
      "स्क": 2102,
      "news/": 2103,
      "ंग्रेज़": 2104,
      "रालेखित": 2105,
      ".\"\r\n": 2106,
      "2%": 2107,
      "oor": 2108,
      "ज्": 2109,
      "జన": 2110,
      "టు": 2111,
      "టె": 2112,
      "ಕಾ": 2113,
      "ಪು": 2114,
      "ಯು": 2115,
      "ವೆ": 2116,
      "▁21": 2117,
      "](https://en.wikipedia.org/wiki/R": 2118,
      "ats": 2119,
      "2008": 2120,
      "\\_with": 2121,
      "ice": 2122,
      "line": 2123,
      "▁Pro": 2124,
      "▁25": 2125,
      "india/": 2126,
      "emb": 2127,
      "▁ಮು": 2128,
      "▁చె": 2129,
      "apit": 2130,
      "నాయ": 2131,
      "aint": 2132,
      "–సా.శ.పూ.": 2133,
      "▁World": 2134,
      "▁ఆర్": 2135,
      "matics": 2136,
      "పాలిత": 2137,
      "▁भी": 2138,
      "స్త్రం:": 2139,
      "▁ప్రాంత": 2140,
      "ಹಿಂದೂ": 2141,
      "inistry": 2142,
      "-0-521": 2143,
      "ేంద్రపాలిత": 2144,
      "](https://te.wikipedia.org/wiki/దస్త్రం:": 2145,
      ",0": 2146,
      "9)": 2147,
      "Talbot": 2148,
      "_भारत": 2149,
      "air": 2150,
      "ran": 2151,
      "shi": 2152,
      "थान": 2153,
      "रे": 2154,
      "हास": 2155,
      "िट": 2156,
      "िश": 2157,
      "▁v": 2158,
      "ined": 2159,
      "led": 2160,
      "▁Census": 2161,
      "dex": 2162,
      "ill": 2163,
      "_and_S": 2164,
      "चित्र": 2165,
      "AsherTalbot": 2166,
      ",000": 2167,
      "4%": 2168,
      "Edit": 2169,
      "Page/": 2170,
      "iv": 2171,
      "ms": 2172,
      "mund": 2173,
      "ove": 2174,
      "olog": 2175,
      "द्र": 2176,
      "फ़": 2177,
      "ुख": 2178,
      "ఖ్య": 2179,
      "గో": 2180,
      "తో": 2181,
      "బి": 2182,
      "హి": 2183,
      "▁[H": 2184,
      "](https://hi.wikipedia.org/wiki/ब": 2185,
      "\\_and": 2186,
      "\\_errors": 2187,
      "▁co": 2188,
      "▁Asian": 2189,
      "▁15": 2190,
      "ctor": 2191,
      "▁October": 2192,
      "▁not": 2193,
      "ories": 2194,
      "othermund": 2195,
      "help": 2196,
      "స్కృ": 2197,
      "\\_with\\_": 2198,
      "EditPage/": 2199,
      "-f": 2200,
      "121": 2201,
      "ces": 2202,
      "man": 2203,
      "sp": 2204,
      "ution": 2205,
      "शिया": 2206,
      "▁territ": 2207,
      "ork": 2208,
      "omb": 2209,
      "▁par": 2210,
      "ulke": 2211,
      "▁2016": 2212,
      "](https://hi.wikipedia.org/wiki/भारत_में": 2213,
      "tical": 2214,
      "argest": 2215,
      "ongress": 2216,
      "india.gov.in": 2217,
      "/0": 2218,
      "1_": 2219,
      "330": 2220,
      "_ప": 2221,
      "aw": 2222,
      "fter": 2223,
      "las": 2224,
      "oci": 2225,
      "uk": 2226,
      "year": 2227,
      "ीन": 2228,
      "హా": 2229,
      "ి.\r\n": 2230,
      "ಕೆ": 2231,
      "ತೆ": 2232,
      "ದಾ": 2233,
      "ನೆ": 2234,
      "ುನಾ": 2235,
      "ೇಂದ": 2236,
      "ೈನ": 2237,
      "ೊಂದಿ": 2238,
      "▁ಈ": 2239,
      "▁ಲ": 2240,
      "▁ను": 2241,
      "▁జాతీయ": 2242,
      "ister": 2243,
      "](https://en.wikipedia.org/wiki/Indian_": 2244,
      "197": 2245,
      "▁सम": 2246,
      "aman": 2247,
      "▁हि": 2248,
      "old": 2249,
      "nglish": 2250,
      "eptem": 2251,
      "ortal": 2252,
      "▁ವಿ": 2253,
      "▁([help": 2254,
      "ಗಳು\r\n": 2255,
      "%20%20": 2256,
      "s\"))\r\n": 2257,
      "ಂಗಾ": 2258,
      "त्तर": 2259,
      "▁errors\"))\r\n": 2260,
      "dustry": 2261,
      "]](https://kn.wikipedia.org/wiki/ಭಾರತ#cite_note-": 2262,
      "ಕಿಸ್ತಾನ": 2263,
      "్యవస్థ": 2264,
      "eptember": 2265,
      "\"](https://": 2266,
      "100": 2267,
      "2-": 2268,
      "86": 2269,
      "ail": 2270,
      "gar": 2271,
      "rary": 2272,
      "मिल": 2273,
      "ुस": 2274,
      "▁9": 2275,
      "▁[W": 2276,
      "one": 2277,
      "▁India,": 2278,
      "▁सूची": 2279,
      "▁2010": 2280,
      "210": 2281,
      "illion": 2282,
      "/http://www.": 2283,
      "_c": 2284,
      "data": 2285,
      "fn_": 2286,
      "yn": 2287,
      "रु": 2288,
      "ूच": 2289,
      "డా": 2290,
      "దా": 2291,
      "బడ": 2292,
      "మే": 2293,
      "రణ": 2294,
      "▁లో": 2295,
      "▁template": 2296,
      "ority": 2297,
      "▁[प": 2298,
      "2014": 2299,
      "no-t": 2300,
      "\\_no-t": 2301,
      "▁Sfn": 2302,
      "▁target": 2303,
      "▁26": 2304,
      "▁కూ": 2305,
      "ాలు,": 2306,
      "▁రాష్ట్ర": 2307,
      "fn\\_no-t": 2308,
      "template_": 2309,
      "కిస్తాన్": 2310,
      "▁Development": 2311,
      "▁error:": 2312,
      "arget\\_errors": 2313,
      "▁చరిత్ర\")": 2314,
      "\\_Sfn\\_no-t": 2315,
      "_and_Sfn_": 2316,
      "\\_and\\_Sfn\\_no-t": 2317,
      "▁target:": 2318,
      "template_errors": 2319,
      "arget\\_errors\r\n": 2320,
      "_and_Sfn_template_errors": 2321,
      "\\_and\\_Sfn\\_no-target\\_errors\r\n": 2322,
      "8/": 2323,
      "je": 2324,
      "ne": 2325,
      "pt": 2326,
      "ugh": 2327,
      "कर": 2328,
      "▁+": 2329,
      "▁per": 2330,
      "▁[F": 2331,
      "anisation": 2332,
      "time": 2333,
      "ofindia": 2334,
      "ouse": 2335,
      "ed.": 2336,
      "▁सरकार": 2337,
      "▁population": 2338,
      "▁con": 2339,
      "▁CITEREF": 2340,
      "low": 2341,
      "rab": 2342,
      "▁2007": 2343,
      "▁this": 2344,
      "articles": 2345,
      "▁[Archived](https://web.archive.org/web/201": 2346,
      "ashmir": 2347,
      "[![](https://upload.wikimedia.org/wikipedia/commons/thumb/": 2348,
      "-language": 2349,
      "1/": 2350,
      "87": 2351,
      "C&pg=PA": 2352,
      "_L": 2353,
      "mar": 2354,
      "tar": 2355,
      "uj": 2356,
      "पाल": 2357,
      "हु": 2358,
      "ा:": 2359,
      "ैद": 2360,
      "ोक": 2361,
      "ಂಬ": 2362,
      "ಗಿ": 2363,
      "ಗು": 2364,
      "ಡಿ": 2365,
      "ಭೆ": 2366,
      "ಯಾ": 2367,
      "ಸಭೆ": 2368,
      "▁घ": 2369,
      "▁२": 2370,
      "▁ఈ": 2371,
      "▁ಒ": 2372,
      "▁es": 2373,
      "▁ag": 2374,
      "▁భారత": 2375,
      "▁[ಮ": 2376,
      "▁\"ಮ": 2377,
      "lim": 2378,
      "](https://kn.wikipedia.org/wiki/ಮ": 2379,
      "ing\\_": 2380,
      "త్రి": 2381,
      "ాలు\")": 2382,
      "ాలు](https://te.wikipedia.org/wiki/": 2383,
      "ign": 2384,
      "_Indian_": 2385,
      "▁government": 2386,
      "▁तक": 2387,
      "▁./Category:": 2388,
      "ternational": 2389,
      "▁\"Special:BookSources/978-1": 2390,
      "](Special:BookSources/978-1": 2391,
      "▁Island": 2392,
      "Hindu": 2393,
      "साँच": 2394,
      "gency": 2395,
      "▁(PDF)": 2396,
      "किस्तान": 2397,
      "emplate:": 2398,
      "89": 2399,
      "Singh": 2400,
      "aper": 2401,
      "gist": 2402,
      "hp": 2403,
      "han": 2404,
      "rar": 2405,
      "्ड": 2406,
      "liament": 2407,
      "▁September": 2408,
      "](https://hi.wikipedia.org/wiki/भारतीय_": 2409,
      "▁Empire": 2410,
      "ople": 2411,
      "▁New": 2412,
      "isher": 2413,
      "▁Asia\")": 2414,
      "also": 2415,
      "gistrar": 2416,
      ",6": 2417,
      "31": 2418,
      "51": 2419,
      "_క": 2420,
      "fficial": 2421,
      "odi": 2422,
      "van": 2423,
      "न\")": 2424,
      "सम": 2425,
      "ूर": 2426,
      "తు": 2427,
      "పతి": 2428,
      "▁ని": 2429,
      "▁స్థ": 2430,
      "▁[అ": 2431,
      "▁[ప": 2432,
      "▁\"భారతదేశం": 2433,
      "\")*.": 2434,
      "erv": 2435,
      "్రి": 2436,
      "ledge": 2437,
      "▁pl": 2438,
      "▁sfn": 2439,
      "▁ch": 2440,
      "▁comp": 2441,
      "▁Commissioner": 2442,
      "ical": 2443,
      "ర్వ": 2444,
      "న్ని": 2445,
      "▁हो": 2446,
      "ों_की_स": 2447,
      "PPP": 2448,
      "మిళ": 2449,
      "వంశ": 2450,
      "श्चि": 2451,
      "DwAAQBAJ&pg=PA": 2452,
      "athe": 2453,
      "hat": 2454,
      "ris": 2455,
      "ओं": 2456,
      "गण": 2457,
      "ीं": 2458,
      "ूप": 2459,
      "king": 2460,
      "](https://hi.wikipedia.org/wiki/प": 2461,
      "lear": 2462,
      "ross": 2463,
      "olper": 2464,
      "iron": 2465,
      "▁\"South": 2466,
      "▁En": 2467,
      "▁National": 2468,
      "duc": 2469,
      "]](https://hi.wikipedia.org/wiki/भारत#cite_note-FOOTNOTE": 2470,
      "ummit\")": 2471,
      "▁language\")": 2472,
      "censusindia.gov.in/": 2473,
      "List_of_countries_by_": 2474,
      "ographi": 2475,
      "olpert": 2476,
      "/A": 2477,
      "_3": 2478,
      "_మ": 2479,
      "_భాష": 2480,
      "ocial": 2481,
      "ron": 2482,
      "tal": 2483,
      "रब": 2484,
      "ली": 2485,
      "्स": 2486,
      "ఫ్": 2487,
      "ಖ್": 2488,
      "ಚ್ಚ": 2489,
      "ಟೆ": 2490,
      "ಣೆ": 2491,
      "ಪಂ": 2492,
      "ಬ್ಯಾ": 2493,
      "ಭೂ": 2494,
      "ರಂ": 2495,
      "ಲಾ": 2496,
      "ಷ್": 2497,
      "ಹಾ": 2498,
      "ಹಲಿ": 2499,
      "ು.": 2500,
      "▁స్": 2501,
      "▁also": 2502,
      "▁[J": 2503,
      "▁[బ": 2504,
      "▁[స": 2505,
      "▁[ಭಾರತದ": 2506,
      "tel": 2507,
      "▁\"J": 2508,
      "▁\"అ": 2509,
      "ince": 2510,
      "](https://en.wikipedia.org/wiki/List_of_": 2511,
      "them": 2512,
      "▁किया": 2513,
      "1947": 2514,
      "న్నాయ": 2515,
      "row": 2516,
      "ters": 2517,
      "▁2018": 2518,
      "radition": 2519,
      "▁కాల": 2520,
      "ರ್ಥ": 2521,
      "नाम": 2522,
      "▁have": 2523,
      "imes": 2524,
      "ులు](https://te.wikipedia.org/wiki/": 2525,
      "ಂತರ": 2526,
      "▁రై": 2527,
      "ಸಿಂಧ": 2528,
      "ದೆ.": 2529,
      "ದೆಹಲಿ": 2530,
      "_के_राज्य": 2531,
      ".jpg)](https://te.wikipedia.org/wiki/దస్త్రం:": 2532,
      ".jpg/250px-": 2533,
      "Stein1998": 2534,
      "ದ್ಧ": 2535,
      "ವೇಬ್ಯಾ": 2536,
      "ंदिर": 2537,
      "outh_Asia": 2538,
      "హిందూ": 2539,
      "Singh2009": 2540,
      "ವೇಬ್ಯಾಕ್": 2541,
      "84": 2542,
      "Dyson": 2543,
      "_प्र": 2544,
      "ph": 2545,
      "rac": 2546,
      "s-": 2547,
      "viron": 2548,
      "जी": 2549,
      "दक्षिण": 2550,
      "ष्": 2551,
      "▁0.": 2552,
      "▁year": 2553,
      "anu": 2554,
      "▁into": 2555,
      "▁system": 2556,
      "▁16": 2557,
      "्वीप": 2558,
      ".php": 2559,
      "engal": 2560,
      "uclear": 2561,
      ".svg": 2562,
      "uropean": 2563,
      "ज्ञ": 2564,
      "ombined": 2565,
      "censusindia.gov.in/2011": 2566,
      "vironment": 2567,
      "Pages": 2568,
      "pur": 2569,
      "ta": 2570,
      "ंजा": 2571,
      "ख्या": 2572,
      "वन": 2573,
      "वे": 2574,
      "ेव": 2575,
      "ఆసియా": 2576,
      "ద్ర": 2577,
      "భూ": 2578,
      "మె": 2579,
      "య్య": 2580,
      "ర్య": 2581,
      "▁ల": 2582,
      "▁us": 2583,
      "▁\"ప": 2584,
      "▁\"బ": 2585,
      "▁\"స": 2586,
      "](https://en.wikipedia.org/wiki/H": 2587,
      "](https://en.wikipedia.org/wiki/K": 2588,
      "▁their": 2589,
      "entre": 2590,
      "anges": 2591,
      "▁Population": 2592,
      "▁Pradesh": 2593,
      "▁2019": 2594,
      "▁[↑](https://te.wikipedia.org/wiki/భారతదేశం#cite_ref-": 2595,
      "ember": 2596,
      "न्न": 2597,
      "త్త": 2598,
      "▁during": 2599,
      "▁అధిక": 2600,
      "▁ప్రదేశ్": 2601,
      "ప్రదేశ్": 2602,
      "▁भाषा\")": 2603,
      "_summit": 2604,
      "crease": 2605,
      "▁खाना": 2606,
      "330px-": 2607,
      "▁నుండి": 2608,
      "ों_की_सूची": 2609,
      "ंजाब": 2610,
      "88": 2611,
      "बसे": 2612,
      "ुल": 2613,
      "win": 2614,
      "wing": 2615,
      "▁[I": 2616,
      "inister": 2617,
      "ley": 2618,
      "ool": 2619,
      "▁Aug": 2620,
      "▁first": 2621,
      "▁Se": 2622,
      "ural": 2623,
      "ेंद्र": 2624,
      "](https://hi.wikipedia.org/wiki/भारत_क": 2625,
      ".gov/": 2626,
      "_Press": 2627,
      "▁गया": 2628,
      "▁Press\").": 2629,
      "▁राज्यों": 2630,
      "▁(PDF).": 2631,
      "▁[Archived](https://web.archive.org/web/20": 2632,
      "html)": 2633,
      "outledge": 2634,
      "120px-": 2635,
      "▁August": 2636,
      "2-0)": 2637,
      "Combined": 2638,
      "Rothermund": 2639,
      "_re": 2640,
      "_at": 2641,
      "jab": 2642,
      "ost": 2643,
      "बंध": 2644,
      "ణి": 2645,
      "తమిళ": 2646,
      "మైన": 2647,
      "హార": 2648,
      "ోర్": 2649,
      "ಖಂಡ": 2650,
      "ಮ್ರಾ": 2651,
      "ಶ್ಚ": 2652,
      "ಹಾರ": 2653,
      "್ಮ": 2654,
      "▁\"O": 2655,
      "▁\"ఇ": 2656,
      "▁\"భారత": 2657,
      "ind": 2658,
      "](https://en.wikipedia.org/wiki/J": 2659,
      "](https://en.wikipedia.org/wiki/L": 2660,
      "eration": 2661,
      "](https://te.wikipedia.org/wiki/బ": 2662,
      "▁India:": 2663,
      "▁Ch": 2664,
      "ument": 2665,
      "urr": 2666,
      "್ಯವ": 2667,
      "ourt": 2668,
      "resid": 2669,
      "▁ಸ್ವ": 2670,
      "230": 2671,
      "ayan": 2672,
      "▁మొ": 2673,
      "▁2023": 2674,
      "ಸ್ಕ": 2675,
      "▁नि": 2676,
      "నాగ": 2677,
      "త్తర": 2678,
      "ులు\")": 2679,
      "▁ಹೊಂದಿ": 2680,
      "न्द्र": 2681,
      "▁[मूल": 2682,
      "ffair": 2683,
      "ibrary": 2684,
      "ियों": 2685,
      "▁ಹೆಚ್ಚ": 2686,
      "ತಂತ್ರ್ಯ": 2687,
      "▁ಪಾಕಿಸ್ತಾನ": 2688,
      "శ్మీ": 2689,
      "మూస:": 2690,
      "ುನಾವ": 2691,
      "ರ್ಥಿಕ": 2692,
      "Dyson2018": 2693,
      "Pages\\_": 2694,
      "ಮ್ರಾಜ್ಯ": 2695,
      "%28": 2696,
      "61": 2697,
      "Kulke": 2698,
      "lag": 2699,
      "pr": 2700,
      "son": 2701,
      "uis": 2702,
      "ymb": 2703,
      "चल": 2704,
      "ब्": 2705,
      "िन": 2706,
      "▁$": 2707,
      "▁[t": 2708,
      "India)": 2709,
      "are": 2710,
      "2023": 2711,
      "estern": 2712,
      "cience": 2713,
      "▁सबसे": 2714,
      "sical": 2715,
      "▁state": 2716,
      "▁Ass": 2717,
      "rop": 2718,
      "▁world": 2719,
      "▁**[": 2720,
      "ight": 2721,
      "ालय": 2722,
      "▁region": 2723,
      "epublic": 2724,
      ".png": 2725,
      "स्था": 2726,
      "चीन": 2727,
      "-2)": 2728,
      "hism": 2729,
      "▁पुरालेखित": 2730,
      "embly": 2731,
      "चित्र:": 2732,
      "▁सूची\")": 2733,
      "_and_Sfn_template_errors?action=edit&redlink=1": 2734,
      "▁पुरालेखित।": 2735,
      "\".": 2736,
      "-india-": 2737,
      "2_": 2738,
      "_K": 2739,
      "cat": 2740,
      "iver": 2741,
      "जरा": 2742,
      "ैन": 2743,
      "శా": 2744,
      "ైనా": 2745,
      "▁en": 2746,
      "▁al": 2747,
      "▁[U": 2748,
      "▁[ఇ": 2749,
      "▁\"జ": 2750,
      "annic": 2751,
      "eser": 2752,
      "](https://hi.wikipedia.org/wiki/चित्र:": 2753,
      "](https://te.wikipedia.org/wiki/ఇ": 2754,
      "](https://te.wikipedia.org/wiki/స": 2755,
      "etwe": 2756,
      "-17": 2757,
      "భారత_": 2758,
      "chnolog": 2759,
      "రాజ": 2760,
      "లో](https://te.wikipedia.org/wiki/": 2761,
      "రిజ": 2762,
      "క్కు": 2763,
      "ियाँ": 2764,
      "ండ్": 2765,
      "▁2009": 2766,
      "-81": 2767,
      "ritannic": 2768,
      "1994": 2769,
      "क्ति": 2770,
      "స్కృతి": 2771,
      "etween": 2772,
      "-re": 2773,
      "-19": 2774,
      "75": 2775,
      "_t": 2776,
      "gy": 2777,
      "hen": 2778,
      "her": 2779,
      "odern": 2780,
      "प्त": 2781,
      "ोर": 2782,
      "।[[": 2783,
      "▁'": 2784,
      "▁ri": 2785,
      "▁30": 2786,
      "▁[उ": 2787,
      "ond": 2788,
      "thnolog": 2789,
      "city": 2790,
      "ominal": 2791,
      "▁Chin": 2792,
      "adu": 2793,
      "lob": 2794,
      "come": 2795,
      "unjab": 2796,
      "▁1947": 2797,
      "▁जिस": 2798,
      "▁GDP": 2799,
      "▁प्रा": 2800,
      ".gov.in/": 2801,
      "▁form": 2802,
      "versity_Press": 2803,
      "स्थान": 2804,
      ".jpg/330px-": 2805,
      "vision": 2806,
      "history": 2807,
      "known": 2808,
      "ुसार": 2809,
      "KulkeRothermund": 2810,
      "thnologue": 2811,
      "-of": 2812,
      "2,": 2813,
      "2/": 2814,
      "4-0)": 2815,
      "76": 2816,
      "_H": 2817,
      "c=": 2818,
      "min": 2819,
      "ok": 2820,
      "ua": 2821,
      "ya": 2822,
      "च्च": 2823,
      "ण्ड": 2824,
      "वरी": 2825,
      "ం?action=edit&redlink=1": 2826,
      "చే": 2827,
      "బా": 2828,
      "ಕ್ತ": 2829,
      "ಗೋ": 2830,
      "ಜಾ": 2831,
      "ಜೈನ": 2832,
      "ಡಳ": 2833,
      "ಡೆ": 2834,
      "ಡ್": 2835,
      "ಧ್ಯ": 2836,
      "ಯಿ": 2837,
      "ಳಿ": 2838,
      "ಳು": 2839,
      "ಷಿ": 2840,
      "ಷ್ಯಾ": 2841,
      "ಿಲಿ": 2842,
      "ೀಪ": 2843,
      "ೋಕ": 2844,
      "ೌದ್ಧ": 2845,
      "–1": 2846,
      "▁[జ": 2847,
      "▁[ಬ": 2848,
      "tes": 2849,
      "▁\"ಬ": 2850,
      "](https://en.wikipedia.org/wiki/F": 2851,
      "omen": 2852,
      "▁India\"),": 2853,
      "ooperation": 2854,
      "ature": 2855,
      "](https://kn.wikipedia.org/wiki/ಬ": 2856,
      "▁పా": 2857,
      "▁1,": 2858,
      "vers": 2859,
      "raven": 2860,
      "](https://hi.wikipedia.org/wiki/भारत#CITEREF": 2861,
      "▁Th": 2862,
      "▁**ರಾಷ್ಟ್ರೀಯ": 2863,
      "oll": 2864,
      "▁వా": 2865,
      "ండు": 2866,
      "▁చూ": 2867,
      "able": 2868,
      "_सं": 2869,
      "త్వ": 2870,
      "a](https://en.wikipedia.org/wiki/S": 2871,
      "▁ಬೆ": 2872,
      "ప్రధాన": 2873,
      "ತಿಹಾ": 2874,
      "ರುವ": 2875,
      "▁original](https://www.": 2876,
      "▁है।\r\n": 2877,
      "view": 2878,
      "▁తే": 2879,
      "▁साथ": 2880,
      "article": 2881,
      "udden": 2882,
      "rganisation": 2883,
      "▁ಜನಸಂಖ್ಯೆ": 2884,
      "actbook": 2885,
      "usiness": 2886,
      "▁subcontinent": 2887,
      "▁ಕೋಟಿ": 2888,
      "](https://hi.wikipedia.org/wiki/भारत_में_": 2889,
      "censusindia.gov.in/2011census": 2890,
      "ಶ್ಚಿಮ": 2891,
      "ುನಾವಣೆ": 2892,
      "ymbol": 2893,
      "ಡಳಿತ": 2894,
      "ತಿಹಾಸ": 2895,
      "-20": 2896,
      "-le": 2897,
      "4/": 2898,
      "CE": 2899,
      "_d": 2900,
      "_%28": 2901,
      "dle": 2902,
      "ft": 2903,
      "ian": 2904,
      "ies": 2905,
      "nominal": 2906,
      "rans": 2907,
      "आई": 2908,
      "टे": 2909,
      "ाम": 2910,
      "▁/": 2911,
      "▁था": 2912,
      "▁धर्म": 2913,
      "▁[3": 2914,
      "▁\"श्रेणी:Harv": 2915,
      "](https://hi.wikipedia.org/wiki/श्रेणी:Harv": 2916,
      "andhi": 2917,
      "▁सि": 2918,
      "▁cons": 2919,
      "▁1.": 2920,
      "cember": 2921,
      "▁Metcalf": 2922,
      "▁1950": 2923,
      "▁General": 2924,
      "▁2024": 2925,
      "्वर": 2926,
      "▁2006": 2927,
      "▁Feb": 2928,
      "▁./श्रेणी:Harv": 2929,
      "umbai": 2930,
      "▁आधार": 2931,
      "▁संघ": 2932,
      "earch": 2933,
      ".jpg/120px-": 2934,
      "पाकिस्तान": 2935,
      "▁([help](https://hi.wikipedia.org/wiki/श्रेणी:Harv": 2936,
      "anuary": 2937,
      "nominal)": 2938,
      "▁./श्रेणी:Harv\\_and\\_Sfn\\_no-target\\_errors\r\n": 2939,
      "▁([help](https://hi.wikipedia.org/wiki/श्रेणी:Harv_and_Sfn_template_errors?action=edit&redlink=1": 2940,
      "01": 2941,
      "3-0)": 2942,
      "Ar": 2943,
      "Template:": 2944,
      "_I": 2945,
      "_సా": 2946,
      "cri": 2947,
      "fr": 2948,
      "fric": 2949,
      "mu": 2950,
      "की": 2951,
      "णा": 2952,
      "तंत्र": 2953,
      "्ला": 2954,
      "ంప": 2955,
      "కో": 2956,
      "గణ": 2957,
      "దిన": 2958,
      "నై": 2959,
      "రీ": 2960,
      "▁ac": 2961,
      "▁ru": 2962,
      "▁विश्व": 2963,
      "▁\"W": 2964,
      "▁\"उ": 2965,
      "▁\"చ": 2966,
      "ann": 2967,
      "](https://hi.wikipedia.org/wiki/उ": 2968,
      "](https://te.wikipedia.org/wiki/జ": 2969,
      "ారం": 2970,
      "▁Congress": 2971,
      "iddle": 2972,
      "्यट": 2973,
      "▁Sh": 2974,
      "▁but": 2975,
      "▁between": 2976,
      "▁more": 2977,
      "▁May": 2978,
      "▁క్రీ": 2979,
      "క్‌": 2980,
      "నికి": 2981,
      "ల్ల": 2982,
      "ाली": 2983,
      "ంగీ": 2984,
      "▁సి": 2985,
      "▁2020": 2986,
      "▁January": 2987,
      "నాభా": 2988,
      "Harle": 2989,
      "harma": 2990,
      "జాబి": 2991,
      "▁been": 2992,
      "ligi": 2993,
      "▁depend": 2994,
      "▁[![](https://upload.wikimedia.org/wikipedia/commons/thumb/": 2995,
      "clu": 2996,
      "श्मी": 2997,
      "▁శా": 2998,
      "▁భాష\")": 2999,
      "బెంగ": 3000,
      "_University_Press": 3001,
      "ujar": 3002,
      "Pages\\_us": 3003,
      "జాబితా": 3004,
      ".n": 3005,
      "National_": 3006,
      "Wolpert": 3007,
      "a/": 3008,
      "evelopment": 3009,
      "fic": 3010,
      "hol": 3011,
      "ime": 3012,
      "s18": 3013,
      "uri": 3014,
      "ंब": 3015,
      "गढ़": 3016,
      "ज्य": 3017,
      "तमिल": 3018,
      "दा": 3019,
      "भी": 3020,
      "ांग": 3021,
      "ेर": 3022,
      "▁Y": 3023,
      "▁[O": 3024,
      "▁[Indian": 3025,
      "arn": 3026,
      "्रिट": 3027,
      "▁Act": 3028,
      "ures": 3029,
      "▁2012": 3030,
      "▁2017": 3031,
      "▁अधिक": 3032,
      "berg": 3033,
      "▁national": 3034,
      "ublish": 3035,
      "-80": 3036,
      "ustr": 3037,
      "harat": 3038,
      "तिहास": 3039,
      "▁bec": 3040,
      "%2F": 3041,
      "-107": 3042,
      "rade": 3043,
      "html).": 3044,
      "▁१९": 3045,
      "युक्त": 3046,
      "▁century": 3047,
      "स्कृत": 3048,
      "ology": 3049,
      "▁हिन्द": 3050,
      "▁estim": 3051,
      "ographic": 3052,
      ",9": 3053,
      "55": 3054,
      ":[": 3055,
      "ban": 3056,
      "ey": 3057,
      "gram": 3058,
      "lad": 3059,
      "rish": 3060,
      "uch": 3061,
      "wo": 3062,
      "में": 3063,
      "చల్": 3064,
      "యన్": 3065,
      "షు": 3066,
      "ూర్": 3067,
      "ಗ್ರಾ": 3068,
      "ಣಾ": 3069,
      "ಪತಿ": 3070,
      "ಮ್": 3071,
      "ಮಾನ": 3072,
      "ಸಾ": 3073,
      "ೂರ್": 3074,
      "ೆಷಿ": 3075,
      "ೊಂಡ": 3076,
      "▁res": 3077,
      "▁ದೇಶ": 3078,
      "▁ರಾಜ್ಯ": 3079,
      ".org/10.": 3080,
      "▁[చ": 3081,
      "▁[భారత": 3082,
      "▁[భారతీయ": 3083,
      "▁\"I": 3084,
      "eral_": 3085,
      "2024": 3086,
      "](https://te.wikipedia.org/wiki/ప": 3087,
      "](https://te.wikipedia.org/wiki/భారతీయ": 3088,
      "2019": 3089,
      "ార్ట": 3090,
      "edu": 3091,
      "amp": 3092,
      "ాలయ": 3093,
      "▁मान": 3094,
      "ಾರ್ವ": 3095,
      "▁music": 3096,
      "याल": 3097,
      "ರ್ಕ": 3098,
      "▁after": 3099,
      "▁ಸಿ": 3100,
      "క్క": 3101,
      "▁వ్యవస్థ": 3102,
      ".com/news/": 3103,
      "ಗಳಲ್ಲಿ": 3104,
      "▁ము": 3105,
      "ನ್.": 3106,
      "ండో": 3107,
      "▁बाद": 3108,
      "्वार": 3109,
      "ముంబ": 3110,
      "సిన": 3111,
      "▁dance": 3112,
      "▁ಹೋ": 3113,
      "ಕ್ಕೆ": 3114,
      "▁ನಗ": 3115,
      "ినల్": 3116,
      "ತ್ತು_": 3117,
      "avid": 3118,
      "▁ಅತಿ": 3119,
      "ద్ద": 3120,
      "▁ఉన్న": 3121,
      "▁ఉన్నాయ": 3122,
      "ಸಂಸ್ಕ": 3123,
      "ಸಿಖ್": 3124,
      "िल्ल": 3125,
      "పాకిస్తాన్": 3126,
      "▁ಆರ್ಥಿಕ": 3127,
      "ಸ್ಥಾನ": 3128,
      "-0-19-8": 3129,
      "ంధీ": 3130,
      "्राज्य": 3131,
      "ಗಣರಾಜ್ಯ": 3132,
      "▁ಹೆಸ": 3133,
      "▁ఒక": 3134,
      "▁ఒరిజ": 3135,
      "_ಮತ್ತು_": 3136,
      "ಪ್ರದೇಶ": 3137,
      "▁೧೯": 3138,
      "ತ್ರಿಕ": 3139,
      "೨೦೧": 3140,
      "doi.org/10.": 3141,
      "ೇಂದ್ರ": 3142,
      "వంశం": 3143,
      "ಸಿಂಧೂ": 3144,
      "resident": 3145,
      "▁ಹೆಚ್ಚು": 3146,
      "chnology": 3147,
      "▁తేదీ": 3148,
      "Pages\\_using\\_": 3149,
      "Wolpert2003": 3150,
      "gramme": 3151,
      "ೆಷಿನ್": 3152,
      "ార్టీ": 3153,
      "ಾರ್ವತ್ರಿಕ": 3154,
      "ಸಂಸ್ಕೃತ": 3155,
      "▁ఒరిజినల్": 3156,
      "%29": 3157,
      ",[[": 3158,
      "-c": 3159,
      "National": 3160,
      "NGDP": 3161,
      "_O": 3162,
      "_W": 3163,
      "_और": 3164,
      "gl": 3165,
      "ote": 3166,
      "pp": 3167,
      "ttar": 3168,
      "wart": 3169,
      "zberg": 3170,
      "एं": 3171,
      "वर्": 3172,
      "शास": 3173,
      "▁:": 3174,
      "▁over": 3175,
      "▁other": 3176,
      "din": 3177,
      "ped": 3178,
      "\"):": 3179,
      "ones": 3180,
      "estic": 3181,
      "▁कार": 3182,
      "▁official": 3183,
      "etary": 3184,
      "▁pri": 3185,
      "▁poli": 3186,
      "ade": 3187,
      "edic": 3188,
      "00)": 3189,
      "▁2015": 3190,
      "chwart": 3191,
      "▁who": 3192,
      "▁March": 3193,
      "▁22": 3194,
      "▁24": 3195,
      "▁ab": 3196,
      "▁East": 3197,
      "form": 3198,
      "formatics": 3199,
      "duct": 3200,
      "▁number": 3201,
      "▁Increase": 3202,
      "1996": 3203,
      "eport": 3204,
      "क्षेत्र": 3205,
      "माण": 3206,
      "ड़ा": 3207,
      "ommon": 3208,
      "▁शास": 3209,
      "म्ब": 3210,
      "▁Press.": 3211,
      "904": 3212,
      "CS1": 3213,
      "▁साम": 3214,
      "▁Hindi": 3215,
      "▁यह": 3216,
      "auth": 3217,
      "▁[भारतीय": 3218,
      "▁2014.\r\n": 3219,
      "%E0%A": 3220,
      "▁years": 3221,
      "ज्ञान": 3222,
      "chwartzberg": 3223,
      "-d": 3224,
      "/P": 3225,
      "1-0)": 3226,
      "ID": 3227,
      "Vi": 3228,
      "_4": 3229,
      "_भाषा": 3230,
      "get": 3231,
      "hang": 3232,
      "ner": 3233,
      "तर": 3234,
      "लु": 3235,
      "ाट": 3236,
      "జ్": 3237,
      "వరి": 3238,
      "శ్చ": 3239,
      "ిన్న": 3240,
      "ెల": 3241,
      "▁थ": 3242,
      "▁wi": 3243,
      "pear": 3244,
      "▁[[": 3245,
      "▁\"భారతదేశ": 3246,
      "▁\"विशेष:पुस्तक": 3247,
      "inf": 3248,
      "off": 3249,
      "](https://hi.wikipedia.org/wiki/ISBN_(identifier)": 3250,
      "](https://hi.wikipedia.org/wiki/विशेष:पुस्तक": 3251,
      "ough": 3252,
      "్రె": 3253,
      "▁India\")\r\n": 3254,
      "▁स्रोत/978": 3255,
      "life": 3256,
      "▁capit": 3257,
      "▁Cambridge": 3258,
      "▁पा": 3259,
      "anglad": 3260,
      "loc": 3261,
      "istan": 3262,
      "files/": 3263,
      "](https://hi.wikipedia.org/wiki/भारत_के_": 3264,
      "ాలు\r\n": 3265,
      "నిస్తాన్": 3266,
      "ird": 3267,
      "cture": 3268,
      "▁English": 3269,
      "▁మధ్య": 3270,
      "लाई": 3271,
      "▁For": 3272,
      "_स्रोत/978": 3273,
      "▁./श्रेणी:": 3274,
      "▁dom": 3275,
      "▁(identifier)\"):[": 3276,
      "](https://te.wikipedia.org/wiki/భారతదేశంలో": 3277,
      "doc": 3278,
      "▁[ISBN](https://hi.wikipedia.org/wiki/ISBN_(identifier)": 3279,
      "ligence": 3280,
      "▁[*A": 3281,
      "_and_depend": 3282,
      "స్థాన్": 3283,
      "_के_आ": 3284,
      "▁2011.\r\n": 3285,
      "▁December": 3286,
      "▁लि": 3287,
      "▁most": 3288,
      "▁పేజీ": 3289,
      "మ్మూ": 3290,
      "साँचा:": 3291,
      "▁\"భారతదేశంలో": 3292,
      "श्चिम": 3293,
      "telligence": 3294,
      "ffairs": 3295,
      "▁చూసిన": 3296,
      "ांग्ला": 3297,
      "ustrali": 3298,
      "▁తేదీ:": 3299,
      "శ్చి": 3300,
      "](https://hi.wikipedia.org/wiki/विशेष:पुस्तक_स्रोत/978": 3301,
      "angladesh": 3302,
      "▁పేజీని": 3303,
      "74": 3304,
      "83": 3305,
      "CO": 3306,
      "how": 3307,
      "ned": 3308,
      "ox": 3309,
      "oon": 3310,
      "vol": 3311,
      "ंप": 3312,
      "मुख": 3313,
      "▁राष्ट्रीय": 3314,
      "▁time": 3315,
      "kim": 3316,
      "▁[e": 3317,
      "▁[Metcalf": 3318,
      "▁[United": 3319,
      "\")**": 3320,
      "high": 3321,
      "▁India\").": 3322,
      "ama": 3323,
      "att": 3324,
      "▁part": 3325,
      "2000": 3326,
      "2001": 3327,
      "▁Comp": 3328,
      "▁Constitution": 3329,
      "▁Ar": 3330,
      "▁Per": 3331,
      "_of_the": 3332,
      "term": 3333,
      "rahm": 3334,
      "▁[↑](https://hi.wikipedia.org/wiki/भारत#cite_": 3335,
      "union": 3336,
      "ticles": 3337,
      "▁जु": 3338,
      "▁election": 3339,
      "ेश्वर": 3340,
      "fore": 3341,
      "_Asia": 3342,
      "▁[South": 3343,
      "▁उप": 3344,
      "emple": 3345,
      "▁यु": 3346,
      "obb": 3347,
      "▁[2](https://en.wikipedia.org/wiki/India#cite_ref-FOOTNOTE": 3348,
      "▁[1](https://en.wikipedia.org/wiki/India#cite_ref-FOOTNOTE": 3349,
      "ikshi": 3350,
      "-in-": 3351,
      "त्प": 3352,
      "गुजरा": 3353,
      "▁territories": 3354,
      "ूचना": 3355,
      "_प्रदेश": 3356,
      "्रिटिश": 3357,
      "ikshit": 3358,
      "-23": 3359,
      ".as": 3360,
      "63": 3361,
      "79": 3362,
      "CN": 3363,
      "UN": 3364,
      "_19": 3365,
      "_पर": 3366,
      "_territ": 3367,
      "dr": 3368,
      "gions": 3369,
      "ive": 3370,
      "lam": 3371,
      "pic": 3372,
      "rin": 3373,
      "काल": 3374,
      "बाद": 3375,
      "रक्ष": 3376,
      "वाद": 3377,
      "ाष्ट्र": 3378,
      "ागर": 3379,
      "ोर्": 3380,
      "షన్": 3381,
      "హ్": 3382,
      "ెలు": 3383,
      "ಕ್ರ": 3384,
      "ತ್ಯ": 3385,
      "ಧಾನ": 3386,
      "ಬ್": 3387,
      "ಸು": 3388,
      "್ಥ": 3389,
      "೦೦": 3390,
      "▁k": 3391,
      "▁ತ": 3392,
      "▁all": 3393,
      "▁ರಾಷ್ಟ್ರ": 3394,
      "▁right": 3395,
      "orther": 3396,
      "▁[v": 3397,
      "▁[India": 3398,
      "▁[सं": 3399,
      "theast": 3400,
      "ised": 3401,
      "](https://te.wikipedia.org/wiki/అ": 3402,
      "ash": 3403,
      "ased": 3404,
      "1950": 3405,
      "▁spe": 3406,
      "](https://kn.wikipedia.org/wiki/ಚ": 3407,
      "agar": 3408,
      "wealth": 3409,
      "िक्ष": 3410,
      "▁ಸ್ಥ": 3411,
      "రియా": 3412,
      "ources": 3413,
      "▁మార్": 3414,
      "▁Nations": 3415,
      "ರಾಜ": 3416,
      "▁[Stein": 3417,
      "ndaman": 3418,
      "▁Oxford": 3419,
      "▁ವರ್": 3420,
      "ಂತ್ರಿ": 3421,
      "▁ಅನೇ": 3422,
      "ప్రపంచ": 3423,
      "cyc": 3424,
      "ruary": 3425,
      "_मेला": 3426,
      "नेमा": 3427,
      "ದೆ.\r\n": 3428,
      "_pro": 3429,
      "▁సంస్కృతి": 3430,
      "దీవ": 3431,
      "धार_पर": 3432,
      "tent": 3433,
      "GDP_(": 3434,
      "▁ಸಾಮ್ರಾಜ್ಯ": 3435,
      "द्योग": 3436,
      "▁ಜನಸಂಖ್ಯೆಯ": 3437,
      "ಟ್ಟು": 3438,
      "हाराष्ट्र": 3439,
      "▁[↑](https://kn.wikipedia.org/wiki/ಭಾರತ#cite_ref-": 3440,
      "lassical": 3441,
      "ughal": 3442,
      "List_of_countries_by_GDP_(": 3443,
      "▁ಸ್ವಾ": 3444,
      "▁2006](https://en.wikipedia.org/wiki/India#CITEREF": 3445,
      "_के_आधार_पर": 3446,
      "orthern": 3447,
      "▁ಅನೇಕ": 3448,
      "_के_आधार_पर_भारत": 3449,
      "-21": 3450,
      "-26": 3451,
      ".india": 3452,
      "/India": 3453,
      "0&": 3454,
      "5-0)": 3455,
      "7%": 3456,
      "7C": 3457,
      "81": 3458,
      "En": 3459,
      "Fisher": 3460,
      "bi": 3461,
      "eh": 3462,
      "oin": 3463,
      "por": 3464,
      "pib": 3465,
      "s.[[": 3466,
      "t-": 3467,
      "tary": 3468,
      "एशिया": 3469,
      "लि": 3470,
      "ल\")": 3471,
      "▁\"United": 3472,
      "onetary": 3473,
      "ale": 3474,
      "](https://en.wikipedia.org/wiki/W": 3475,
      "ering": 3476,
      "arb": 3477,
      "araj": 3478,
      "le:": 3479,
      "▁स्व": 3480,
      "▁मंदिर": 3481,
      "्यव": 3482,
      "▁14": 3483,
      "ficient": 3484,
      "0000": 3485,
      "▁Budd": 3486,
      "▁BCE": 3487,
      "▁है,": 3488,
      "▁दक्षिण": 3489,
      "▁had": 3490,
      "▁house": 3491,
      "ंगा": 3492,
      "ake": 3493,
      "onstituent": 3494,
      "▁[2](https://en.wikipedia.org/wiki/India#cite_ref-": 3495,
      "▁[1](https://en.wikipedia.org/wiki/India#cite_ref-": 3496,
      "ंग्रेज़ी": 3497,
      "▁2010](https://en.wikipedia.org/wiki/India#CITEREF": 3498,
      "ed.).": 3499,
      "▁पुरालेखित।.": 3500,
      "ritannica": 3501,
      "glance": 3502,
      "▁जुलाई": 3503,
      "_के_आधार_पर_भारत_के_राज्य": 3504,
      "Fisher2018": 3505,
      "*,": 3506,
      "/5": 3507,
      "/S": 3508,
      "1]](https://en.wikipedia.org/wiki/India#cite_note-FOOTNOTE": 3509,
      "98": 3510,
      "EO": 3511,
      "Population": 3512,
      "WEO": 3513,
      "_n": 3514,
      "_వ": 3515,
      "_In": 3516,
      "back": 3517,
      "cent": 3518,
      "imp": 3519,
      "lang": 3520,
      "oth": 3521,
      "population": 3522,
      "s\r\n": 3523,
      "ीस": 3524,
      "००": 3525,
      "ం\"),": 3526,
      "ంత్రి": 3527,
      "ఆఫ్": 3528,
      "కత": 3529,
      "కై": 3530,
      "క్య": 3531,
      "దాయ": 3532,
      "రే": 3533,
      "లంక": 3534,
      "వీ": 3535,
      "శ్రీ": 3536,
      "షి": 3537,
      "సు": 3538,
      "▁ఏ": 3539,
      "▁up": 3540,
      "▁नाम": 3541,
      "order": 3542,
      "pect": 3543,
      "](https://doi.org/10.": 3544,
      "▁[సి": 3545,
      "▁\"Re": 3546,
      "208": 3547,
      "rick": 3548,
      "](https://te.wikipedia.org/wiki/చ": 3549,
      "eds.": 3550,
      "\\_country": 3551,
      "vel": 3552,
      "స్సా": 3553,
      "▁पूर्व": 3554,
      "▁పరి": 3555,
      "▁పార్టీ": 3556,
      "▁tradition": 3557,
      "▁two": 3558,
      "▁me": 3559,
      "న్‌": 3560,
      "rol": 3561,
      "change": 3562,
      "▁Talbot": 3563,
      "olk": 3564,
      "▁కు": 3565,
      "▁अप": 3566,
      "▁వచ్చ": 3567,
      "नाग": 3568,
      "abad": 3569,
      "ముద్ర": 3570,
      "▁विक": 3571,
      "ffice": 3572,
      "▁It": 3573,
      "osed": 3574,
      "గాంధీ": 3575,
      "▁रूप": 3576,
      "నేపాల": 3577,
      "obox": 3578,
      "▁[↑](https://hi.wikipedia.org/wiki/भारत#cite_ref-FOOTNOTE": 3579,
      "efficient": 3580,
      "▁పేరు": 3581,
      "List_of_countries_and_depend": 3582,
      "హిందీ": 3583,
      "▁2021.\r\n": 3584,
      "times.com/": 3585,
      "▁देशों": 3586,
      "encies_by_": 3587,
      "▁చెయ్య": 3588,
      "▁కూడా": 3589,
      "-language\\_": 3590,
      "lobal": 3591,
      "▁February": 3592,
      "ంగీతం": 3593,
      "ligious": 3594,
      "▁dependencies": 3595,
      "▁became": 3596,
      "▁estimate": 3597,
      "ముంబై": 3598,
      "infobox": 3599,
      "శ్చిమ": 3600,
      "▁మార్గ": 3601,
      "List_of_countries_and_dependencies_by_": 3602,
      "▁చెయ్యబడ": 3603,
      ",5": 3604,
      "-to": 3605,
      "1–": 3606,
      "4).": 3607,
      "73": 3608,
      "IM": 3609,
      "a-": 3610,
      "a.": 3611,
      "ae": 3612,
      "adi": 3613,
      "f/": 3614,
      "has": 3615,
      "ze": 3616,
      "ंक": 3617,
      "धी": 3618,
      "ोन": 3619,
      "▁%": 3620,
      "▁we": 3621,
      "ार्": 3622,
      "▁कि": 3623,
      "andard": 3624,
      "riod": 3625,
      "▁India.": 3626,
      "ata_": 3627,
      "▁summit\")": 3628,
      "▁caste": 3629,
      "▁13": 3630,
      "▁Plate": 3631,
      "▁2019.": 3632,
      "217": 3633,
      "▁war": 3634,
      "▁Times": 3635,
      "▁Data": 3636,
      "▁*The": 3637,
      "▁2025": 3638,
      "_in_S": 3639,
      "ंगाल": 3640,
      "▁general": 3641,
      "▁तट": 3642,
      "▁न्या": 3643,
      "▁2008": 3644,
      "1997": 3645,
      "▁Union": 3646,
      "▁एवं": 3647,
      "▁\"Economy": 3648,
      "\"](https://web.archive.org/web/20160": 3649,
      "outh_Asian": 3650,
      "Wikipedia": 3651,
      "AsherTalbot2008": 3652,
      "ivil": 3653,
      "PPP)": 3654,
      ".png)": 3655,
      "ymbols": 3656,
      "श्मीर": 3657,
      "ujarat": 3658,
      "%E0%A4%": 3659,
      "्यवस्था": 3660,
      "-B": 3661,
      "-world": 3662,
      ".b": 3663,
      "4–": 3664,
      "71": 3665,
      "8+": 3666,
      "99": 3667,
      "JP": 3668,
      "_12": 3669,
      "_ಭಾಷೆ": 3670,
      "ele": 3671,
      "nam": 3672,
      "pl": 3673,
      "rof": 3674,
      "sar": 3675,
      "ton": 3676,
      "vid": 3677,
      "yan": 3678,
      "सद": 3679,
      "గర": 3680,
      "టక": 3681,
      "టా": 3682,
      "దార": 3683,
      "నీ": 3684,
      "రో": 3685,
      "సభ": 3686,
      "ెద్ద": 3687,
      "ಂಶ": 3688,
      "ಏಷ್ಯಾ": 3689,
      "ಧಿಕ": 3690,
      "ನಿ": 3691,
      "ಯನ್": 3692,
      "ಲ್ತ": 3693,
      "ಲೋಕ": 3694,
      "ಾಲ್": 3695,
      "ಿಣ": 3696,
      "▁ಭ": 3697,
      "▁ro": 3698,
      "▁[न": 3699,
      "▁[doi": 3700,
      "▁\"U": 3701,
      "▁\"द": 3702,
      "▁\"సి": 3703,
      "▁केंद्र": 3704,
      "](https://te.wikipedia.org/wiki/భారత_": 3705,
      "asia": 3706,
      "2017": 3707,
      "leg": 3708,
      "](https://kn.wikipedia.org/wiki/G": 3709,
      "-15": 3710,
      "[[೧": 3711,
      "▁St": 3712,
      "loy": 3713,
      "▁పు": 3714,
      "▁Pe": 3715,
      "ISO": 3716,
      "cean": 3717,
      "chool": 3718,
      "्तर": 3719,
      "రాజ్య": 3720,
      "▁కేంద్రపాలిత": 3721,
      "▁Di": 3722,
      "▁BRICS": 3723,
      "▁ಸು": 3724,
      "▁ಮಾ": 3725,
      "_(India)": 3726,
      "ಂದರೆ": 3727,
      "▁ಪಶ್ಚಿಮ": 3728,
      "▁ಪೂರ್": 3729,
      "▁Economic": 3730,
      "▁మా": 3731,
      "-40": 3732,
      "▁group": 3733,
      "भाग": 3734,
      "▁చే": 3735,
      "▁2003": 3736,
      "ము\")": 3737,
      "akh": 3738,
      "aksh": 3739,
      "▁[\"National": 3740,
      "త్స": 3741,
      "▁రాజ్య": 3742,
      "▁ವ್ಯವ": 3743,
      "▁ನಂತರ": 3744,
      "▁[978-0-": 3745,
      "▁original](https://": 3746,
      "వాతంత్ర": 3747,
      "್ವೀಪ": 3748,
      "▁*[The": 3749,
      "संख्या": 3750,
      "▁దేశాల": 3751,
      "▁\"Doi": 3752,
      "లాదేశ్": 3753,
      "▁ಸಂಪ": 3754,
      "](https://en.wikipedia.org/wiki/Doi": 3755,
      "ದ್ದು": 3756,
      "స్తు": 3757,
      "▁अनुसार": 3758,
      "ಕ್ಷಿಣ": 3759,
      "▁సామ్రాజ్యం](https://te.wikipedia.org/wiki/": 3760,
      "ಹಿಂದಿ": 3761,
      "▁ರೂ": 3762,
      "▁ರಲ್ಲಿ": 3763,
      "ంగ్లాదేశ్": 3764,
      "▁భాషలు": 3765,
      "▁2021.": 3766,
      "▁प्रदेश\")": 3767,
      "▁ಚುನಾವಣೆ": 3768,
      "ಾಲಯ": 3769,
      "▁ಶತ": 3770,
      "ారు.": 3771,
      "▁स्थ": 3772,
      "_ప్రా": 3773,
      "articleshow": 3774,
      "▁ಒಟ್ಟು": 3775,
      "్రిటి": 3776,
      "▁అధికార": 3777,
      "ಳುವ": 3778,
      "▁ಬೆಳ": 3779,
      "ూర్పు": 3780,
      "▁(identifier)\"):[10.": 3781,
      "▁ಸ್ವಾತಂತ್ರ್ಯ": 3782,
      "కైవు": 3783,
      "ಧಿಕೃತ": 3784,
      "▁[doi](https://en.wikipedia.org/wiki/Doi": 3785,
      "▁ಪೂರ್ವ": 3786,
      "▁[doi](https://en.wikipedia.org/wiki/Doi_(identifier)": 3787,
      "-28": 3788,
      "2).": 3789,
      "8-0)": 3790,
      "C).": 3791,
      "Craven": 3792,
      "IA": 3793,
      "IB": 3794,
      "TR": 3795,
      "_en": 3796,
      "ao": 3797,
      "az": 3798,
      "be": 3799,
      "cms": 3800,
      "evan": 3801,
      "gan": 3802,
      "if": 3803,
      "iz": 3804,
      "oy": 3805,
      "oast": 3806,
      "ras": 3807,
      "ration": 3808,
      "s=": 3809,
      "slam": 3810,
      "va": 3811,
      "war": 3812,
      "way": 3813,
      "yayan": 3814,
      "एँ": 3815,
      "एस": 3816,
      "खा": 3817,
      "गो": 3818,
      "चे": 3819,
      "त्य": 3820,
      "सी": 3821,
      "ैक": 3822,
      "ोड़": 3823,
      "▁j": 3824,
      "▁ref": 3825,
      "▁6.": 3826,
      "▁[हिन्द": 3827,
      "tecture": 3828,
      "ensi": 3829,
      "than": 3830,
      "alley": 3831,
      "](https://en.wikipedia.org/wiki/I": 3832,
      "](https://en.wikipedia.org/wiki/The": 3833,
      "er,": 3834,
      "tionary": 3835,
      "ार्ट": 3836,
      "asing": 3837,
      "astern": 3838,
      "2015": 3839,
      "2016": 3840,
      "achin": 3841,
      "▁sup": 3842,
      "▁मूल": 3843,
      "▁Sanskrit": 3844,
      "urch": 3845,
      "ung": 3846,
      "▁Bank": 3847,
      "विधान": 3848,
      "▁जो": 3849,
      "▁one": 3850,
      "▁बहु": 3851,
      "▁सेना": 3852,
      "▁Fund": 3853,
      "▁than": 3854,
      "imalay": 3855,
      "▁art": 3856,
      "_Centre": 3857,
      "rief": 3858,
      "▁War": 3859,
      "ड़ी": 3860,
      "म्बर": 3861,
      "▁Press](https://en.wikipedia.org/wiki/": 3862,
      ".jpg)](https://hi.wikipedia.org/wiki/चित्र:": 3863,
      "▁भू": 3864,
      "ultan": 3865,
      "india-glance": 3866,
      "-0-19-9": 3867,
      "▁modern": 3868,
      "visions": 3869,
      "धिकार": 3870,
      "usines": 3871,
      "-largest": 3872,
      "atsyayan": 3873,
      "ainting": 3874,
      "spu": 3875,
      "garh": 3876,
      "Hinduism": 3877,
      "▁Assembly": 3878,
      "_Island": 3879,
      "्यटन": 3880,
      "ublishing": 3881,
      "Craven1997": 3882,
      ",NGDP": 3883,
      "2]](https://en.wikipedia.org/wiki/India#cite_note-FOOTNOTE": 3884,
      "2nd": 3885,
      "5–": 3886,
      "6-0)": 3887,
      "7,": 3888,
      "Asia": 3889,
      "BC": 3890,
      "Con": 3891,
      "II": 3892,
      "Main": 3893,
      "_V": 3894,
      "_f": 3895,
      "ahar": 3896,
      "can": 3897,
      "day": 3898,
      "minist": 3899,
      "tro": 3900,
      "vatsyayan": 3901,
      "y,": 3902,
      "तिक": 3903,
      "दू": 3904,
      "भू": 3905,
      "श्री": 3906,
      "ीत": 3907,
      "ील": 3908,
      "ంజా": 3909,
      "గి": 3910,
      "టీ": 3911,
      "టాన్": 3912,
      "మంత్రి": 3913,
      "లను": 3914,
      "వె": 3915,
      "వరణ": 3916,
      "హదార": 3917,
      "ూచ": 3918,
      "▁హ": 3919,
      "▁am": 3920,
      "▁భారతదేశ": 3921,
      "▁emp": 3922,
      "▁high": 3923,
      "▁[m": 3924,
      "teen": 3925,
      "\");": 3926,
      "Informatics": 3927,
      "tig": 3928,
      "errit": 3929,
      "arge": 3930,
      "2022": 3931,
      "religion": 3932,
      "omas": 3933,
      "▁(eds.": 3934,
      "్రమ": 3935,
      "site": 3936,
      "ammu": 3937,
      "▁states": 3938,
      "▁such": 3939,
      "\\_par": 3940,
      "▁classical": 3941,
      "▁Al": 3942,
      "ussia": 3943,
      "inguis": 3944,
      "▁found": 3945,
      "▁State": 3946,
      "▁11": 3947,
      "▁Poli": 3948,
      "▁million": 3949,
      "భారతదేశ_": 3950,
      "▁27": 3951,
      "ilg": 3952,
      "▁total": 3953,
      "▁కొ": 3954,
      "▁వ్యా": 3955,
      "▁later": 3956,
      "नाथ": 3957,
      "cond": 3958,
      "_क्षेत्र": 3959,
      "▁మత": 3960,
      "▁మతము": 3961,
      "duction": 3962,
      "-3)": 3963,
      "▁2004": 3964,
      "తావరణ": 3965,
      "▁there": 3966,
      "నాడు": 3967,
      "▁northern": 3968,
      "1990": 3969,
      "a](https://en.wikipedia.org/wiki/C": 3970,
      "hai": 3971,
      "▁ఉంది.": 3972,
      "▁[*The": 3973,
      "▁एशिया": 3974,
      "▁\"Special:BookSources/978-0-": 3975,
      "](Special:BookSources/978-0-": 3976,
      "▁ఇతర": 3977,
      "ాయి": 3978,
      "ameters": 3979,
      "_BRICS": 3980,
      "athak": 3981,
      "ణాసియా": 3982,
      "▁under": 3983,
      "▁अन्य": 3984,
      "▁period": 3985,
      "-lord": 3986,
      "%E0%B": 3987,
      "టెడ్": 3988,
      "▁ఆర్కైవు": 3989,
      "inistry_of_": 3990,
      "ovember": 3991,
      "▁రైలు": 3992,
      "భూటాన్": 3993,
      "_సామ్రాజ్యం": 3994,
      "ommonwealth": 3995,
      "गुजरात": 3996,
      ".indiatimes.com/": 3997,
      "ehru": 3998,
      "langoff": 3999,
      "IMF": 4000,
      "వాతంత్ర్య": 4001,
      "usiness/": 4002,
      "vatsyayan-lord": 4003,
      "\\_parameters": 4004,
      "\\_parameters#": 4005,
      "-on-": 4006,
      "127": 4007,
      "6%": 4008,
      "6/": 4009,
      "7-0)": 4010,
      "8–": 4011,
      "Human": 4012,
      "_for": 4013,
      "_dom": 4014,
      "economy": 4015,
      "ealth": 4016,
      "fl": 4017,
      "lations": 4018,
      "wal": 4019,
      "अन": 4020,
      "जय": 4021,
      "टक": 4022,
      "पी": 4023,
      "पति": 4024,
      "मह": 4025,
      "रो": 4026,
      "ेस": 4027,
      "▁ड": 4028,
      "▁फ": 4029,
      "▁ra": 4030,
      "▁[द": 4031,
      "▁[19": 4032,
      "tex": 4033,
      "alore": 4034,
      "ern": 4035,
      "arly": 4036,
      "reat": 4037,
      "reme": 4038,
      "iss": 4039,
      "ould": 4040,
      "educ": 4041,
      "atak": 4042,
      "etail": 4043,
      "▁south": 4044,
      "-14": 4045,
      "uslim": 4046,
      "angalore": 4047,
      "▁Portal": 4048,
      "▁mathe": 4049,
      "_of_S": 4050,
      "▁2013": 4051,
      "chedu": 4052,
      "▁2.": 4053,
      "▁29": 4054,
      "24)": 4055,
      "26)": 4056,
      "िया\")": 4057,
      "▁[*India": 4058,
      "owland": 4059,
      "▁गण": 4060,
      "_Development": 4061,
      "म्म": 4062,
      "ankar": 4063,
      "ी_भाषा": 4064,
      "▁union": 4065,
      "do-A": 4066,
      "वंश": 4067,
      "▁जाता": 4068,
      "▁वर्ष": 4069,
      "ynas": 4070,
      "ैदान": 4071,
      "limate": 4072,
      "rowth": 4073,
      "▁2018](https://en.wikipedia.org/wiki/India#CITEREF": 4074,
      "वेब": 4075,
      "Articles": 4076,
      "तंत्रता": 4077,
      "Harle1994": 4078,
      "▁साम्राज्य": 4079,
      "document": 4080,
      "द्योगिक": 4081,
      "erritory": 4082,
      "inguistic": 4083,
      "education": 4084,
      "%)": 4085,
      "/auth": 4086,
      "119": 4087,
      "129": 4088,
      "2–": 4089,
      "64": 4090,
      "6).": 4091,
      "94": 4092,
      "9-0)": 4093,
      ":**": 4094,
      "Dikshit": 4095,
      "Empire": 4096,
      "European": 4097,
      "LA": 4098,
      "Qu": 4099,
      "Schwartzberg": 4100,
      "_g": 4101,
      "_ಚ": 4102,
      "_11": 4103,
      "_ಧರ್ಮ": 4104,
      "_ಪ್ರದೇಶ": 4105,
      "aus": 4106,
      "bank": 4107,
      "cted": 4108,
      "dones": 4109,
      "here": 4110,
      "lor": 4111,
      "mil": 4112,
      "rm": 4113,
      "पे": 4114,
      "मंत्र": 4115,
      "रवरी": 4116,
      "ल्": 4117,
      "िज़": 4118,
      "ेट": 4119,
      "ంశ": 4120,
      "ఆర్": 4121,
      "ఉత్తర": 4122,
      "ఒడి": 4123,
      "కీయ": 4124,
      "గలు": 4125,
      "చు": 4126,
      "జరా": 4127,
      "తూర్పు": 4128,
      "భు": 4129,
      "మన్": 4130,
      "యి": 4131,
      "లస": 4132,
      "ీన": 4133,
      "ేక": 4134,
      "ಂ](https://kn.wikipedia.org/wiki/": 4135,
      "ಂಗಳ": 4136,
      "ಅಸ್": 4137,
      "ಉತ್ತ": 4138,
      "ಕಡ": 4139,
      "ಗಢ": 4140,
      "ಚಲ": 4141,
      "ಜರಾ": 4142,
      "ಟ್": 4143,
      "ಡು": 4144,
      "ತ್": 4145,
      "ತಮಿ": 4146,
      "ದ್ರಾ": 4147,
      "ಮಾ": 4148,
      "ಮನ್": 4149,
      "ರತ": 4150,
      "ರೀ": 4151,
      "ರ್ಯ": 4152,
      "ಲಸ": 4153,
      "ವರ": 4154,
      "ವ್": 4155,
      "ಶ್ವ": 4156,
      "ಶ್ಮ": 4157,
      "ಹಿ": 4158,
      "ಹಿಮ": 4159,
      "ಿಹ": 4160,
      "ೈಸ್ತ": 4161,
      "ೋಕ್": 4162,
      "೦೯": 4163,
      "▁డ": 4164,
      "▁ಗ": 4165,
      "▁50": 4166,
      "▁జాబితా": 4167,
      "dia/": 4168,
      "▁[इ": 4169,
      "▁[ಕ": 4170,
      "▁[ಭಾರತ": 4171,
      "▁[భారతదేశ": 4172,
      "▁[पु": 4173,
      "▁\"V": 4174,
      "▁\"इ": 4175,
      "▁\"ಕ": 4176,
      "▁\"हिन्द": 4177,
      "inance": 4178,
      "India.pdf)": 4179,
      "arna": 4180,
      "arliament": 4181,
      "esearch": 4182,
      "read": 4183,
      "ise": 4184,
      "2012": 4185,
      "▁India\"": 4186,
      "oot": 4187,
      "▁industry": 4188,
      "▁inclu": 4189,
      "▁power": 4190,
      "▁comm": 4191,
      "](https://kn.wikipedia.org/wiki/ಕ": 4192,
      "▁मु": 4193,
      "ಾರು": 4194,
      "▁Ac": 4195,
      "ingdom": 4196,
      "▁పట్ట": 4197,
      "ics": 4198,
      "umeration": 4199,
      "ర్\")": 4200,
      "▁Pakistan": 4201,
      "▁many": 4202,
      "rown": 4203,
      "rative": 4204,
      "▁**జాతీయ": 4205,
      "resent": 4206,
      "ಲಿಗ್ರಾ": 4207,
      "ments": 4208,
      "▁British": 4209,
      "▁ಸಾರ್ವತ್ರಿಕ": 4210,
      "23)": 4211,
      "▁ಮನ": 4212,
      "▁ಮೊ": 4213,
      "▁ಮಿಲಿ": 4214,
      "▁ಮೆಷಿನ್": 4215,
      "నిక": 4216,
      "▁long": 4217,
      "▁large": 4218,
      "विज्ञान": 4219,
      "ಂದು": 4220,
      "▁economic": 4221,
      "ाला": 4222,
      "ంగ్రె": 4223,
      "▁సభ": 4224,
      "ಲ್ಲ": 4225,
      "తాబ్": 4226,
      "▁[\"A": 4227,
      "▁[\"India": 4228,
      "ast_Asia": 4229,
      "▁ప్రపంచ": 4230,
      "▁ప్రభు": 4231,
      "▁ವಲಸ": 4232,
      "ರಿವ": 4233,
      "ರಿಯಾ": 4234,
      "otal": 4235,
      "utra": 4236,
      "▁K.": 4237,
      "▁ಅಧಿಕೃತ": 4238,
      "▁ಬಿ": 4239,
      "▁ಬ್ರಿ": 4240,
      "▁ఆసియా": 4241,
      "]](https://hi.wikipedia.org/wiki/भारत#cite_note-1": 4242,
      "ड़े": 4243,
      "▁उत्तर": 4244,
      "](https://kn.wikipedia.org/wiki/ಭಾರತ#cite_ref-": 4245,
      "మ్రాజ్య": 4246,
      "▁ಪ್ರಪಂ": 4247,
      "Hindust": 4248,
      "conomy_of_": 4249,
      "ಿತ್ರ": 4250,
      "ಿಯಲ್ಲಿ": 4251,
      "గుజరా": 4252,
      "ನೇಪಾ": 4253,
      "▁ಇತಿಹಾಸ": 4254,
      "engali": 4255,
      "▁ಸಂಸ್ಥೆ": 4256,
      "india.gov.in/kno": 4257,
      "india.gov.in/india-glance": 4258,
      "ರಾಜ್ಯಸಭೆ": 4259,
      "ಮುಂಬ": 4260,
      "▁సామ్రాజ్యం\")": 4261,
      ".nic.in/)\r\n": 4262,
      "ikh": 4263,
      "]](https://kn.wikipedia.org/wiki/ಭಾರತ#cite_note-1": 4264,
      "ಗಣತಿ": 4265,
      "...": 4266,
      "ಣಿಪು": 4267,
      "▁people": 4268,
      "MetcalfMetcalf2006),": 4269,
      "द्यान": 4270,
      "▁ಧರ್ಮ\")": 4271,
      "త్యేక": 4272,
      "రాష్ట్రపతి": 4273,
      "ప్ప": 4274,
      "೨೦೦೯": 4275,
      "▁ಭಾಷೆಗಳು": 4276,
      "▁కాశ్మీ": 4277,
      "▁రాజవంశం": 4278,
      "▁[↑](https://kn.wikipedia.org/wiki/ಭಾರತ#cite_ref-1": 4279,
      "र्थिक": 4280,
      "ಯುಕ್ತ": 4281,
      "▁ಮುಖ್ಯ": 4282,
      "▁చెంద": 4283,
      "▁ఆర్ధిక": 4284,
      "ತೆಲ": 4285,
      "▁ಲಕ್ಷ": 4286,
      "▁समय": 4287,
      "%20%20%20%20": 4288,
      "jection": 4289,
      "ಗುಜರಾ": 4290,
      "▁స్థాన": 4291,
      "ervation": 4292,
      "▁Environment": 4293,
      "ಟೆಲಿಗ್ರಾ": 4294,
      "ಪಂಜಾ": 4295,
      "ಭೂಮಿ": 4296,
      "windia/": 4297,
      "తమిళనాడు": 4298,
      "ప్రధానమంత్రి": 4299,
      "గణతంత్ర": 4300,
      "▁rule": 4301,
      "▁క్రీడ": 4302,
      "यालय": 4303,
      "▁ಸಿರಿವ": 4304,
      "▁ನಗರ": 4305,
      "▁ఉన్నాయి.": 4306,
      "▁ಹೆಸರು": 4307,
      "೨೦೧೪": 4308,
      "▁[↑](https://hi.wikipedia.org/wiki/भारत#cite_ref-1": 4309,
      ".aspx": 4310,
      "ಕ್ರೈಸ್ತ": 4311,
      "▁ಸ್ಥಾನ": 4312,
      "ఆఫ్ఘ": 4313,
      "శ్రీలంక": 4314,
      "షియా": 4315,
      "న్‌ఫ": 4316,
      "నేపాల్": 4317,
      "ಲೋಕಸಭೆ": 4318,
      "▁among": 4319,
      "Informatics_Centre": 4320,
      "▁(eds.).": 4321,
      "DikshitSchwartzberg": 4322,
      "ಂಗಳೂ": 4323,
      "ಅಸ್ಸಾ": 4324,
      "ಶ್ಮೀ": 4325,
      "తాబ్ద": 4326,
      "▁ವಲಸೆ": 4327,
      "▁ಪ್ರಪಂಚ": 4328,
      "india.gov.in/knowindia/": 4329,
      "DikshitSchwartzberg2023": 4330,
      "-india": 4331,
      "-25": 4332,
      ".htm": 4333,
      "/g": 4334,
      "32": 4335,
      "3]](https://en.wikipedia.org/wiki/India#cite_note-FOOTNOTE": 4336,
      "7/": 4337,
      "9,": 4338,
      "Ludden": 4339,
      "Pro": 4340,
      "South": 4341,
      "Spear": 4342,
      "af": 4343,
      "ced": 4344,
      "cul": 4345,
      "eld": 4346,
      "gni": 4347,
      "iri": 4348,
      "iter": 4349,
      "kar": 4350,
      "ls": 4351,
      "languages": 4352,
      "ning": 4353,
      "osi": 4354,
      "west": 4355,
      "ym": 4356,
      "डी": 4357,
      "डु": 4358,
      "णि": 4359,
      "धु": 4360,
      "लोक": 4361,
      "▁छ": 4362,
      "▁em": 4363,
      "▁out": 4364,
      "pee": 4365,
      "▁\"न": 4366,
      "▁\"India": 4367,
      "▁\"सं": 4368,
      "ality": 4369,
      "arri": 4370,
      "rect": 4371,
      "cia": 4372,
      "issi": 4373,
      "▁(1,": 4374,
      "▁(nominal)": 4375,
      "ed/": 4376,
      "atus": 4377,
      "▁sh": 4378,
      "▁some": 4379,
      "▁CE": 4380,
      "▁मा": 4381,
      "▁Arab": 4382,
      "▁Afric": 4383,
      "chin": 4384,
      "state": 4385,
      "states": 4386,
      "▁Min": 4387,
      "▁Modern": 4388,
      "▁land": 4389,
      "नाव": 4390,
      "al_in": 4391,
      "26.": 4392,
      "▁द्वार": 4393,
      "_Summit": 4394,
      "▁[\"C": 4395,
      "ains": 4396,
      "▁artic": 4397,
      "avi": 4398,
      "माज": 4399,
      "hindi": 4400,
      "ffer": 4401,
      "ी](https://hi.wikipedia.org/wiki/अ": 4402,
      "%2C_": 4403,
      "ineering": 4404,
      "-pro": 4405,
      "arket": 4406,
      "सेना": 4407,
      "▁Registrar": 4408,
      "▁left": 4409,
      "▁चु": 4410,
      "▁हुई": 4411,
      "oordin": 4412,
      "▁Programme": 4413,
      "cript": 4414,
      "शासित": 4415,
      "CS1\\_": 4416,
      "hanghai": 4417,
      "त्पाद": 4418,
      "_in_South_Asia": 4419,
      "8+5": 4420,
      "ynasty": 4421,
      "ast_Asia_Summit": 4422,
      "-an": 4423,
      "-78": 4424,
      ".world": 4425,
      ".IN": 4426,
      ".fr": 4427,
      "/articleshow": 4428,
      "422": 4429,
      "53": 4430,
      "58": 4431,
      "6–": 4432,
      "6]](https://en.wikipedia.org/wiki/India#cite_note-": 4433,
      "_J": 4434,
      "_ब": 4435,
      "_ప్రదేశ్": 4436,
      "business/": 4437,
      "cor": 4438,
      "d/": 4439,
      "e/": 4440,
      "fgh": 4441,
      "ii": 4442,
      "k:": 4443,
      "m.nic.in/": 4444,
      "nal": 4445,
      "ncl": 4446,
      "oa": 4447,
      "ose": 4448,
      "press": 4449,
      "rdu": 4450,
      "ving": 4451,
      "ईसा": 4452,
      "कल": 4453,
      "खाना": 4454,
      "तु": 4455,
      "नगर": 4456,
      "ोम": 4457,
      "।\r\n": 4458,
      "ం,": 4459,
      "ఉప": 4460,
      "కొ": 4461,
      "కేంద్రపాలిత": 4462,
      "జె": 4463,
      "ఢ్": 4464,
      "ది.": 4465,
      "నాల": 4466,
      "లే": 4467,
      "ళు": 4468,
      "ౌద్ధ": 4469,
      "▁ऊ": 4470,
      "▁he": 4471,
      "▁భా": 4472,
      "▁imp": 4473,
      "dian": 4474,
      "▁[V": 4475,
      "▁[వి": 4476,
      "enni": 4477,
      "▁\"Oxford": 4478,
      "\")[[": 4479,
      "tis": 4480,
      "tici": 4481,
      "tition": 4482,
      "2020": 4483,
      "2021": 4484,
      "omin": 4485,
      "](https://hi.wikipedia.org/wiki/इ": 4486,
      "▁(*": 4487,
      "rid": 4488,
      "lem": 4489,
      "▁सु": 4490,
      "ett": 4491,
      "▁social": 4492,
      "-00": 4493,
      "ాలీ": 4494,
      "▁Cooperation": 4495,
      "-111": 4496,
      "inger": 4497,
      "urton": 4498,
      "ర్చ": 4499,
      "ists": 4500,
      "▁mi": 4501,
      "▁medi": 4502,
      "▁maj": 4503,
      "▁minister": 4504,
      "003": 4505,
      "र्दू": 4506,
      "rain": 4507,
      "unknown": 4508,
      "▁Republic": 4509,
      "▁अग": 4510,
      "ాలు?action=edit&redlink=1": 4511,
      "109": 4512,
      "▁economy": 4513,
      "24.": 4514,
      "240": 4515,
      "▁दिया": 4516,
      "pecial:EditPage/": 4517,
      "▁her": 4518,
      "▁Nadu": 4519,
      "118": 4520,
      "28.": 4521,
      "▁बढ़": 4522,
      "_Sh": 4523,
      "-317": 4524,
      "apan": 4525,
      "ainism": 4526,
      "overe": 4527,
      "–సా.శ.18": 4528,
      "▁అత్య": 4529,
      "▁[Asher": 4530,
      "avy": 4531,
      "▁Language": 4532,
      "s](https://en.wikipedia.org/wiki/M": 4533,
      "▁Kashmir": 4534,
      "▁ఆధ": 4535,
      "logo": 4536,
      "మాఖ్య": 4537,
      "వాణా": 4538,
      "ంటి": 4539,
      "▁area": 4540,
      "▁దేశం": 4541,
      "राष्ट्रपति": 4542,
      "_New": 4543,
      "▁\"National": 4544,
      "డ్డ": 4545,
      "▁జనాభా": 4546,
      "हिन्दी": 4547,
      "దక్షిణాసియా": 4548,
      "्रां": 4549,
      "code": 4550,
      "▁గల": 4551,
      "▁భారతదేశంలో": 4552,
      "ంగ్లీ": 4553,
      "meric": 4554,
      "యునై": 4555,
      "ష్ణ": 4556,
      "ility": 4557,
      "_చరిత్ర?action=edit&redlink=1": 4558,
      "dependence": 4559,
      "▁हुआ": 4560,
      "हासागर": 4561,
      "फ़रवरी": 4562,
      "▁territory": 4563,
      "▁రాష్ట్రాలు,": 4564,
      "_మతము": 4565,
      "ष्ण": 4566,
      "▁మొద": 4567,
      "ंबई": 4568,
      "arnatak": 4569,
      "Pages\\_using\\_infobox": 4570,
      "▁लिए": 4571,
      "union_territ": 4572,
      "WEO.IN": 4573,
      "\\_country\\_with\\_": 4574,
      "▁विकास": 4575,
      "List_of_countries_and_dependencies_by_population": 4576,
      "▁చెయ్యబడింది.": 4577,
      "IMFWEO.IN": 4578,
      "Spear1990": 4579,
      "oordinated": 4580,
      "fghan": 4581,
      "nclm.nic.in/": 4582,
      "pecial:EditPage/Template:": 4583,
      "యునైటెడ్": 4584,
      "\"[[": 4585,
      "-di": 4586,
      ".html)": 4587,
      "/files/": 4588,
      "219": 4589,
      "3/": 4590,
      "4,": 4591,
      "500": 4592,
      "545": 4593,
      "6]](https://en.wikipedia.org/wiki/India#cite_note-FOOTNOTE": 4594,
      "New": 4595,
      "Taj": 4596,
      "UCN": 4597,
      "_15": 4598,
      "economic": 4599,
      "election": 4600,
      "owe": 4601,
      "pper": 4602,
      "rd": 4603,
      "ser": 4604,
      "क्स": 4605,
      "न](https://hi.wikipedia.org/wiki/": 4606,
      "योग": 4607,
      "वै": 4608,
      "स्ट": 4609,
      "ूर्": 4610,
      "ृति": 4611,
      "▁ci": 4612,
      "▁oc": 4613,
      "▁history": 4614,
      "▁term": 4615,
      "orest": 4616,
      "▁[4": 4617,
      "▁[आ": 4618,
      "▁[ज": 4619,
      "▁[Oxford": 4620,
      "ency": 4621,
      "▁\"[": 4622,
      "▁\"आ": 4623,
      "](https://en.wikipedia.org/wiki/V": 4624,
      "ारी": 4625,
      "ार्च": 4626,
      "▁(2018": 4627,
      "▁they": 4628,
      "1970": 4629,
      "▁incre": 4630,
      "acy": 4631,
      "sive": 4632,
      "atab": 4633,
      "ety": 4634,
      "▁sp": 4635,
      "▁since": 4636,
      "-07": 4637,
      "\\_(": 4638,
      "\\_articles": 4639,
      "▁Col": 4640,
      "▁SAARC": 4641,
      "vement": 4642,
      "▁both": 4643,
      "ictionary": 4644,
      "ulti": 4645,
      "vert": 4646,
      "verse": 4647,
      "=1&": 4648,
      "▁R.": 4649,
      "▁Raj": 4650,
      "def": 4651,
      "िक्": 4652,
      "▁28.": 4653,
      "type": 4654,
      "▁largest": 4655,
      "ayback": 4656,
      "▁जून": 4657,
      "▁Gandhi": 4658,
      "▁दे": 4659,
      "▁दिस": 4660,
      "राजस्थान": 4661,
      "117": 4662,
      "ryan": 4663,
      "▁...": 4664,
      ".gov.in": 4665,
      "](https://web.archive.org/web/200": 4666,
      "170": 4667,
      "aving": 4668,
      "-90": 4669,
      "▁[978-0": 4670,
      "ternational_": 4671,
      "ummer": 4672,
      "a\"))": 4673,
      "▁\"Special:BookSources/978-0": 4674,
      "](Special:BookSources/978-0": 4675,
      "olitic": 4676,
      "नेपाल": 4677,
      "त्तरा": 4678,
      "-108": 4679,
      "artment": 4680,
      "जाति": 4681,
      "▁rate": 4682,
      "-0-19-5": 4683,
      "ublication": 4684,
      "▁क्षेत्र\")": 4685,
      "धानमंत्र": 4686,
      "reek": 4687,
      "amily": 4688,
      "ohn": 4689,
      "riculture": 4690,
      "्रीका": 4691,
      "ography": 4692,
      ".svg/": 4693,
      "▁\"History": 4694,
      "ribution": 4695,
      "-0-521-80": 4696,
      "ject": 4697,
      "▁play": 4698,
      "गणना": 4699,
      "▁used": 4700,
      "](https://en.wikipedia.org/wiki/History": 4701,
      "▁2019.\r\n": 4702,
      "▁खाना\")": 4703,
      "▁निर्": 4704,
      "▁world's": 4705,
      "KulkeRothermund2004": 4706,
      "National_Informatics_Centre": 4707,
      "rishn": 4708,
      "-0-19-88": 4709,
      "माणु": 4710,
      "904-7": 4711,
      "▁2006](https://en.wikipedia.org/wiki/India#CITEREFMetcalfMetcalf2006),": 4712,
      "ricket": 4713,
      "teenth": 4714,
      "म्मू": 4715,
      "▁article:": 4716,
      "fghanistan": 4717,
      "▁occ": 4718,
      "▁दिसम्बर": 4719,
      "-0-521-80904-7": 4720,
      "National_Informatics_Centre2005": 4721,
      "\"](https://books.google.com/books?id=": 4722,
      "->": 4723,
      ".ಎ": 4724,
      "1%": 4725,
      "110": 4726,
      "54": 4727,
      "68": 4728,
      "9).": 4729,
      "93,": 4730,
      ":EditPage/": 4731,
      "DS": 4732,
      "Library": 4733,
      "Report": 4734,
      "Robb": 4735,
      "Sharma": 4736,
      "_प": 4737,
      "_న": 4738,
      "_ಬ": 4739,
      "_13": 4740,
      "_ಸಂ": 4741,
      "detail": 4742,
      "eth": 4743,
      "hdr": 4744,
      "ia](https://en.wikipedia.org/wiki/": 4745,
      "ihar": 4746,
      "ia\")": 4747,
      "lack": 4748,
      "ock": 4749,
      "pa": 4750,
      "sur": 4751,
      "stitu": 4752,
      "udi": 4753,
      "ward": 4754,
      "zation": 4755,
      "टी": 4756,
      "द्वीप": 4757,
      "वी": 4758,
      "हीं": 4759,
      "िन्": 4760,
      "ैल": 4761,
      "ैंड": 4762,
      "ఖండ": 4763,
      "గం": 4764,
      "టిక": 4765,
      "డే": 4766,
      "ద్య": 4767,
      "మార్": 4768,
      "మాలయ": 4769,
      "లలో": 4770,
      "లకు": 4771,
      "ళ్": 4772,
      "వ](https://te.wikipedia.org/wiki/": 4773,
      "ానికి": 4774,
      "ాళు": 4775,
      "ీర్": 4776,
      "ಂಪ": 4777,
      "ಇಂಡ": 4778,
      "ಘಟ": 4779,
      "ಧಿ": 4780,
      "ಪಾರ": 4781,
      "ರೇಂದ್ರ": 4782,
      "ವು": 4783,
      "ವರಿ": 4784,
      "ವನ್ನು": 4785,
      "ಾಂಗ್": 4786,
      "ೆ.": 4787,
      "ೊಡ್": 4788,
      "ೋದಿ": 4789,
      "್‌": 4790,
      "್ನೆ": 4791,
      "೨]](https://kn.wikipedia.org/wiki/ಭಾರತ#cite_note-": 4792,
      "▁z": 4793,
      "▁భ": 4794,
      "▁ಜ": 4795,
      "▁೨": 4796,
      "▁యు": 4797,
      "▁ಗಣರಾಜ್ಯ": 4798,
      "▁ರಾಜ": 4799,
      "▁फ़रवरी": 4800,
      "](Category:": 4801,
      "▁[s": 4802,
      "▁[ಹಿಂದೂ": 4803,
      "tered": 4804,
      "▁\"ನ": 4805,
      "▁\"ಭಾರತ": 4806,
      "▁\"వి": 4807,
      "▁\"ಹಿಂದೂ": 4808,
      "ancy": 4809,
      "oni": 4810,
      "th](https://kn.wikipedia.org/wiki/": 4811,
      "ar,": 4812,
      "ara": 4813,
      "es,": 4814,
      "omet": 4815,
      "](https://hi.wikipedia.org/wiki/सं": 4816,
      "▁(India": 4817,
      "lect": 4818,
      "▁India*](https://books.google.com/books?id=": 4819,
      "lia": 4820,
      "\\_template": 4821,
      "ాలో": 4822,
      "](https://kn.wikipedia.org/wiki/ಹಿಂದೂ": 4823,
      "▁Cons": 4824,
      "▁मार्च": 4825,
      "्यता": 4826,
      "್ರೀ": 4827,
      "▁Summit\")": 4828,
      "స్వ": 4829,
      "స్లా": 4830,
      "▁पह": 4831,
      "▁पार्ट": 4832,
      "▁పాల": 4833,
      "▁trans": 4834,
      "▁Pl": 4835,
      "▁member": 4836,
      "న్\")": 4837,
      "road": 4838,
      "र्स": 4839,
      "र्जा": 4840,
      "](https://hi.wikipedia.org/wiki/भारतीय": 4841,
      "ource": 4842,
      "▁Time": 4843,
      "▁23": 4844,
      "▁28": 4845,
      "ilk": 4846,
      "▁కార": 4847,
      "▁కలి": 4848,
      "ಲಿಮ್": 4849,
      "▁Delhi": 4850,
      "▁Bengal": 4851,
      "రిహ": 4852,
      "రికత": 4853,
      "క్నాల": 4854,
      "emoc": 4855,
      "emale": 4856,
      "ంది.\r\n": 4857,
      "igh": 4858,
      "నిమా": 4859,
      "▁ಪು": 4860,
      "▁ಪ್ರಾ": 4861,
      "243": 4862,
      "ಗಳನ್ನು": 4863,
      "▁సంగీతం": 4864,
      "त्रि": 4865,
      "▁2026": 4866,
      "▁बना": 4867,
      "ತ್ತಿ": 4868,
      "▁gre": 4869,
      "ಸ್ಲಿಮ್": 4870,
      "▁చి": 4871,
      "▁[\"G": 4872,
      "▁north": 4873,
      "▁rep": 4874,
      "ులు\"),": 4875,
      "▁ಹಾಗ": 4876,
      "17.": 4877,
      "–సా.శ.13": 4878,
      "epal": 4879,
      "▁అయ": 4880,
      "ಕ್ಕಿ": 4881,
      "▁\"Category:": 4882,
      "▁वा": 4883,
      "▁ಕಾ": 4884,
      "▁ಕೆ": 4885,
      "▁ಕ್ರಿ": 4886,
      "▁ప్రధాన": 4887,
      "a](https://en.wikipedia.org/wiki/K": 4888,
      "▁ವಾ": 4889,
      "▁ನದಿ": 4890,
      "ರಿಂದ": 4891,
      "▁began": 4892,
      "s](https://en.wikipedia.org/wiki/List_of_": 4893,
      "ప్రదాయ": 4894,
      "ప్రత్యేక": 4895,
      "_Pro": 4896,
      "ద్వీ": 4897,
      "▁ఉప": 4898,
      "ಸಂಸ": 4899,
      "ಸಂಯುಕ್ತ": 4900,
      "own": 4901,
      "ಾಗರೀ": 4902,
      "▁రె": 4903,
      "%20A": 4904,
      "olitics": 4905,
      "ಸಿದ": 4906,
      "್ರಾಡಳಿತ": 4907,
      "న్నడ": 4908,
      "▁संविधान": 4909,
      "್ಯಾಪಾರ": 4910,
      "ంటు": 4911,
      "ibet": 4912,
      "ರಾಷ್ಟ್ರಪತಿ": 4913,
      "viol": 4914,
      "orities": 4915,
      "▁ಆಡಳಿತ": 4916,
      "र्वत": 4917,
      "ंडिया": 4918,
      "▁దేశంలో": 4919,
      "llchin": 4920,
      "पात": 4921,
      "ಿಯಿಂದ": 4922,
      "ವಿರ": 4923,
      "uddhism": 4924,
      "కాశ్మీ": 4925,
      "ंग्रेस": 4926,
      "ంధు": 4927,
      "ದ್ದ": 4928,
      "ಮುಖ್ಯ": 4929,
      "ingham": 4930,
      "వర్గం:Harv": 4931,
      "▁1998": 4932,
      "ರೆಗೆ": 4933,
      "entral_": 4934,
      "▁ಎಂಬ": 4935,
      "▁ಎನ್.": 4936,
      "▁ಸಾವಿರ": 4937,
      "ద్ధం": 4938,
      "ద్ధి": 4939,
      "ాల్దీవ": 4940,
      "rgani": 4941,
      "చ్చే": 4942,
      "దక్షిణ_": 4943,
      "Oxford_University_Press": 4944,
      "▁ಉಪ": 4945,
      "▁కాంగ్రె": 4946,
      "Stein2010),": 4947,
      "/population": 4948,
      "▁ಕೋಟ": 4949,
      "स्कृति": 4950,
      "టెక్నాల": 4951,
      "ವೆ.": 4952,
      "హిమాలయ": 4953,
      "ೇಂದ್ರಾಡಳಿತ": 4954,
      "▁ವಿಭ": 4955,
      "ಗಿನ": 4956,
      "▁Empire\")": 4957,
      "ducation": 4958,
      "ಲಾದೇಶ": 4959,
      "▁లే": 4960,
      "త్తరా": 4961,
      "ಹಾರಾ": 4962,
      "నాగరికత": 4963,
      "esert": 4964,
      "క్కువ": 4965,
      "క్‌సభ": 4966,
      "▁శాస్త్ర": 4967,
      "▁Act,": 4968,
      "▁हिन्दी": 4969,
      "▁ರಾಜ್ಯಗಳು": 4970,
      "formation": 4971,
      "▁शासन": 4972,
      "▁थी": 4973,
      "▁Company": 4974,
      "ెలుగు": 4975,
      "](https://kn.wikipedia.org/wiki/ಚಿತ್ರ": 4976,
      "▁2010](https://en.wikipedia.org/wiki/India#CITEREFStein2010),": 4977,
      "▁వచ్చింది.": 4978,
      "▁%),": 4979,
      "yanmar": 4980,
      "ಲ್ತ್‌": 4981,
      "▁ಶತಮಾನ": 4982,
      "_ప్రాంత": 4983,
      "ಳುವಳಿ": 4984,
      "ensity": 4985,
      "▁Press](https://en.wikipedia.org/wiki/Oxford_University_Press": 4986,
      "ultanate": 4987,
      "ministrative": 4988,
      "do-Aryan": 4989,
      "वेबैक": 4990,
      "ಿಹ್ನೆ": 4991,
      "▁ಮೊದ": 4992,
      "ಂಗಳೂರು": 4993,
      "▁द्वारा": 4994,
      "ర్చ:": 4995,
      ":EditPage/మూస:": 4996,
      "ాళుక్య": 4997,
      "ಘಟನೆ": 4998,
      "ಾಂಗ್ಲಾದೇಶ": 4999,
      "ೊಡ್ಡ": 5000,
      "▁ಹಾಗೂ": 5001,
      "ప్రత్యేక:EditPage/మూస:": 5002,
      "ಾಗರೀಕ": 5003,
      "▁ಎನ್.ಡಿ": 5004,
      "టెక్నాలజీ": 5005,
      "](https://kn.wikipedia.org/wiki/ಚಿತ್ರ:": 5006,
      "/in": 5007,
      "/national": 5008,
      "/article": 5009,
      "1-1": 5010,
      "318": 5011,
      "3TR": 5012,
      "6_": 5013,
      "At": 5014,
      "Congress": 5015,
      "Se": 5016,
      "Web": 5017,
      "_न": 5018,
      "_per": 5019,
      "ate_": 5020,
      "ball": 5021,
      "eg": 5022,
      "hal": 5023,
      "mi": 5024,
      "mal": 5025,
      "rag": 5026,
      "rust": 5027,
      "ront": 5028,
      "sources": 5029,
      "uth": 5030,
      "खंड": 5031,
      "खण्ड": 5032,
      "गोल": 5033,
      "धि": 5034,
      "रू": 5035,
      "व्यवस्था": 5036,
      "शीन": 5037,
      "ां": 5038,
      "ुंबई": 5039,
      "ौर": 5040,
      "ौद्ध": 5041,
      "ौद्योगिक": 5042,
      "▁या": 5043,
      "dies": 5044,
      "dives": 5045,
      "org": 5046,
      "oram": 5047,
      "pen": 5048,
      "▁[World": 5049,
      "ances": 5050,
      "tice": 5051,
      "aldives": 5052,
      "](https://en.wikipedia.org/wiki/O": 5053,
      "](https://en.wikipedia.org/wiki/U": 5054,
      "aran": 5055,
      "hief": 5056,
      "्रम": 5057,
      "as,": 5058,
      "▁संग": 5059,
      "lib": 5060,
      "atter": 5061,
      "▁ser": 5062,
      "▁country": 5063,
      "▁C.": 5064,
      "▁Con": 5065,
      "▁मैदान": 5066,
      "-12)": 5067,
      "▁Agency": 5068,
      "▁Science": 5069,
      "los": 5070,
      "lowing": 5071,
      "urn": 5072,
      "▁made": 5073,
      "▁2011.": 5074,
      "21.": 5075,
      "cher": 5076,
      "stru": 5077,
      "ournal": 5078,
      "▁This": 5079,
      "▁Monetary": 5080,
      "onsoon": 5081,
      "▁अरब": 5082,
      "▁D.": 5083,
      "नाडु": 5084,
      "▁जल": 5085,
      "▁दर": 5086,
      "11.": 5087,
      "28)": 5088,
      "▁प्रति": 5089,
      "▁2005": 5090,
      "aputra": 5091,
      ".[[3": 5092,
      "akhand": 5093,
      "ubcontinent": 5094,
      "25)": 5095,
      "253": 5096,
      "▁Index": 5097,
      "ताब्": 5098,
      "epartment": 5099,
      "स्त्र": 5100,
      "harm": 5101,
      "पुरी": 5102,
      "otals": 5103,
      "light": 5104,
      "](https://hi.wikipedia.org/wiki/भारत#cite_ref-FOOTNOTE": 5105,
      "_Delhi": 5106,
      "▁इतिहास": 5107,
      "erala": 5108,
      "_Nations": 5109,
      "▁Valley": 5110,
      "rough": 5111,
      "▁हैं,": 5112,
      "ultural": 5113,
      "पर्यटन": 5114,
      "किम": 5115,
      "857": 5116,
      "_East_Asia_Summit": 5117,
      "quality": 5118,
      "/cb": 5119,
      "-symbols": 5120,
      "▁control": 5121,
      "endra": 5122,
      "AARC_summit": 5123,
      "दीव": 5124,
      "▁इसके": 5125,
      "रेल": 5126,
      "पालिका": 5127,
      "▁घाट": 5128,
      "▁composed": 5129,
      "_at_the": 5130,
      "-level": 5131,
      "▁सिनेमा": 5132,
      "▁York": 5133,
      "ttarakhand": 5134,
      "▁prime": 5135,
      "▁domestic": 5136,
      "rahmaputra": 5137,
      "िक्षा": 5138,
      "-language\\_sources": 5139,
      "_Islands": 5140,
      "flu": 5141,
      "िक्किम": 5142,
      "▁(India)\")": 5143,
      "rganization": 5144,
      "/national-symbols": 5145,
      "3TRt": 5146,
      "-language\\_sources\\_(": 5147,
      "--": 5148,
      "-22": 5149,
      ".పూ.": 5150,
      ".html).": 5151,
      "/D": 5152,
      "/we": 5153,
      "130": 5154,
      "12.": 5155,
      "2)[[": 5156,
      "5%": 5157,
      "5]](https://en.wikipedia.org/wiki/India#cite_note-FOOTNOTE": 5158,
      "534": 5159,
      "7c": 5160,
      "E﻿": 5161,
      "RL": 5162,
      "Rowland": 5163,
      "_2": 5164,
      "_Re": 5165,
      "_2004": 5166,
      "a-b": 5167,
      "aury": 5168,
      "britannica": 5169,
      "ght": 5170,
      "gra": 5171,
      "house": 5172,
      "ite": 5173,
      "ling": 5174,
      "lass": 5175,
      "map": 5176,
      "nf": 5177,
      "operation": 5178,
      "s_of_India": 5179,
      "work": 5180,
      "रण": 5181,
      "लिस": 5182,
      "वार": 5183,
      "वीं": 5184,
      "शक": 5185,
      "स](https://hi.wikipedia.org/wiki/": 5186,
      "सभा": 5187,
      "ाप": 5188,
      "ांध": 5189,
      "ोष": 5190,
      "०१": 5191,
      "ంతం": 5192,
      "ఆగ": 5193,
      "కళ": 5194,
      "ఖండ్": 5195,
      "గ్": 5196,
      "గిన": 5197,
      "గఢ్": 5198,
      "జో": 5199,
      "ట్ర": 5200,
      "తెలుగు": 5201,
      "ద్రా": 5202,
      "పద": 5203,
      "భి": 5204,
      "యో": 5205,
      "లక్ష": 5206,
      "వర": 5207,
      "శో": 5208,
      "షా": 5209,
      "హు": 5210,
      "హార్": 5211,
      "హాయ": 5212,
      "ాష్ట్ర": 5213,
      "ీక": 5214,
      "ీహార్": 5215,
      "ుల": 5216,
      "ుల్": 5217,
      "ోల్": 5218,
      "ోత్స": 5219,
      "ౌర్య": 5220,
      "▁ध": 5221,
      "▁his": 5222,
      "▁end": 5223,
      "▁ed.).": 5224,
      "dish": 5225,
      "▁[హ": 5226,
      "▁\"హ": 5227,
      "▁\"ఢిల్లీ": 5228,
      "thnic": 5229,
      "](https://en.wikipedia.org/wiki/Re": 5230,
      "ered": 5231,
      "20)": 5232,
      "20.": 5233,
      "ison": 5234,
      "▁(in": 5235,
      "్రూ": 5236,
      "rim": 5237,
      "rial": 5238,
      "](https://te.wikipedia.org/wiki/సి": 5239,
      "ating": 5240,
      "\\_or": 5241,
      "ాలా": 5242,
      "ాలలో": 5243,
      "▁col": 5244,
      "ide": 5245,
      "్యం": 5246,
      "राठ": 5247,
      "ict": 5248,
      "icon": 5249,
      "urban": 5250,
      "ర్ణా": 5251,
      "ర్మే": 5252,
      "▁Publishing": 5253,
      "its": 5254,
      "itz": 5255,
      "raj": 5256,
      "str": 5257,
      "्ता:": 5258,
      "▁River": 5259,
      "▁Tamil": 5260,
      "లోక్‌సభ": 5261,
      "illi": 5262,
      "identifiers": 5263,
      "▁David": 5264,
      "ounci": 5265,
      "23.": 5266,
      "▁వంశ": 5267,
      "aylor": 5268,
      "▁Ex": 5269,
      "▁Ge": 5270,
      "▁Gana": 5271,
      "▁दृ": 5272,
      "▁दो": 5273,
      "upt": 5274,
      "▁Himalay": 5275,
      "ండర్": 5276,
      "force": 5277,
      "▁प्रमुख": 5278,
      "▁2001": 5279,
      "▁non-": 5280,
      "▁rec": 5281,
      "254": 5282,
      "](https://en.wikipedia.org/wiki/India#CITEREFB": 5283,
      "త్మా": 5284,
      "geoh": 5285,
      "160": 5286,
      "imach": 5287,
      "asting": 5288,
      "overty": 5289,
      "▁అతి": 5290,
      "2905": 5291,
      "ికి": 5292,
      "▁Official": 5293,
      "a](https://en.wikipedia.org/wiki/A": 5294,
      "14.": 5295,
      "▁Wiki": 5296,
      "ద్దు": 5297,
      "hindu": 5298,
      "▁రహదార": 5299,
      "మాచల్": 5300,
      "▁సామ్రాజ్య": 5301,
      "రువా": 5302,
      "రుణా": 5303,
      "_and_D": 5304,
      "▁शु": 5305,
      "న్నో": 5306,
      "_Data_": 5307,
      "िये": 5308,
      "మిజో": 5309,
      "▁रह": 5310,
      "▁[GDP": 5311,
      "▁ఇది": 5312,
      "▁लग": 5313,
      "aries": 5314,
      "▁జరి": 5315,
      "▁movement": 5316,
      "▁విస్త": 5317,
      "](https://en.wikipedia.org/wiki/Economy_of_": 5318,
      "62-2": 5319,
      "तेलु": 5320,
      "ृत्य": 5321,
      "▁శతాబ్ద": 5322,
      "ట్టు": 5323,
      "timesofindia": 5324,
      "do-P": 5325,
      "ूनिव": 5326,
      "▁status": 5327,
      "రాష్ట్రాలు": 5328,
      "▁tex": 5329,
      "వేద": 5330,
      "ilitary": 5331,
      "▁రాజకీయ": 5332,
      "▁2022.\r\n": 5333,
      "▁ప్రాంతాలు": 5334,
      "ship": 5335,
      "illenni": 5336,
      "హిమాచల్": 5337,
      "▁2016.\r\n": 5338,
      "ociety": 5339,
      "హాత్మా": 5340,
      "olden": 5341,
      "_capit": 5342,
      "▁Islands](https://en.wikipedia.org/wiki/": 5343,
      "ूरो": 5344,
      "▁ప్రదేశ్\")": 5345,
      "](https://hi.wikipedia.org/wiki/भारत_की_": 5346,
      "](https://hi.wikipedia.org/wiki/भारत_का_": 5347,
      "హారాష్ట్ర": 5348,
      "శాస్త్ర": 5349,
      "రాజస్థాన్": 5350,
      "-of-india-": 5351,
      "▁వాతావరణ": 5352,
      "_संघ": 5353,
      "దినోత్స": 5354,
      "బెంగాలీ": 5355,
      ".net": 5356,
      "fication": 5357,
      "-107-111": 5358,
      "యన్మార్": 5359,
      "▁ముఖ్య": 5360,
      "▁युद्ध": 5361,
      "▁न्यायालय": 5362,
      "JPG": 5363,
      "achine": 5364,
      "धिकारिक": 5365,
      "ంజాబ్": 5366,
      "▁వ్యాస": 5367,
      "▁mathema": 5368,
      "▁[पुरालेखित": 5369,
      "గుజరాత్": 5370,
      "ఆఫ్ఘనిస్తాన్": 5371,
      "న్‌ఫర్మే": 5372,
      "cia.gov/": 5373,
      "-780": 5374,
      "unknown\\_parameters#": 5375,
      "▁अगस्त": 5376,
      "धानमंत्री": 5377,
      "-0-19-882905": 5378,
      "రిహద్దు": 5379,
      "చ్చేరి": 5380,
      "Rowland1970": 5381,
      "britannica.com/": 5382,
      "ర్ణాటక": 5383,
      "geohack": 5384,
      "రుణాచల్": 5385,
      "timesofindia.indiatimes.com/": 5386,
      "-107-11162-2": 5387,
      "న్‌ఫర్మేషన్": 5388,
      "-0-19-882905-8": 5389,
      "-C": 5390,
      "-n": 5391,
      "-प": 5392,
      "-and": 5393,
      "-50": 5394,
      "-30": 5395,
      ".ni": 5396,
      "1200": 5397,
      "125": 5398,
      "2]](https://en.wikipedia.org/wiki/India#cite_note-": 5399,
      "300": 5400,
      "7_": 5401,
      "95": 5402,
      "?p": 5403,
      "Bharat": 5404,
      "CA": 5405,
      "DR": 5406,
      "Ethnologue": 5407,
      "Tab": 5408,
      "_अ": 5409,
      "_ए": 5410,
      "_pe": 5411,
      "_30": 5412,
      "_with": 5413,
      "_17": 5414,
      "_languages": 5415,
      "c.": 5416,
      "cess": 5417,
      "dlife": 5418,
      "ez": 5419,
      "ham": 5420,
      "ks": 5421,
      "lurton": 5422,
      "que": 5423,
      "sm": 5424,
      "udu": 5425,
      "ंका": 5426,
      "कट": 5427,
      "गंगा": 5428,
      "देव": 5429,
      "भो": 5430,
      "मेर": 5431,
      "ल](https://hi.wikipedia.org/wiki/": 5432,
      "लंका": 5433,
      "हैद": 5434,
      "िला": 5435,
      "ीमा": 5436,
      "ूह": 5437,
      "्म": 5438,
      "▁—": 5439,
      "▁lo": 5440,
      "▁80": 5441,
      "oral": 5442,
      "ortheast": 5443,
      ".org": 5444,
      "▁[c": 5445,
      "▁[p": 5446,
      "▁[ओ": 5447,
      "▁\"ओ": 5448,
      "▁\"19": 5449,
      "▁\"World": 5450,
      "arath": 5451,
      "2025": 5452,
      "tions": 5453,
      "](https://hi.wikipedia.org/wiki/आ": 5454,
      "▁(19": 5455,
      "▁them": 5456,
      "▁India](https://en.wikipedia.org/wiki/G": 5457,
      "▁influ": 5458,
      "lief": 5459,
      "atch": 5460,
      "▁pre": 5461,
      "▁painting": 5462,
      "▁summit": 5463,
      "-06": 5464,
      "agen": 5465,
      "-16": 5466,
      "▁S.": 5467,
      "▁Sec": 5468,
      "राबाद": 5469,
      "▁billion": 5470,
      "icha": 5471,
      "icob": 5472,
      "▁12": 5473,
      "▁14.": 5474,
      "▁P.": 5475,
      "ाने": 5476,
      "▁2016.": 5477,
      "hell": 5478,
      "र्ना": 5479,
      "ravi": 5480,
      "21)": 5481,
      "213": 5482,
      "▁western": 5483,
      "▁Territory": 5484,
      "▁Mana": 5485,
      "ildlife": 5486,
      "▁अप्र": 5487,
      "▁app": 5488,
      "▁Be": 5489,
      "238": 5490,
      "emon": 5491,
      "▁eastern": 5492,
      "_का_": 5493,
      "▁human": 5494,
      "▁नी": 5495,
      "abh": 5496,
      "ability": 5497,
      "18.": 5498,
      "▁J.": 5499,
      "▁new": 5500,
      "▁rem": 5501,
      "elang": 5502,
      "1993": 5503,
      "_of_India.svg": 5504,
      "▁Organisation": 5505,
      "▁Ocean": 5506,
      "_Census": 5507,
      "▁Lank": 5508,
      "▁Kingdom": 5509,
      "▁3,": 5510,
      "ternal": 5511,
      "▁[↑](https://en.wikipedia.org/wiki/India#cite_ref-FOOTNOTEMetcalfMetcalf2006": 5512,
      "ogue": 5513,
      "▁संबंध": 5514,
      "म्प": 5515,
      "▁disc": 5516,
      "▁dispu": 5517,
      "हिमा": 5518,
      "overnment_of_India": 5519,
      "त्तीस": 5520,
      "र्वो": 5521,
      "▁exp": 5522,
      "_Temple": 5523,
      "▁भाषाओं": 5524,
      "general_": 5525,
      "▁[New": 5526,
      "▁[National": 5527,
      "▁करने": 5528,
      "िरपे": 5529,
      "ikkim": 5530,
      "▁life": 5531,
      "वायु": 5532,
      "\")*,": 5533,
      "coefficient": 5534,
      "ीपी": 5535,
      "o-d": 5536,
      "▁मेला\")": 5537,
      "▁हुए": 5538,
      "_Indian_general_": 5539,
      "annad": 5540,
      "भीम": 5541,
      "िल्ली": 5542,
      "▁कार्य": 5543,
      "volution": 5544,
      "Encyc": 5545,
      "pectancy": 5546,
      "Wikipedia\\_articles": 5547,
      "rofile": 5548,
      "▁[हिन्दी](https://hi.wikipedia.org/wiki/": 5549,
      "▁employ": 5550,
      "bank.org/": 5551,
      "cording": 5552,
      "atabase": 5553,
      "olitical_": 5554,
      "cherry": 5555,
      "3TRtDwAAQBAJ&pg=PA": 5556,
      "-language\\_sources\\_(en": 5557,
      "illennium": 5558,
      "_capita": 5559,
      "uducherry": 5560,
      "हैदराबाद": 5561,
      "ichael": 5562,
      "र्नाटक": 5563,
      "िरपेक्ष": 5564,
      "_Indian_general_election": 5565,
      "*](https://": 5566,
      "-S": 5567,
      "-r": 5568,
      "-with": 5569,
      "-29": 5570,
      ".ಪ": 5571,
      "/ark": 5572,
      "124": 5573,
      "2-4": 5574,
      "3-8": 5575,
      "400": 5576,
      "613": 5577,
      "677": 5578,
      "7]](https://en.wikipedia.org/wiki/India#cite_note-FOOTNOTE": 5579,
      "8%": 5580,
      "9857": 5581,
      "=0&": 5582,
      "CH": 5583,
      "CL": 5584,
      "C-0": 5585,
      "HDR": 5586,
      "IJ": 5587,
      "OV": 5588,
      "QAAQBAJ&pg=PA": 5589,
      "SAARC_summit": 5590,
      "_-": 5591,
      "_ನ": 5592,
      "_di": 5593,
      "_24": 5594,
      "_36": 5595,
      "ax": 5596,
      "ece": 5597,
      "eval": 5598,
      "hra": 5599,
      "i,": 5600,
      "ji": 5601,
      "jana": 5602,
      "lm": 5603,
      "lue": 5604,
      "m2": 5605,
      "oard": 5606,
      "p?": 5607,
      "po": 5608,
      "tats": 5609,
      "yy": 5610,
      "yam": 5611,
      "ंह": 5612,
      "झार": 5613,
      "डिया": 5614,
      "तट": 5615,
      "निक": 5616,
      "पान": 5617,
      "मालय": 5618,
      "हन": 5619,
      "हरी": 5620,
      "ाय": 5621,
      "िज": 5622,
      "िस्तान": 5623,
      "िहार": 5624,
      "ంతి": 5625,
      "కాల": 5626,
      "కారం": 5627,
      "ఖ్": 5628,
      "గంగా": 5629,
      "టో": 5630,
      "డిన": 5631,
      "తీ": 5632,
      "ధి": 5633,
      "ధించ": 5634,
      "నల్": 5635,
      "మన": 5636,
      "మర": 5637,
      "ర్యా": 5638,
      "లం": 5639,
      "లతో": 5640,
      "లమె": 5641,
      "ీస్": 5642,
      "ూప": 5643,
      "ూరు": 5644,
      "ెనీ": 5645,
      "ౌక": 5646,
      "ಂಭ": 5647,
      "ಉಪ": 5648,
      "ಓಟ": 5649,
      "ಗದ": 5650,
      "ಗೊಂಡ": 5651,
      "ಚೀ": 5652,
      "ಜಿತ": 5653,
      "ಝೋ": 5654,
      "ಟದ": 5655,
      "ಥವಾ": 5656,
      "ದ್ರ": 5657,
      "ದಿಂದ": 5658,
      "ದ್ವೀಪ": 5659,
      "ದಕ್ಷಿಣ": 5660,
      "ನೈ": 5661,
      "ನಿಂದ": 5662,
      "ನೆಯ": 5663,
      "ಬಿ": 5664,
      "ಮಣ": 5665,
      "ಮಂತ್ರಿ": 5666,
      "ಮಾರು": 5667,
      "ಯೋ": 5668,
      "ರಡ": 5669,
      "ಲಕ್ಷ": 5670,
      "ಲಾಗಿ": 5671,
      "ವಣಿ": 5672,
      "ವು.": 5673,
      "ಶಾ": 5674,
      "ಸತ್ಯ": 5675,
      "ಹ್ಮ": 5676,
      "ಾಂಶ": 5677,
      "ೀಸ್": 5678,
      "ೂರ": 5679,
      "ೆಂದರೆ": 5680,
      "ೇಖ": 5681,
      "ೇರ": 5682,
      "ೇವ": 5683,
      "ೊಳ": 5684,
      "′′": 5685,
      "▁<": 5686,
      "▁·": 5687,
      "▁ऑ": 5688,
      "▁ద": 5689,
      "▁ఫ": 5690,
      "▁ಏ": 5691,
      "▁ಡ": 5692,
      "▁ಫ": 5693,
      "▁im": 5694,
      "▁राष्ट्र": 5695,
      "▁लेख": 5696,
      "▁ರಾಷ್ಟ್ರೀಯ": 5697,
      "▁దక్షిణ": 5698,
      "▁ಯು": 5699,
      "▁హిందూ": 5700,
      "▁గాంధీ": 5701,
      "▁ಓಟ": 5702,
      "orce": 5703,
      "orical": 5704,
      ":/121": 5705,
      "▁[च": 5706,
      "▁[ಜ": 5707,
      "▁[ನ": 5708,
      "▁[భారతదేశం": 5709,
      "▁[ವಿ": 5710,
      "▁[ఢిల్లీ": 5711,
      "ender": 5712,
      "\")\"": 5713,
      "ins": 5714,
      "alli": 5715,
      "erg": 5716,
      "arli": 5717,
      "ared/": 5718,
      "arendra": 5719,
      "esti": 5720,
      "thehindu": 5721,
      "](https://hi.wikipedia.org/wiki/ओ": 5722,
      "▁कुल": 5723,
      "▁(2006": 5724,
      "ారస": 5725,
      "ations\")": 5726,
      "atar": 5727,
      "etrag": 5728,
      "\\_of": 5729,
      "\\_cont": 5730,
      "\\_identifiers": 5731,
      "ాలను": 5732,
      "▁culture": 5733,
      "](https://kn.wikipedia.org/wiki/C": 5734,
      "](https://kn.wikipedia.org/wiki/ನ": 5735,
      "▁Centre": 5736,
      "ages/": 5737,
      "agari": 5738,
      "-135": 5739,
      "adwe": 5740,
      "▁far": 5741,
      "▁fig": 5742,
      "స్](https://te.wikipedia.org/wiki/": 5743,
      "▁border": 5744,
      "lopedia": 5745,
      "▁పెద్ద": 5746,
      "ical_": 5747,
      "▁tril": 5748,
      "linkim": 5749,
      "ర్లు": 5750,
      "00–సా.శ.పూ.": 5751,
      "00%20A": 5752,
      "ver,": 5753,
      "ಭಾರತ\r\n": 5754,
      "र्ष": 5755,
      "▁केन्द्र": 5756,
      "raz": 5757,
      "▁ही": 5758,
      "▁women": 5759,
      "లు\")": 5760,
      "▁Total": 5761,
      "▁Man": 5762,
      "ರ್‌": 5763,
      "ಲಿಷ್": 5764,
      "▁ಸಹ": 5765,
      "▁ಸರ್ಕ": 5766,
      "ంది": 5767,
      "▁ಮೋದಿ": 5768,
      "▁ಮೂರ": 5769,
      "105": 5770,
      "▁వే": 5771,
      "▁1960": 5772,
      "▁*2011": 5773,
      "▁ಪಡೆ": 5774,
      "ಗಳೆಂದರೆ": 5775,
      "▁Gu": 5776,
      "▁Government": 5777,
      "▁November": 5778,
      "▁Nehru": 5779,
      "upreme": 5780,
      "ियां": 5781,
      "-49857": 5782,
      "▁बन": 5783,
      "architecture": 5784,
      "22.": 5785,
      "shared/": 5786,
      "ಸ್ವಾ": 5787,
      "ಸ್ಲಾ": 5788,
      "ಸ್ಟ್": 5789,
      "▁नद": 5790,
      "▁नहीं": 5791,
      "▁से](http://": 5792,
      "▁From": 5793,
      "▁Factbook": 5794,
      "_Ass": 5795,
      "_Affairs": 5796,
      "tudies": 5797,
      "akes": 5798,
      "▁[\"The": 5799,
      "▁regions": 5800,
      "▁Indus": 5801,
      "▁Intelligence": 5802,
      "త్తం": 5803,
      "15.": 5804,
      "159": 5805,
      "13.": 5806,
      "▁(సా.శ.15": 5807,
      "▁(సా.శ.13": 5808,
      "16.": 5809,
      "▁ಹಿಂದ": 5810,
      "▁అనే": 5811,
      "407": 5812,
      "▁forest": 5813,
      "▁वार": 5814,
      "▁ಕೇಂದ್ರಾಡಳಿತ": 5815,
      "▁ప్రజ": 5816,
      "తం\")": 5817,
      "▁ವ್ಯಾಪಾರ": 5818,
      "▁ನಾಗರೀಕ": 5819,
      "ರಿಕ": 5820,
      "aves": 5821,
      "पुरा": 5822,
      "ంచి": 5823,
      "▁[Chin": 5824,
      "▁[Central": 5825,
      "स्ला": 5826,
      "▁ಅಮ": 5827,
      "▁ಅಥವಾ": 5828,
      "▁ಬಲ": 5829,
      "ತಿಯ": 5830,
      "hina": 5831,
      "▁ఆఫ్": 5832,
      "ana-m": 5833,
      "ana-49857": 5834,
      "ssam": 5835,
      "-2_Data_": 5836,
      "%202-": 5837,
      "7.208": 5838,
      "▁సాం": 5839,
      "▁[Ministry": 5840,
      "▁उद्यान": 5841,
      "▁है।[[": 5842,
      "ార్లమె": 5843,
      "▁शताब्": 5844,
      "709": 5845,
      "▁\"British": 5846,
      "anipur": 5847,
      "oreign": 5848,
      "కిస్థాన్": 5849,
      "undament": 5850,
      "▁నే": 5851,
      "▁నగర": 5852,
      "▁रहा": 5853,
      "▁[Government": 5854,
      "ನ್ನಡ": 5855,
      "▁ಆಗ": 5856,
      "▁ಆರಂ": 5857,
      "▁ext": 5858,
      "ాయి.": 5859,
      "48/cb": 5860,
      "hmed": 5861,
      "ಿತು.": 5862,
      "_Nadu": 5863,
      "టిబె": 5864,
      "ಿಯಾ": 5865,
      "▁ಇತ": 5866,
      "news18": 5867,
      "్రీ.పూ.": 5868,
      "▁[![A": 5869,
      "United_Nations": 5870,
      "athur": 5871,
      "ecu": 5872,
      "▁77.208": 5873,
      "MetcalfMetcalf201": 5874,
      "▁produc": 5875,
      "ండియా": 5876,
      "ಮಿಝೋ": 5877,
      "▁ದೊಡ್ಡ": 5878,
      "▁ఎక్కువ": 5879,
      "▁ఎన్నో": 5880,
      "amil_Nadu": 5881,
      "parliament": 5882,
      "विशेष:EditPage/": 5883,
      "▁ಚಿಹ್ನೆ": 5884,
      "_Fund": 5885,
      "▁./వర్గం:Wikipedia\\_articles": 5886,
      "▁technology": 5887,
      "ಪಾಯಿ": 5888,
      "ಂಗ್ಲ": 5889,
      "ಂಗ್ಲಿಷ್": 5890,
      "▁ಪ್ರದೇಶ](https://kn.wikipedia.org/wiki/": 5891,
      "▁ಪ್ರದೇಶ\")\r\n": 5892,
      "_సం": 5893,
      "national-an": 5894,
      "ashmiri": 5895,
      "▁ಉಗ": 5896,
      "▁ಶೇ": 5897,
      "ారు.\r\n": 5898,
      "▁second": 5899,
      "▁Hinduism": 5900,
      "▁मेला](https://hi.wikipedia.org/wiki/": 5901,
      "-gana-m": 5902,
      "les/00%20A": 5903,
      "imf_12": 5904,
      "imf-12)": 5905,
      "టుంబ": 5906,
      "ಕಾಶ್ಮೀ": 5907,
      "india/national-an": 5908,
      "aint:": 5909,
      "ranci": 5910,
      "awahar": 5911,
      "ಂಗಾಳ": 5912,
      "▁భారత్": 5913,
      "श्चिमी": 5914,
      "risti": 5915,
      "गणराज्य": 5916,
      "kingdom": 5917,
      "/A-2_Data_": 5918,
      "](https://en.wikipedia.org/wiki/List_of_SAARC_summit": 5919,
      "them-of-india-": 5920,
      "racy": 5921,
      "మెరి": 5922,
      "urrent": 5923,
      "▁మొత్తం": 5924,
      "▁ಹೊಂದಿದೆ.": 5925,
      "pringer": 5926,
      "eserve": 5927,
      "ondon": 5928,
      "▁प्राप्त": 5929,
      "బాద్": 5930,
      "ಗೋಳ": 5931,
      "censusindia.gov.in/2011census/P": 5932,
      "censusindia.gov.in/2011census/population": 5933,
      "-lead": 5934,
      "ంపెనీ": 5935,
      "ೊಂಡಿ": 5936,
      ".com/news/india/national-an": 5937,
      "View": 5938,
      "▁स्रोत/978-1": 5939,
      "](https://hi.wikipedia.org/wiki/विशेष:पुस्तक_स्रोत/978-1": 5940,
      "▁Persian": 5941,
      "UNHDR": 5942,
      "హ్మ": 5943,
      "ಧಾನಮಂತ್ರಿ": 5944,
      "ಸುತ್ತ": 5945,
      "▁ವರ್ಷ": 5946,
      "List_of_countries_by_GDP_(nominal)": 5947,
      "oint": 5948,
      "▁ఏర్": 5949,
      "-to-": 5950,
      "hasha": 5951,
      "▁Data*.": 5952,
      ".bnf": 5953,
      "▁ಭಾಗ": 5954,
      "[[೧೨]](https://kn.wikipedia.org/wiki/ಭಾರತ#cite_note-": 5955,
      "akshadwe": 5956,
      "▁ವ್ಯವಸ್ಥೆ": 5957,
      "్రిటిషు": 5958,
      "_enumeration": 5959,
      "urchasing": 5960,
      "rief-on-": 5961,
      "▁भूम": 5962,
      "omason": 5963,
      "_BRICS_summit": 5964,
      "▁गणराज्य": 5965,
      "ಮಾನ್": 5966,
      "ootball": 5967,
      "▁ಮಿಲಿಯನ್": 5968,
      "▁ಬ್ರಿಟಿ": 5969,
      "](https://kn.wikipedia.org/wiki/ಭಾರತ#cite_ref-imf_12": 5970,
      "india.gov.in/india-glance/national-symbols": 5971,
      "▁ಸಿರಿವಂತ": 5972,
      "▁ಪ್ರಪಂಚದ": 5973,
      "Provision": 5974,
      "▁चुनाव": 5975,
      ".fr/ark": 5976,
      "overeign": 5977,
      "▁అత్యధిక": 5978,
      "nclm.nic.in/shared/": 5979,
      "ీర్ణ": 5980,
      "▁ಕೆಲ": 5981,
      "దక్షిణ_ఆసియా": 5982,
      "▁ಎನ್.ಡಿ.ಎ": 5983,
      "_per_capita": 5984,
      "रेलू": 5985,
      "a-brief-on-": 5986,
      "\\_or\\_": 5987,
      "▁[पुरालेखित](https://web.archive.org/web/201": 5988,
      "CA/A-2_Data_": 5989,
      "Tables/00%20A": 5990,
      "▁summits\")": 5991,
      "icobar": 5992,
      "र्वोच्च": 5993,
      "61389": 5994,
      "jana-gana-m": 5995,
      "ವಣಿಗೆ": 5996,
      "▁ಓಟು": 5997,
      ":/12148/cb": 5998,
      "\\_contain": 5999,
      "▁trillion": 6000,
      "linkimages/": 6001,
      "▁ಸರ್ಕಾರ": 6002,
      "ಸ್ವಾತಂತ್ರ್ಯ": 6003,
      "ana-498576.": 6004,
      "%202-India.pdf)": 6005,
      "▁ಆರಂಭ": 6006,
      "news18.com/news/india/national-an": 6007,
      "▁77.20833": 6008,
      "विशेष:EditPage/साँचा:": 6009,
      "awaharl": 6010,
      "](https://en.wikipedia.org/wiki/List_of_SAARC_summits": 6011,
      "them-of-india-a-brief-on-": 6012,
      "censusindia.gov.in/2011census/PCA/A-2_Data_": 6013,
      "censusindia.gov.in/2011census/population_enumeration": 6014,
      ".bnf.fr/ark": 6015,
      "[[೧೨]](https://kn.wikipedia.org/wiki/ಭಾರತ#cite_note-imf-12)": 6016,
      "akshadweep": 6017,
      "nclm.nic.in/shared/linkimages/": 6018,
      "Tables/00%20A%202-India.pdf)": 6019,
      "jana-gana-mana-498576.": 6020,
      "news18.com/news/india/national-anthem-of-india-a-brief-on-": 6021,
      "censusindia.gov.in/2011census/PCA/A-2_Data_Tables/00%20A%202-India.pdf)": 6022,
      ".bnf.fr/ark:/12148/cb": 6023,
      "news18.com/news/india/national-anthem-of-india-a-brief-on-jana-gana-mana-498576.": 6024,
      "-D": 6025,
      "-se": 6026,
      "-विज्ञान": 6027,
      ".\")\r\n": 6028,
      ".](https://upload.wikimedia.org/wikipedia/commons/thumb/": 6029,
      "3%": 6030,
      "350": 6031,
      "34)": 6032,
      "41": 6033,
      "4]](https://en.wikipedia.org/wiki/India#cite_note-": 6034,
      "4]](https://en.wikipedia.org/wiki/India#cite_note-FOOTNOTE": 6035,
      "7).": 6036,
      ":\r\n": 6037,
      "AS": 6038,
      "Census": 6039,
      "Gua": 6040,
      "JIJ": 6041,
      "Kashmir": 6042,
      "MC": 6043,
      "MID": 6044,
      "Ministry_of_": 6045,
      "NA": 6046,
      "Raj": 6047,
      "St": 6048,
      "TC": 6049,
      "Test": 6050,
      "Vu": 6051,
      "Zva": 6052,
      "ZVu": 6053,
      "_आ": 6054,
      "_उ": 6055,
      "_26": 6056,
      "_देश": 6057,
      "a)": 6058,
      "aul": 6059,
      "aut": 6060,
      "bb": 6061,
      "br": 6062,
      "c/c": 6063,
      "casting": 6064,
      "ek": 6065,
      "go": 6066,
      "hu": 6067,
      "hā": 6068,
      "ker": 6069,
      "kZVu": 6070,
      "lood": 6071,
      "mir": 6072,
      "mrit": 6073,
      "nai": 6074,
      "ncient": 6075,
      "ple": 6076,
      "pture": 6077,
      "s:": 6078,
      "ual": 6079,
      "ues": 6080,
      "uil": 6081,
      "vest": 6082,
      "y=": 6083,
      "y\")": 6084,
      "ंच": 6085,
      "ईरा": 6086,
      "छत्तीस": 6087,
      "त्व": 6088,
      "फल": 6089,
      "फ्रीका": 6090,
      "लग": 6091,
      "स\")": 6092,
      "सून": 6093,
      "िंध": 6094,
      "ीच": 6095,
      "१९": 6096,
      "–24": 6097,
      "▁9.": 6098,
      "▁low": 6099,
      "▁Qu": 6100,
      "▁urban": 6101,
      "orn": 6102,
      "ors": 6103,
      "▁[f": 6104,
      "eneral_": 6105,
      "▁\"च": 6106,
      "ines": 6107,
      "th_BRICS_summit": 6108,
      "aland": 6109,
      "alit": 6110,
      "arlo": 6111,
      "arty": 6112,
      "report": 6113,
      "](https://hi.wikipedia.org/wiki/च": 6114,
      "▁कई": 6115,
      "▁कश्मीर": 6116,
      "outheast": 6117,
      "rime": 6118,
      "▁India\"](https://web.archive.org/web/201": 6119,
      "19.": 6120,
      "▁सद": 6121,
      "▁सैन": 6122,
      "▁sq": 6123,
      "\\_c": 6124,
      "▁census": 6125,
      "▁caus": 6126,
      "▁class": 6127,
      "▁Civil": 6128,
      "▁मुख": 6129,
      "▁Affairs": 6130,
      "[[14": 6131,
      "▁पर्वत": 6132,
      "loth": 6133,
      "▁tree": 6134,
      "▁Punjab": 6135,
      "ular": 6136,
      "_of_2011": 6137,
      "rowing": 6138,
      "▁2017.": 6139,
      "stribution": 6140,
      "▁when": 6141,
      "ourism": 6142,
      "▁Report": 6143,
      "▁Research": 6144,
      "▁M.": 6145,
      "-0)\r\n": 6146,
      "emographic": 6147,
      "iger": 6148,
      "1017": 6149,
      "▁1965": 6150,
      "वित": 6151,
      "cts": 6152,
      "al_Population": 6153,
      "ly,": 6154,
      "Union": 6155,
      "_का": 6156,
      "▁Europe": 6157,
      "oples": 6158,
      "▁दि": 6159,
      "upta": 6160,
      "▁बा": 6161,
      "▁बीच": 6162,
      "22-9": 6163,
      "-39": 6164,
      "▁से](http://www.": 6165,
      "▁these": 6166,
      "▁though": 6167,
      "▁name": 6168,
      "▁report": 6169,
      "▁religious": 6170,
      "-85": 6171,
      "25.": 6172,
      "ained": 6173,
      "search": 6174,
      "ताज": 6175,
      "ishing": 6176,
      "▁\"Ch": 6177,
      "▁\"Central": 6178,
      "क्षा": 6179,
      "न्दिर": 6180,
      "_Commissioner": 6181,
      "▁आधिकारिक": 6182,
      "27)": 6183,
      "utt": 6184,
      "▁Linguistic": 6185,
      "स्थ": 6186,
      "_Paper": 6187,
      "▁United": 6188,
      "ligions": 6189,
      "▁dec": 6190,
      "▁def": 6191,
      "▁development": 6192,
      "▁गु": 6193,
      "▁[↑](https://en.wikipedia.org/wiki/India#cite_ref-FOOTNOTEB": 6194,
      "▁उत्पाद": 6195,
      "ाद्वीप": 6196,
      "Harv\\_and\\_Sfn\\_no-target\\_errors\r\n": 6197,
      "▁[British": 6198,
      "_मंदिर": 6199,
      "▁संस्कृति": 6200,
      "लेट": 6201,
      "प्रा": 6202,
      "▁Press](https://en.wikipedia.org/wiki/C": 6203,
      "emplate_": 6204,
      "▁इन": 6205,
      "▁\"Government": 6206,
      "▁\"Gross": 6207,
      "ibcode": 6208,
      "▁language\"),": 6209,
      "िस्ट": 6210,
      "_Totals": 6211,
      "▁[Dyson": 6212,
      "▁करोड़": 6213,
      "ext": 6214,
      "exis": 6215,
      "anta": 6216,
      "_General_": 6217,
      "▁product": 6218,
      "▁अनु": 6219,
      "ikhism": 6220,
      "▁liter": 6221,
      "▁1994": 6222,
      "केर": 6223,
      "▁\"International": 6224,
      "▁[अंग्रेज़": 6225,
      "674": 6226,
      "](https://en.wikipedia.org/wiki/National_": 6227,
      "onstitutional": 6228,
      "atis": 6229,
      "_1_of_2011": 6230,
      "do-European": 6231,
      "▁languages\")": 6232,
      "▁जनगणना": 6233,
      "▁हैं।\r\n": 6234,
      "▁adop": 6235,
      "▁addition": 6236,
      "alayal": 6237,
      "▁sector": 6238,
      "▁राजनी": 6239,
      "▁\"पंजाब": 6240,
      "▁Anthem": 6241,
      "र्थव्यवस्था": 6242,
      "▁21.": 6243,
      "ovement": 6244,
      "▁code": 6245,
      "ociation": 6246,
      "▁[पंजाब": 6247,
      "करण": 6248,
      "▁Islands\")": 6249,
      "gistrar_General_": 6250,
      "odiversity": 6251,
      "▁Commissioner,": 6252,
      "▁होता": 6253,
      "ross_dom": 6254,
      "phere": 6255,
      ".svg.png)": 6256,
      "▁See": 6257,
      "uisine": 6258,
      "ब्ब": 6259,
      "ighth": 6260,
      "▁along": 6261,
      "_top": 6262,
      "gypt": 6263,
      "hennai": 6264,
      "▁जिसमें": 6265,
      "urity": 6266,
      "estic_pro": 6267,
      "▁कारण": 6268,
      "▁wide": 6269,
      "74-108": 6270,
      "ोर्ड": 6271,
      "▁km2": 6272,
      "_मेला?action=edit&redlink=1": 6273,
      "List_of_countries_by_GDP_(PPP)": 6274,
      "_Index": 6275,
      "▁Plateau": 6276,
      "-4020": 6277,
      "evanagari": 6278,
      "गोआ": 6279,
      "श्रीलंका": 6280,
      "issing": 6281,
      "_Development_Index": 6282,
      "Articles\\_contain": 6283,
      "arnatic": 6284,
      ".worldbank.org/": 6285,
      "▁zone": 6286,
      "roadcasting": 6287,
      "र्सिट": 6288,
      "uthority": 6289,
      "ूनिवर्सिट": 6290,
      "-78074-108": 6291,
      "_Census_Commissioner": 6292,
      "etraglia": 6293,
      "ristian": 6294,
      "Provisional_Population": 6295,
      "GuaJIJ": 6296,
      "ZvaGuaJIJ": 6297,
      "mritsar": 6298,
      "_Paper_1_of_2011": 6299,
      "_Totals_Paper_1_of_2011": 6300,
      "▁[अंग्रेज़ी](https://hi.wikipedia.org/wiki/अ": 6301,
      "ross_domestic_pro": 6302,
      "-78074-108-6": 6303,
      "Provisional_Population_Totals_Paper_1_of_2011": 6304,
      "ZvaGuaJIJgo": 6305,
      "ross_domestic_product": 6306,
      "Provisional_Population_Totals_Paper_1_of_2011_India": 6307,
      ")\"),": 6308,
      "*)": 6309,
      ",&": 6310,
      ".uk": 6311,
      "/3": 6312,
      "1-0": 6313,
      "1-4": 6314,
      "1%20": 6315,
      "2)\r\n": 6316,
      "3–": 6317,
      "5).": 6318,
      "61)": 6319,
      "8,": 6320,
      ";\r\n": 6321,
      "AG": 6322,
      "ES": 6323,
      "Home": 6324,
      "IF": 6325,
      "IUCN": 6326,
      "Official": 6327,
      "_9": 6328,
      "_व": 6329,
      "_50": 6330,
      "_2011": 6331,
      "_38": 6332,
      "_43": 6333,
      "_World": 6334,
      "_జాబితా": 6335,
      "_house": 6336,
      "ative": 6337,
      "ading": 6338,
      "b/": 6339,
      "bu": 6340,
      "ctive": 6341,
      "equality": 6342,
      "fli": 6343,
      "i-": 6344,
      "jan": 6345,
      "mon": 6346,
      "most": 6347,
      "national_": 6348,
      "ption": 6349,
      "sch": 6350,
      "s\").": 6351,
      "ually": 6352,
      "yle": 6353,
      "ंट": 6354,
      "जम्मू": 6355,
      "पि": 6356,
      "भ्यता": 6357,
      "मो": 6358,
      "लों": 6359,
      "शा": 6360,
      "िख": 6361,
      "िम": 6362,
      "ीगढ़": 6363,
      "ॉक": 6364,
      "ఆంధ": 6365,
      "కీ": 6366,
      "కాలు": 6367,
      "క్రమ": 6368,
      "గర్": 6369,
      "డో": 6370,
      "థి": 6371,
      "నె": 6372,
      "నాలు": 6373,
      "పించ": 6374,
      "బడ్డ": 6375,
      "భర": 6376,
      "మహ": 6377,
      "మై": 6378,
      "యన": 6379,
      "రంగ": 6380,
      "లయా": 6381,
      "వార": 6382,
      "శీ": 6383,
      "షనల్": 6384,
      "స్య": 6385,
      "ృద్ధి": 6386,
      "ెంగ": 6387,
      "ేర": 6388,
      "▁ओ": 6389,
      "▁₹": 6390,
      "▁hist": 6391,
      "▁దా": 6392,
      "▁నాగరికత": 6393,
      "▁టెక్నాలజీ": 6394,
      "dicat": 6395,
      "digarh": 6396,
      "](Template:": 6397,
      "http://": 6398,
      ".org/en": 6399,
      "▁[वि": 6400,
      "▁[सा": 6401,
      "en,": 6402,
      "▁\"ग": 6403,
      "▁\"ल": 6404,
      "an,": 6405,
      "aro": 6406,
      "203": 6407,
      "hib": 6408,
      "hild": 6409,
      "reed": 6410,
      "cise": 6411,
      "the-world": 6412,
      "▁कु": 6413,
      "▁off": 6414,
      "▁(2011": 6415,
      "▁(PPP)": 6416,
      "్రై": 6417,
      "్రప్రదేశ్": 6418,
      "ripur": 6419,
      "](https://te.wikipedia.org/wiki/ఢిల్లీ": 6420,
      "asi": 6421,
      "ashi": 6422,
      "▁India.[[": 6423,
      "▁India](https://en.wikipedia.org/wiki/C": 6424,
      "ation,": 6425,
      "▁सूचना": 6426,
      "entury": 6427,
      "▁prom": 6428,
      "▁Central": 6429,
      "idy": 6430,
      "▁मध्य": 6431,
      "▁महासागर": 6432,
      "▁At": 6433,
      "ref-10": 6434,
      "note-10": 6435,
      "adra": 6436,
      "adhy": 6437,
      "adras": 6438,
      "▁fam": 6439,
      "vey": 6440,
      "దేశం": 6441,
      "దేశాల": 6442,
      "దేశాలు": 6443,
      "స్\")": 6444,
      "▁100": 6445,
      "uras": 6446,
      "\"),[[": 6447,
      "ర్‌": 6448,
      "ediff": 6449,
      "▁Park": 6450,
      "ानव": 6451,
      "rote": 6452,
      "▁2012.": 6453,
      "▁2014.": 6454,
      "र्ज": 6455,
      "21,0": 6456,
      "లు?action=edit&redlink=1": 6457,
      "రాఠ": 6458,
      "]](https://en.wikipedia.org/wiki/India#cite_note-Combined": 6459,
      "▁top": 6460,
      "▁కి": 6461,
      "▁కో": 6462,
      "▁Bi": 6463,
      "క్టో": 6464,
      "ign_": 6465,
      "నియా": 6466,
      "10)": 6467,
      "▁వర్": 6468,
      "▁వారస": 6469,
      "irth": 6470,
      "▁1901": 6471,
      "▁जी": 6472,
      "al_T": 6473,
      "ల్వే": 6474,
      "content": 6475,
      "▁ele": 6476,
      "ालदीव": 6477,
      "pecially": 6478,
      "▁Games": 6479,
      "265": 6480,
      "267": 6481,
      "▁సరిహద్దు": 6482,
      "▁दशक": 6483,
      "▁మన": 6484,
      "▁మూ": 6485,
      "ेशन": 6486,
      "ेशिया": 6487,
      "▁H.": 6488,
      "▁only": 6489,
      "ండమా": 6490,
      "▁growth": 6491,
      "▁చిన్న": 6492,
      "archive\\_template": 6493,
      "_Act": 6494,
      "_Agency": 6495,
      "తాన": 6496,
      "ముఖ": 6497,
      "▁through": 6498,
      ".[[23": 6499,
      "▁near": 6500,
      "▁religion": 6501,
      "త్వం": 6502,
      "_of_India?action=edit&redlink=1": 6503,
      "archive.org/detail": 6504,
      "▁des": 6505,
      "▁(సా.శ.14": 6506,
      "166": 6507,
      "ులు,": 6508,
      "–సా.శ.17": 6509,
      "▁ప్రతి": 6510,
      "▁ప్రస్తు": 6511,
      "▁ప్రకారం": 6512,
      "▁ప్రముఖ": 6513,
      "क्षर": 6514,
      "a](https://en.wikipedia.org/wiki/G": 6515,
      "AAJ": 6516,
      "षाण": 6517,
      "▁Library": 6518,
      "ంచిన": 6519,
      "కుడు": 6520,
      "a_d": 6521,
      "a_Empire": 6522,
      "నుమ": 6523,
      "s](https://en.wikipedia.org/wiki/S": 6524,
      "ింది.\r\n": 6525,
      "▁\"Mughal": 6526,
      "▁రో": 6527,
      "▁రంగ": 6528,
      "▁రవాణా": 6529,
      "▁సాధించ": 6530,
      "ష్టు": 6531,
      "▁शक्ति": 6532,
      "▁शिक्षा": 6533,
      "ogn": 6534,
      "काश": 6535,
      "▁within": 6536,
      "law": 6537,
      "osphere": 6538,
      "▁Press,": 6539,
      "▁differ": 6540,
      "ంతో": 6541,
      "▁\"Template:": 6542,
      "▁తరువా": 6543,
      "పాలన": 6544,
      "ंडीगढ़": 6545,
      "▁लोग": 6546,
      "ం](https://te.wikipedia.org/wiki/భారతీయ": 6547,
      "గుర్": 6548,
      "నేషనల్": 6549,
      ",_కేంద్రపాలిత": 6550,
      "▁ప్రాంతం": 6551,
      "వందే": 6552,
      "1,93,": 6553,
      "▁రాజ్యం](https://te.wikipedia.org/wiki/": 6554,
      "▁क्षेत्रीय": 6555,
      "▁బా": 6556,
      "▁బహు": 6557,
      "▁బెంగ": 6558,
      "\")*\r\n": 6559,
      "▁पुरा": 6560,
      "ాల్లో": 6561,
      "orthographic": 6562,
      "जनसंख्या": 6563,
      "▁[International": 6564,
      "▁जनसंख्या": 6565,
      "శ్వా": 6566,
      "ారిటీ": 6567,
      "▁वर्ग": 6568,
      "▁ప్రాంతాలు\")": 6569,
      "గోళ": 6570,
      "-factbook": 6571,
      "1971": 6572,
      "ortal:": 6573,
      "బడిన": 6574,
      "ughal_": 6575,
      "▁population\"))": 6576,
      "_Lank": 6577,
      "▁especially": 6578,
      "▁ago": 6579,
      "handigarh": 6580,
      "తున్న": 6581,
      "న్నిక": 6582,
      "]](https://hi.wikipedia.org/wiki/भारत#cite_note-FOOTNOTEStein1998": 6583,
      "]](https://hi.wikipedia.org/wiki/भारत#cite_note-FOOTNOTESingh2009": 6584,
      "▁స్వాతంత్ర్య": 6585,
      "▁కాలంలో": 6586,
      "▁use": 6587,
      "▁\"Official": 6588,
      "Dyson2018),": 6589,
      "catal": 6590,
      "▁river": 6591,
      "c=0&": 6592,
      "ంపి": 6593,
      "బెంగాల్": 6594,
      "▁[Office": 6595,
      "ote:": 6596,
      "ెలవు": 6597,
      "▁capita\"))": 6598,
      "](https://te.wikipedia.org/wiki/భారతదేశంలో_": 6599,
      "मुख्य": 6600,
      "_projection": 6601,
      "▁Buddhist": 6602,
      "▁house\")": 6603,
      "%E0%A4%B": 6604,
      "▁groups": 6605,
      "▁स्थित": 6606,
      "▁అధికారిక": 6607,
      "Convert": 6608,
      "Human_Development_Index": 6609,
      "text": 6610,
      "▁2018](https://en.wikipedia.org/wiki/India#CITEREFDyson2018),": 6611,
      "ఆర్ధిక": 6612,
      "▁పట్టణ": 6613,
      "▁కాశ్మీరు": 6614,
      "▁Minorities": 6615,
      "ంగ్లీషు": 6616,
      "Pages\\_using\\_infobox\\_country\\_with\\_": 6617,
      "▁increased": 6618,
      "त्तराखण्ड": 6619,
      "](https://en.wikipedia.org/wiki/History_of_": 6620,
      "▁అయిన": 6621,
      "▁రెండు": 6622,
      "violence": 6623,
      "ాల్దీవులు": 6624,
      "Webarchive\\_template": 6625,
      "ట్రో": 6626,
      "ుల్తాన": 6627,
      "ouncil": 6628,
      "రాష్ట్రాలు,_కేంద్రపాలిత": 6629,
      "దినోత్సవం": 6630,
      ".net/": 6631,
      "▁వ్యాసం:": 6632,
      "▁अप्रैल": 6633,
      "हिमाचल": 6634,
      "-language\\_sources\\_(en)\r\n": 6635,
      "▁लेख:": 6636,
      "\\_of\\_": 6637,
      "ార్లమెంట": 6638,
      "▁शताब्दी": 6639,
      "▁./వర్గం:Wikipedia\\_articles\\_with\\_": 6640,
      "▁ఏర్ప": 6641,
      "hār": 6642,
      "▁Quote:": 6643,
      "▁product\")": 6644,
      "ZvaGuaJIJgoC&pg=PA": 6645,
      "ఆంధ్రప్రదేశ్": 6646,
      "లయాళ": 6647,
      "dicator": 6648,
      "the-world-factbook": 6649,
      "21,01,93,": 6650,
      "archive.org/details/": 6651,
      "orthographic_projection": 6652,
      "Pages\\_using\\_infobox\\_country\\_with\\_unknown\\_parameters#": 6653,
      "Webarchive\\_template\\_": 6654,
      "రాష్ట్రాలు,_కేంద్రపాలిత_ప్రాంత": 6655,
      "21,01,93,422": 6656,
      "\"](http://": 6657,
      ",24": 6658,
      ",85": 6659,
      ".c": 6660,
      ".t": 6661,
      "/hindi": 6662,
      "1.\r\n": 6663,
      "123": 6664,
      "1-3": 6665,
      "577": 6666,
      "6,": 6667,
      "72": 6668,
      "7]](https://en.wikipedia.org/wiki/India#cite_note-": 6669,
      "9/": 6670,
      "91": 6671,
      "9]](https://en.wikipedia.org/wiki/India#cite_note-": 6672,
      ":IN": 6673,
      ";[[": 6674,
      "Alig": 6675,
      "EX": 6676,
      "Ex": 6677,
      "Front": 6678,
      "_0": 6679,
      "_on": 6680,
      "_राज": 6681,
      "_18": 6682,
      "_2024": 6683,
      "ather": 6684,
      "ault": 6685,
      "baki": 6686,
      "che": 6687,
      "caste": 6688,
      "cbi": 6689,
      "dd": 6690,
      "each": 6691,
      "ethnologue": 6692,
      "gi": 6693,
      "hak": 6694,
      "hut": 6695,
      "ka": 6696,
      "kb": 6697,
      "khand": 6698,
      "ncbi": 6699,
      "ode": 6700,
      "rance": 6701,
      "s_in_India": 6702,
      "subcontinent": 6703,
      "tandard": 6704,
      "var": 6705,
      "vent": 6706,
      "को": 6707,
      "गत": 6708,
      "गू": 6709,
      "टा": 6710,
      "तृत": 6711,
      "म\")": 6712,
      "वल": 6713,
      "श्य": 6714,
      "षय": 6715,
      "हरा": 6716,
      "हित": 6717,
      "िनेमा": 6718,
      "ी.": 6719,
      "ृद्ध": 6720,
      "ेघ": 6721,
      "▁4.": 6722,
      "kil": 6723,
      "orship": 6724,
      "▁[ग": 6725,
      "▁[28": 6726,
      "ences": 6727,
      "▁\"तमिल": 6728,
      "inan": 6729,
      "inem": 6730,
      "indicator": 6731,
      "anad": 6732,
      "on,": 6733,
      "](https://en.wikipedia.org/wiki/World": 6734,
      "arl": 6735,
      "artition": 6736,
      "him": 6737,
      "](https://hi.wikipedia.org/wiki/ल": 6738,
      "and_Census_Commissioner": 6739,
      "▁(ed.).": 6740,
      "ricity": 6741,
      "](https://en.wikipedia.org/wiki/Indian": 6742,
      "lege": 6743,
      "▁India*.": 6744,
      "▁India\"](https://": 6745,
      "ed,": 6746,
      "ederal": 6747,
      "▁सक": 6748,
      "ately": 6749,
      "lima": 6750,
      "atri": 6751,
      "▁popul": 6752,
      "▁sur": 6753,
      "\\_p": 6754,
      "▁Chand": 6755,
      "▁All": 6756,
      "्यों": 6757,
      "▁States": 6758,
      "ango": 6759,
      "angam": 6760,
      "ichell": 6761,
      "▁17.": 6762,
      "umar": 6763,
      "url": 6764,
      "78.": 6765,
      "ull": 6766,
      "very": 6767,
      "ital": 6768,
      "stani": 6769,
      "▁work": 6770,
      "ourbaki": 6771,
      "▁Rothermund": 6772,
      "▁Muslim": 6773,
      "oln": 6774,
      "iland": 6775,
      "rest": 6776,
      "▁अव": 6777,
      "▁Dictionary": 6778,
      "▁By": 6779,
      "▁Bengali": 6780,
      "108": 6781,
      "50th": 6782,
      ".jpe": 6783,
      "University": 6784,
      "260": 6785,
      "▁hum": 6786,
      "ountain": 6787,
      "115": 6788,
      "_industry": 6789,
      "-415": 6790,
      "2221": 6791,
      "▁gen": 6792,
      "▁प्रेस": 6793,
      "▁प्रौद्योगिक": 6794,
      "्वतंत्रता": 6795,
      "ubram": 6796,
      "ritten": 6797,
      "ritsch": 6798,
      "▁International": 6799,
      "406]](https://en.wikipedia.org/wiki/India#cite_note-": 6800,
      "▁\"Cambridge": 6801,
      "▁व्य": 6802,
      "ndhra": 6803,
      "harkhand": 6804,
      "ott": 6805,
      "270": 6806,
      "▁Languages": 6807,
      "▁before": 6808,
      "▁[Cambridge": 6809,
      "▁[978-0-521": 6810,
      "▁original](http://": 6811,
      "▁original](http://www.": 6812,
      "▁[↑](https://en.wikipedia.org/wiki/India#cite_ref-FOOTNOTEStein2010": 6813,
      "353": 6814,
      "](https://en.wikipedia.org/wiki/South_Asian": 6815,
      "olitical": 6816,
      "▁संसद": 6817,
      "lative": 6818,
      "aith": 6819,
      "ियार": 6820,
      "_Mah": 6821,
      "](https://en.wikipedia.org/wiki/British": 6822,
      "arden": 6823,
      "48)": 6824,
      "▁लोक": 6825,
      "iley": 6826,
      "▁राज्य\")": 6827,
      "▁\"New": 6828,
      "aking": 6829,
      "akistani": 6830,
      "ureau": 6831,
      "▁range": 6832,
      "vention": 6833,
      "हाय": 6834,
      "परमाणु": 6835,
      "ोलन": 6836,
      "o-operation": 6837,
      "ambridge_University_Press": 6838,
      "on-Alig": 6839,
      "▁(2014).": 6840,
      "▁जाती": 6841,
      "▁राजवंश": 6842,
      "▁स्था": 6843,
      "▁स्थान": 6844,
      "aceu": 6845,
      "ज्ज": 6846,
      "▁vill": 6847,
      "▁coast": 6848,
      "▁coefficient": 6849,
      "oney": 6850,
      "data.worldbank.org/": 6851,
      "8/8": 6852,
      "▁2007](https://en.wikipedia.org/wiki/India#CITEREF": 6853,
      "1947)": 6854,
      ".png)\r\n": 6855,
      "-report": 6856,
      "▁प्राचीन": 6857,
      "▁1,210": 6858,
      "ollingham": 6859,
      "4/4": 6860,
      "▁था।": 6861,
      "▁धर्म\")": 6862,
      "▁2024.": 6863,
      ".nlm": 6864,
      "▁political": 6865,
      "ांग्लादेश": 6866,
      "attle": 6867,
      "▁[India](https://en.wikipedia.org/wiki/India": 6868,
      "▁\"Registrar": 6869,
      "olkata": 6870,
      "-largest-": 6871,
      "troduction": 6872,
      "tiger": 6873,
      "ilgrim": 6874,
      "langoff-1": 6875,
      "vatsyayan-lord-4": 6876,
      "vatsyayan-lord_43": 6877,
      "महाद्वीप": 6878,
      "cheduled": 6879,
      "▁\"हिन्दी\")": 6880,
      "▁including": 6881,
      "Hindustan": 6882,
      ".aspx?": 6883,
      "issile": 6884,
      "▁mi)": 6885,
      "▁medium": 6886,
      "owever,": 6887,
      "ublications/": 6888,
      "▁पहले": 6889,
      "harmaceu": 6890,
      "do-Pakistani": 6891,
      ".nih": 6892,
      "▁[हिन्दी](https://hi.wikipedia.org/wiki/हिन्दी": 6893,
      "arliest": 6894,
      "hmedabad": 6895,
      "parliamentofindia": 6896,
      "▁चुनावों": 6897,
      "kZVuDwAAQBAJ&pg=PA": 6898,
      "▁सैन्य": 6899,
      "▁Press](https://en.wikipedia.org/wiki/Cambridge_University_Press": 6900,
      "▁adopted": 6901,
      "gistrar_General_and_Census_Commissioner": 6902,
      "urasian": 6903,
      "ethnologue.com/": 6904,
      "hutan": 6905,
      "ncbi.nlm": 6906,
      "inancial": 6907,
      "406]](https://en.wikipedia.org/wiki/India#cite_note-vatsyayan-lord-4": 6908,
      "on-Aligned": 6909,
      "data.worldbank.org/indicator": 6910,
      "ncbi.nlm.nih": 6911,
      "%3": 6912,
      ",4": 6913,
      "-F": 6914,
      "-India": 6915,
      "-the": 6916,
      "-ex": 6917,
      ".ರ": 6918,
      "430": 6919,
      "5]](https://en.wikipedia.org/wiki/India#cite_note-": 6920,
      "5/5": 6921,
      "9–": 6922,
      "9]](https://en.wikipedia.org/wiki/India#cite_note-FOOTNOTE": 6923,
      "Col": 6924,
      "Chennai": 6925,
      "Collingham": 6926,
      "English": 6927,
      "F)": 6928,
      "Flag": 6929,
      "LD": 6930,
      "Language": 6931,
      "Monetary": 6932,
      "M50th": 6933,
      "NCL": 6934,
      "Pakistan": 6935,
      "Pradesh": 6936,
      "S$": 6937,
      "Sanskrit": 6938,
      "TO": 6939,
      "Template": 6940,
      "Tarlo": 6941,
      "Un": 6942,
      "_घ": 6943,
      "_द": 6944,
      "_ವ": 6945,
      "_14": 6946,
      "_వి": 6947,
      "_to": 6948,
      "_ಭಾರತದ_": 6949,
      "_ಸಾ": 6950,
      "_కాశ్మీ": 6951,
      "atp": 6952,
      "bate": 6953,
      "business": 6954,
      "bhasha": 6955,
      "c/": 6956,
      "d=": 6957,
      "gu": 6958,
      "ges": 6959,
      "jpg": 6960,
      "mit": 6961,
      "mill": 6962,
      "odia": 6963,
      "ren": 6964,
      "ral": 6965,
      "rune": 6966,
      "round": 6967,
      "tw": 6968,
      "yth": 6969,
      "yer": 6970,
      "zer": 6971,
      "āgar": 6972,
      "ंत": 6973,
      "अभि": 6974,
      "क्": 6975,
      "खन": 6976,
      "गान": 6977,
      "ग्व": 6978,
      "च्": 6979,
      "जं": 6980,
      "टान": 6981,
      "थिल": 6982,
      "दार": 6983,
      "फोर्ड": 6984,
      "ब्ल": 6985,
      "बेट": 6986,
      "भु": 6987,
      "मु": 6988,
      "यत": 6989,
      "यर": 6990,
      "रत": 6991,
      "लंग": 6992,
      "लयाल": 6993,
      "वास": 6994,
      "ेड": 6995,
      "ैंक": 6996,
      "ैथिल": 6997,
      "ॉल": 6998,
      "ॉंग्रेस": 6999,
      "ोस": 7000,
      "ौसेना": 7001,
      "१८": 7002,
      "२००": 7003,
      "ంస్కృ": 7004,
      "ఉత్తరా": 7005,
      "ఖో": 7006,
      "ఘాలయ": 7007,
      "చ్": 7008,
      "టై": 7009,
      "టర్": 7010,
      "డమ్": 7011,
      "డఖ్": 7012,
      "ణే": 7013,
      "ణంగా": 7014,
      "తే": 7015,
      "తెల": 7016,
      "దరంగ": 7017,
      "నో": 7018,
      "నంద": 7019,
      "బర్": 7020,
      "బార్": 7021,
      "యె": 7022,
      "రె": 7023,
      "లడఖ్": 7024,
      "ళా": 7025,
      "ళి": 7026,
      "శు": 7027,
      "హించ": 7028,
      "ుకు": 7029,
      "ెన్న": 7030,
      "ెట్రో": 7031,
      "ేతి": 7032,
      "ేఘాలయ": 7033,
      "ైనిక": 7034,
      "ొగలు": 7035,
      "ోళ": 7036,
      "ಂಕ": 7037,
      "ಂಖ": 7038,
      "ಂಚ": 7039,
      "ಂ\")\r\n": 7040,
      "ಂಕಾ": 7041,
      "ಅರು": 7042,
      "ಅಂಡ": 7043,
      "ಆಂಧ": 7044,
      "ಆರ್ಕ": 7045,
      "ಆಂಗ್ಲ": 7046,
      "ಇಂದಿ": 7047,
      "ಇತಿಹಾಸ": 7048,
      "ಇಸ್ಲಾ": 7049,
      "ಉರ್": 7050,
      "ಎನ್.": 7051,
      "ಒಡಿ": 7052,
      "ಒರಿಯಾ": 7053,
      "ಕೀ": 7054,
      "ಕೊಂಡಿ": 7055,
      "ಖನ್": 7056,
      "ಗ್ರಿ": 7057,
      "ಗಂಗಾ": 7058,
      "ಘಲ್": 7059,
      "ಘಾಲಯ": 7060,
      "ಚೇ": 7061,
      "ಛತ್ತ": 7062,
      "ಜ್": 7063,
      "ಞಾನ": 7064,
      "ಟಕ": 7065,
      "ಠಿ": 7066,
      "ಡಾ": 7067,
      "ಡೀ": 7068,
      "ಡೊ": 7069,
      "ಡೋ": 7070,
      "ತಾನ": 7071,
      "ತ್ವ": 7072,
      "ತ್ರಿ": 7073,
      "ತರಂ": 7074,
      "ತಟದ": 7075,
      "ತಾಂಶ": 7076,
      "ಥಮ": 7077,
      "ಥಾರ್": 7078,
      "ಥಿಲಿ": 7079,
      "ದ್ಯ": 7080,
      "ದೀಯ": 7081,
      "ದಖನ್": 7082,
      "ಧೀ": 7083,
      "ಧಂಖ": 7084,
      "ನ:": 7085,
      "ನು": 7086,
      "ನ\\_": 7087,
      "ಪ್ತ": 7088,
      "ಪದಿ": 7089,
      "ಪಟ್ಟ": 7090,
      "ಪಶ್ಚಿಮ": 7091,
      "ಬಾರ್": 7092,
      "ಭರತ": 7093,
      "ಮಾರ್": 7094,
      "ಮೇವ": 7095,
      "ಯಮು": 7096,
      "ಯತೆ": 7097,
      "ರದ": 7098,
      "ರ\")\r\n": 7099,
      "ರೆಯ": 7100,
      "ರಷ್ಯಾ": 7101,
      "ರೋಕ್": 7102,
      "ಲೇ": 7103,
      "ಲಾರ": 7104,
      "ಲಯಾ": 7105,
      "ಲಂಕಾ": 7106,
      "ಲಡಾ": 7107,
      "ಳಂ": 7108,
      "ಳಗ": 7109,
      "ಳೆಯ": 7110,
      "ಳುನಾ": 7111,
      "ವಂದ": 7112,
      "ವದೆಹಲಿ": 7113,
      "ಶ್ರೀ": 7114,
      "ಸಂತ": 7115,
      "ಸಭಾ": 7116,
      "ಸಾರ್ವತ್ರಿಕ": 7117,
      "ಸಲಾಗಿ": 7118,
      "ಹರಿಯಾ": 7119,
      "ಾಲಿ": 7120,
      "ಾಂಧ": 7121,
      "ಾಚಲ": 7122,
      "ಿನ": 7123,
      "ಿಹಾರ": 7124,
      "ಿಸಿದ": 7125,
      "ೀಗಢ": 7126,
      "ುಶ": 7127,
      "ು.\r\n": 7128,
      "ುಗು": 7129,
      "ೃಷ್": 7130,
      "ೆಂಗಾ": 7131,
      "ೆಂಗಳೂರು": 7132,
      "ೆರಿಕ": 7133,
      "ೇಘಾಲಯ": 7134,
      "ೈವ್": 7135,
      "ೈಥಿಲಿ": 7136,
      "ೊಂಕ": 7137,
      "ೊಘಲ್": 7138,
      "ೋಡೊ": 7139,
      "ೋಬಾರ್": 7140,
      "ೌರ್ಯ": 7141,
      "ೌಪದಿ": 7142,
      "್ಲೇ": 7143,
      "೦.": 7144,
      "೩೦": 7145,
      "‌ಡ": 7146,
      "‌కా": 7147,
      "‌ವೆ": 7148,
      "‌ಗಢ": 7149,
      "‌మహ": 7150,
      "▁°": 7151,
      "▁ఐ": 7152,
      "▁ఖ": 7153,
      "▁–సా.శ.": 7154,
      "▁భారతీయ": 7155,
      "▁eng": 7156,
      "▁ಭಾಷ": 7157,
      "▁old": 7158,
      "▁ದೆಹಲಿ": 7159,
      "▁ईसा": 7160,
      "▁ರಿಂದ": 7161,
      "▁kingdom": 7162,
      "orse": 7163,
      "▁[Y": 7164,
      "▁[n": 7165,
      "▁[ड": 7166,
      "▁[ल": 7167,
      "▁[ಚ": 7168,
      "▁[Re": 7169,
      "▁[రాష్ట్ర": 7170,
      "▁[ಪ್ರ": 7171,
      "▁[జన": 7172,
      "▁[గో": 7173,
      "▁[ವೇಬ್ಯಾಕ್": 7174,
      "▁[दक्षिण": 7175,
      "▁[ಜೈನ": 7176,
      "▁[पाकिस्तान": 7177,
      "▁[ಸಿಖ್": 7178,
      "▁[ಸಿಂಧೂ": 7179,
      "▁\"ಜ": 7180,
      "▁\"పా": 7181,
      "▁\"జన": 7182,
      "▁\"గో": 7183,
      "▁\"ವೇಬ್ಯಾಕ್": 7184,
      "▁\"दक्षिण": 7185,
      "▁\"మూస:": 7186,
      "▁\"ಜೈನ": 7187,
      "▁\"पाकिस्तान": 7188,
      "▁\"ಸಿಖ್": 7189,
      "▁\"ಸಿಂಧೂ": 7190,
      "▁\"ಸಂಸ್ಕೃತ": 7191,
      "▁\"ISO": 7192,
      "▁\"ಇಂಡ": 7193,
      "\")+": 7194,
      "\")ಯ": 7195,
      "ino-": 7196,
      "anat": 7197,
      "anchi": 7198,
      "tile": 7199,
      "ties/": 7200,
      "eri": 7201,
      "arth": 7202,
      "arsh": 7203,
      "202": 7204,
      "es.": 7205,
      "cip": 7206,
      "ofker": 7207,
      "omo": 7208,
      "](https://hi.wikipedia.org/wiki/न": 7209,
      "](https://hi.wikipedia.org/wiki/पाकिस्तान": 7210,
      "](https://te.wikipedia.org/wiki/B": 7211,
      "](https://te.wikipedia.org/wiki/G": 7212,
      "](https://te.wikipedia.org/wiki/భారతదేశ": 7213,
      "](https://te.wikipedia.org/wiki/గో": 7214,
      "](https://te.wikipedia.org/wiki/మూస:": 7215,
      "asthan": 7216,
      "ారస్వ": 7217,
      "भारत)": 7218,
      "▁साल": 7219,
      "aten": 7220,
      "acmill": 7221,
      "liance": 7222,
      "am,": 7223,
      "atna": 7224,
      "ataraj": 7225,
      "ets": 7226,
      "▁pan": 7227,
      "▁sty": 7228,
      "▁school": 7229,
      "▁script": 7230,
      "\\_in": 7231,
      "\\_ಟೆ": 7232,
      "\\_ಆರ್ಕ": 7233,
      "\\_ಕೊಂಡಿ": 7234,
      "ాలె": 7235,
      "▁can": 7236,
      "](https://kn.wikipedia.org/wiki/ಜ": 7237,
      "](https://kn.wikipedia.org/wiki/ವೇಬ್ಯಾಕ್": 7238,
      "](https://kn.wikipedia.org/wiki/ಜೈನ": 7239,
      "](https://kn.wikipedia.org/wiki/ಸಿಖ್": 7240,
      "](https://kn.wikipedia.org/wiki/ಸಿಂಧೂ": 7241,
      "](https://kn.wikipedia.org/wiki/ಸಂಸ್ಕೃತ": 7242,
      "ager": 7243,
      "▁मो": 7244,
      "▁मौ": 7245,
      "-1\").\r\n": 7246,
      "ಾರೆ.": 7247,
      "್ರಹ್ಮ": 7248,
      "ingap": 7249,
      "▁fe": 7250,
      "▁four": 7251,
      "▁fol": 7252,
      "▁Society": 7253,
      "▁Studies": 7254,
      "స్ట": 7255,
      "స్వాతంత్ర్య": 7256,
      "राम": 7257,
      "angered": 7258,
      "lock": 7259,
      "▁పర": 7260,
      "▁పండు": 7261,
      "urk": 7262,
      "urry": 7263,
      "▁man": 7264,
      "▁main": 7265,
      "fir": 7266,
      "field": 7267,
      "well": 7268,
      "_of_Congress": 7269,
      "heel": 7270,
      "ratic": 7271,
      "](https://hi.wikipedia.org/wiki/भारत_के": 7272,
      "FOOTNOTEWolpert2003": 7273,
      "FOOTNOTENational_Informatics_Centre2005": 7274,
      "uni": 7275,
      "▁would": 7276,
      "లు](https://te.wikipedia.org/wiki/": 7277,
      "▁Routledge": 7278,
      "▁Temple": 7279,
      "రాన్": 7280,
      "రాస్య": 7281,
      "▁Minister": 7282,
      "▁Machine": 7283,
      "▁కే": 7284,
      "▁కోర్": 7285,
      "age.": 7286,
      "ರ್ನಾ": 7287,
      "ಲಿನ": 7288,
      "ಲಿತಾಂಶ": 7289,
      "▁B.": 7290,
      "▁B.;": 7291,
      "త్రిక": 7292,
      "235": 7293,
      "క్స్": 7294,
      "క్కి": 7295,
      "▁ಮೇ": 7296,
      "▁ಮಂತ್ರಿ": 7297,
      "103": 7298,
      "▁వె": 7299,
      "▁వంట": 7300,
      "▁1962": 7301,
      "▁1971": 7302,
      "▁\"Sanskrit": 7303,
      "▁lists": 7304,
      "aylight": 7305,
      "▁*India": 7306,
      "▁*ಮುಖ್ಯ": 7307,
      "▁ಪರಿ": 7308,
      "▁ಪಟ್ಟ": 7309,
      "_की_": 7310,
      "ంగో": 7311,
      "▁Greek": 7312,
      "269,": 7313,
      "bert": 7314,
      "▁సముద్ర": 7315,
      "▁సూచ": 7316,
      "▁సౌక": 7317,
      "▁N.": 7318,
      "▁Nicobar": 7319,
      "్రామ": 7320,
      "287,": 7321,
      "ರಾಖಂಡ": 7322,
      "ರಾಠಿ": 7323,
      "▁Health": 7324,
      "_in_New": 7325,
      "-459": 7326,
      "ండా": 7327,
      "ండీ": 7328,
      "ండ్య": 7329,
      "22)": 7330,
      "former": 7331,
      "ngineering": 7332,
      "ಭಾರತದಲ್ಲಿ": 7333,
      "▁भारत\")": 7334,
      "▁ge": 7335,
      "▁growing": 7336,
      "abha": 7337,
      "_Ar": 7338,
      "_A7C": 7339,
      "aph": 7340,
      "తాజ్": 7341,
      "▁third": 7342,
      "నాథ": 7343,
      ".[[4": 7344,
      "▁[\"World": 7345,
      "▁relations": 7346,
      "1991": 7347,
      "త్వా": 7348,
      "▁dynasty": 7349,
      "▁[SAARC": 7350,
      "▁(సా.శ.16": 7351,
      "ులు?action=edit&redlink=1": 7352,
      "–సా.శ.19": 7353,
      "ಲ್ಲಿ.\r\n": 7354,
      "▁అభి": 7355,
      "ಕ್ಸ್": 7356,
      "▁\"Chin": 7357,
      "▁ಕಾಲ": 7358,
      "▁ప్రజా": 7359,
      "▁Organization": 7360,
      "తం?action=edit&redlink=1": 7361,
      "▁ನ್ಯಾ": 7362,
      "▁ನಡೆ": 7363,
      "▁ನಾಲ್": 7364,
      "▁ನಲ್ಲಿ.\r\n": 7365,
      "ರಿ](https://kn.wikipedia.org/wiki/": 7366,
      "ರಿಕೆ": 7367,
      "▁आर्थिक": 7368,
      "27.": 7369,
      "పూర్": 7370,
      "▁[Ch": 7371,
      "▁ಬಂಗಾಳ": 7372,
      "▁ಬಳಗ": 7373,
      "ప్రిల్": 7374,
      "▁[978-81": 7375,
      "ದೇಶಿಕ": 7376,
      "hailand": 7377,
      "▁ఉంట": 7378,
      "▁ఉత్తర": 7379,
      "▁Univers": 7380,
      "](https://books.google.com/books?id=3TRtDwAAQBAJ&pg=PA": 7381,
      "ರುಭೂಮಿ": 7382,
      "▁dem": 7383,
      "▁deci": 7384,
      "ternet": 7385,
      "ಾಗಾಲ": 7386,
      "35.": 7387,
      "ड़ियाँ": 7388,
      "▁సామా": 7389,
      "వాద": 7390,
      "▁उन": 7391,
      "ಿಕೆ": 7392,
      "ಿಕೋಬಾರ್": 7393,
      "2011religion": 7394,
      "_and_union_territ": 7395,
      "విధ": 7396,
      "ార్ఖండ్": 7397,
      "క్షరాస్య": 7398,
      "ಂಡಲ": 7399,
      "ಂಡ್": 7400,
      "ಂಡಿಯಾ": 7401,
      "ಂಡೀಗಢ": 7402,
      "▁\"Special:BookSources/978-81": 7403,
      "](Special:BookSources/978-81": 7404,
      "olicy": 7405,
      "ogri": 7406,
      "-53": 7407,
      "ಸಿತ": 7408,
      "ಸಿಕ್ಕಿ": 7409,
      "काता": 7410,
      "](https://en.wikipedia.org/wiki/Ch": 7411,
      "್ಯಾಂಡ್": 7412,
      "▁इंडिया": 7413,
      "ismatch": 7414,
      "▁now": 7415,
      "ी](https://hi.wikipedia.org/wiki/द": 7416,
      "](https://en.wikipedia.org/wiki/Mughal_": 7417,
      "_March": 7418,
      "పుర": 7419,
      "ಜನಗಣತಿ": 7420,
      "ೆಯಲ್ಲಿ": 7421,
      "ೆಯನ್ನು": 7422,
      "ೆಯಿತು.": 7423,
      "▁నడి": 7424,
      "▁ఇండియా": 7425,
      "▁areas": 7426,
      "ंडोन": 7427,
      "ರ್ಮು": 7428,
      "ರ್ಮದಾ": 7429,
      "ಸ್ತಭೂಮಿ": 7430,
      "33-7": 7431,
      "ameez": 7432,
      "ambodia": 7433,
      "▁राज्यक्षेत्र": 7434,
      "%2C_India": 7435,
      "ಿಯು": 7436,
      "ಿಯನ್": 7437,
      "▁Ved": 7438,
      "▁विस्त": 7439,
      "▁विदेश": 7440,
      "గుప్": 7441,
      "డుకు": 7442,
      "నేషియా": 7443,
      "▁ಇಂಡಿಯಾ": 7444,
      "್ರಿಕ್ಸ್": 7445,
      "articles/": 7446,
      "censusindia": 7447,
      "▁[![The": 7448,
      "clar": 7449,
      "ವಿಡ": 7450,
      "ವಿ.ರ": 7451,
      "▁ಸಂಖ್ಯ": 7452,
      "▁ಸಂಘಟನೆ": 7453,
      "ంగాణ": 7454,
      "49-2": 7455,
      "▁జన": 7456,
      "లియా": 7457,
      "_power": 7458,
      "eccan": 7459,
      "▁ప్రాచ": 7460,
      "▁విభ": 7461,
      "▁వివిధ": 7462,
      "ंग्रेजी": 7463,
      "ोलकाता": 7464,
      "ports": 7465,
      "ವರ್ಷ": 7466,
      "▁సంఘ": 7467,
      "ंध्र": 7468,
      "_Goa": 7469,
      "ಮುಸ್ಲಿಮ್": 7470,
      "▁ಭಾರತಕ್ಕೆ": 7471,
      "▁अन्त": 7472,
      "▁like": 7473,
      "▁क्षेत्रों": 7474,
      "feb": 7475,
      "ండిచ్చేరి": 7476,
      "तेलंग": 7477,
      "ವೇದ": 7478,
      "ವೇಲಿ": 7479,
      "▁नेतृत": 7480,
      "_River": 7481,
      "amese": 7482,
      "ody": 7483,
      "केन्द्र": 7484,
      "ಗಣತಂತ್ರ": 7485,
      "▁ದ್ವೀಪ": 7486,
      "▁ದಕ್ಷಿಣ": 7487,
      "Asher2006": 7488,
      "AsherAsher2006": 7489,
      "▁\"अंग्रेज़ी": 7490,
      "ಟಿನ\\_": 7491,
      "▁ಎಂದು": 7492,
      "▁ಸಾಲಿನ": 7493,
      "▁led": 7494,
      "▁lead": 7495,
      "▁[Kulke": 7496,
      "_128": 7497,
      "జీరియా": 7498,
      "▁ಚಳುವಳಿ": 7499,
      "▁./ವರ್ಗ:ವೆ": 7500,
      "do-G": 7501,
      "_Force": 7502,
      "_ಮೆಷಿನ್": 7503,
      "ంకేతి": 7504,
      "ಪಾಕಿಸ್ತಾನ": 7505,
      "▁देश\")": 7506,
      "ಂಗ್‌ಡ": 7507,
      "▁contin": 7508,
      "▁contrib": 7509,
      "▁जनवरी": 7510,
      "వేలీ": 7511,
      "national-language": 7512,
      "हरिया": 7513,
      "ूर्वी": 7514,
      "ದುಚೇ": 7515,
      "ಾಲರ್‌": 7516,
      "▁ಉತ್ತ": 7517,
      "▁ಉತ್": 7518,
      "▁ಭಾಷೆ\")•": 7519,
      "alaysia": 7520,
      "ಾರ್ಖಂಡ": 7521,
      "ಸ್ತಾನಗಳ": 7522,
      "DwAAQBAJ": 7523,
      "umbered": 7524,
      "पुरम": 7525,
      "ವಾಗಿದೆ.": 7526,
      "▁मेला\"),": 7527,
      "▁2022.": 7528,
      "ंग्रेज़ी_भाषा": 7529,
      "ಕಾವೇ": 7530,
      "ಕಾಮನ್": 7531,
      "ಪುತ್ರ": 7532,
      "ಪುದುಚೇ": 7533,
      "ಯುನೈ": 7534,
      "ವೆಂದರೆ": 7535,
      "–సా.శ.పూ.3": 7536,
      "िशा": 7537,
      "ological": 7538,
      "బియా": 7539,
      "ukesh": 7540,
      "ದಾಯ": 7541,
      "ದಾದ್ರಾ": 7542,
      "ದಾವರಿ": 7543,
      "ೈನ್ಯ": 7544,
      "ೊಂದಿಗೆ": 7545,
      "▁ಲೋಕ": 7546,
      "▁ಲೇಖ": 7547,
      "ಂಗಾಣ": 7548,
      "ynth": 7549,
      "డామన్": 7550,
      "▁రాష్ట్రపతి": 7551,
      "ಗುಪ್ತ": 7552,
      "ಯಾಧೀ": 7553,
      "▁२०१": 7554,
      "▁agriculture": 7555,
      "త్రిపుర": 7556,
      "_కాల": 7557,
      "समिया": 7558,
      "▁change": 7559,
      "athematics": 7560,
      "hattis": 7561,
      "ographical": 7562,
      "ಟೆಡ್": 7563,
      "ಭೂಗೋಳ": 7564,
      "ಭೂತಾನ": 7565,
      "▁రైల్వే": 7566,
      "ಸಿಂಧಿ": 7567,
      "ವೇಬ್ಯಾಕ್\\_ಕೊಂಡಿ": 7568,
      "ज्ञाप": 7569,
      "య్యూ": 7570,
      "▁Pradesh\")": 7571,
      "न्नई": 7572,
      "త్తీస్": 7573,
      "▁ప్రదేశ్](https://te.wikipedia.org/wiki/": 7574,
      "▁[Archived](https://web.archive.org/web/20210": 7575,
      "बंधन": 7576,
      "indhi": 7577,
      "urrency": 7578,
      "నాగాలా": 7579,
      "▁पुरालेखित।,": 7580,
      "▁[UTC": 7581,
      "▁\"జమ్మూ": 7582,
      "▁Chinese": 7583,
      ".gov.in/)\r\n": 7584,
      "ಕ್ತಿಯ": 7585,
      "ಗೋವಾ": 7586,
      "ಗೋದಾವರಿ": 7587,
      "ಧ್ಯಪ್ರದೇಶ": 7588,
      "ೀಪ್": 7589,
      "–123": 7590,
      "▁[ಬೌದ್ಧ": 7591,
      "▁\"ಬೌದ್ಧ": 7592,
      "](https://kn.wikipedia.org/wiki/ಬೌದ್ಧ": 7593,
      "▁పాకిస్తాన్": 7594,
      "▁These": 7595,
      "▁subcontinent\")": 7596,
      "▁ಕೋಟಿ)": 7597,
      "కోవ": 7598,
      "కోబార్": 7599,
      "](https://te.wikipedia.org/wiki/జమ్మూ": 7600,
      "ల్లవ": 7601,
      "▁2020.": 7602,
      ",977": 7603,
      "rishna": 7604,
      "ಗ್ರಾಮ": 7605,
      "ಣಾಚಲ": 7606,
      "ಮ್ಮು": 7607,
      "▁मानसून": 7608,
      "▁ಹೋದ": 7609,
      "▁ಹೋಲಿ": 7610,
      "▁ಹೆಸರಿ": 7611,
      "ಸಂಸ್ಕೃತ](https://kn.wikipedia.org/wiki/ಸಂಸ್ಕೃತ": 7612,
      "_Organisation": 7613,
      "_और_संघ": 7614,
      "nergy": 7615,
      "▁capita": 7616,
      "local_": 7617,
      "loc.gov/": 7618,
      "▁Force": 7619,
      "▁युग": 7620,
      "रक्षा": 7621,
      "वादी": 7622,
      "ಬ್\\_ಆರ್ಕ": 7623,
      "▁species": 7624,
      "ರಾಜಸ್ಥಾನ": 7625,
      "▁ಸಾಮ್ರಾಜ್ಯ\")": 7626,
      "▁ಜನಸಂಖ್ಯೆಯನ್ನು": 7627,
      "▁स्वतंत्रता": 7628,
      "_के_आधार_पर_भारत_के_राज्यों_की_सूची": 7629,
      "రేబియా": 7630,
      "f/f": 7631,
      "▁2025.": 7632,
      "టాక్": 7633,
      "ಯನ್ಮಾರ್": 7634,
      "ಾಲ್ಡೀ": 7635,
      "▁rock": 7636,
      "▁People": 7637,
      "▁ಸುಮಾರು": 7638,
      "▁ಮಾಹಿ": 7639,
      "▁మాత్ర": 7640,
      "▁ಸಂಪತ್ತು": 7641,
      "ದ್ದು.": 7642,
      "▁ರೂ.": 7643,
      "▁ರೂಪಾಯಿ": 7644,
      "్రిటిష్": 7645,
      "▁ಬೆಳವಣಿಗೆ": 7646,
      "evanāgar": 7647,
      "चेन्नई": 7648,
      "▁6.6": 7649,
      "▁बहुत": 7650,
      "2nd](https://kn.wikipedia.org/wiki/": 7651,
      "_from": 7652,
      "వెను": 7653,
      "ూచి": 7654,
      "sites/": 7655,
      "భారతదేశ_రాష్ట్రాలు,_కేంద్రపాలిత_ప్రాంత": 7656,
      "%E0%B0%": 7657,
      "%E0%B2%": 7658,
      "पीठ": 7659,
      "_of_South_Asia": 7660,
      "chedule": 7661,
      "documents/": 7662,
      "_ಚುನಾವಣೆ": 7663,
      "ಉತ್ತರ": 7664,
      "ಉತ್ತರಾಖಂಡ": 7665,
      "ತಮಿಳು": 7666,
      "ತಮಿಳುನಾ": 7667,
      "ದ್ರಾವಿಡ": 7668,
      "ರ್ಯನ್": 7669,
      "ವ್ಸ್": 7670,
      "ಹಿಮಾಲಯ": 7671,
      "ಹಿಮಾಚಲ": 7672,
      "▁ಮೆಷಿನ್\")": 7673,
      "▁ಮೆಷಿನ್](https://kn.wikipedia.org/wiki/ವೇಬ್ಯಾಕ್": 7674,
      "ನೇಪಾಳ": 7675,
      "ನೇಪಾಳಿ": 7676,
      "ಮುಂಬೈ": 7677,
      "ಮುಂಬಯಿ": 7678,
      "...]": 7679,
      "ಣಿಪುರಿ": 7680,
      "ప్పటిక": 7681,
      "೨೦೦೯ರ": 7682,
      "ತೆಲುಗು": 7683,
      "ತೆಲಂಗಾಣ": 7684,
      "ಗುಜರಾತಿ": 7685,
      "ಗುಜರಾತ್": 7686,
      "ಪಂಜಾಬ್": 7687,
      "ಪಂಜಾಬಿ": 7688,
      "ಅಸ್ಸಾಮಿ": 7689,
      "india.gov.in/knowindia/national_": 7690,
      ".htm)": 7691,
      "culpture": 7692,
      "▁emerg": 7693,
      "▁(1,269,": 7694,
      "al_in_March": 7695,
      "/articleshow/5": 7696,
      "business/india-": 7697,
      "లేషియా": 7698,
      "ominion": 7699,
      "▁majority": 7700,
      "merican": 7701,
      "▁మొదల": 7702,
      "Spear199024": 7703,
      "Taj_Mah": 7704,
      "क्सफोर्ड": 7705,
      "ternational_Monetary": 7706,
      "▁निर्माण": 7707,
      "▁occup": 7708,
      "Report.pdf)": 7709,
      "Sharma2007": 7710,
      "ద్యు": 7711,
      "ಂಪ್ಲೇ": 7712,
      "ಧಿಪತಿ": 7713,
      "▁ಗಣರಾಜ್ಯದ": 7714,
      "त्रिपुरा": 7715,
      "▁చిత్ర": 7716,
      "▁ಕ್ರಿ.ಪ": 7717,
      "ద్వీప్": 7718,
      "▁ఉపఖండ": 7719,
      "ಸಂಸದೀಯ": 7720,
      "▁దేశంలోని": 7721,
      "entral_In": 7722,
      "▁కాంగ్రెసు": 7723,
      "ಹಾರಾಷ್ಟ್ರ": 7724,
      "▁ಮೊದಲ": 7725,
      "](https://kn.wikipedia.org/wiki/ಚಿತ್ರ:India": 7726,
      "ఆగష్టు": 7727,
      "లక్షద్వీప్": 7728,
      "హాయం:": 7729,
      "ీకరణ": 7730,
      "ోల్‌కా": 7731,
      "మిజోరా": 7732,
      "तेलुगू": 7733,
      "cia.gov/the-world-factbook": 7734,
      "lurton1993": 7735,
      "ravidian": 7736,
      "▁3,287,": 7737,
      "भीमबेट": 7738,
      "▁employed": 7739,
      "झारखंड": 7740,
      "ర్యానా": 7741,
      "ಂಭಿಸಿದ": 7742,
      "ಗದೀಪ್": 7743,
      "ದ್ರೌಪದಿ": 7744,
      "ಲಕ್ಷದ್ವೀಪ": 7745,
      "ಸತ್ಯಮೇವ": 7746,
      "ೀಸ್‌ಗಢ": 7747,
      "ೇರಳ": 7748,
      "ೊಳ್": 7749,
      "▁ಏರಿಕೆ": 7750,
      "▁ಡಾಲರ್‌": 7751,
      "▁[ఢిల్లీ](https://te.wikipedia.org/wiki/ఢిల్లీ": 7752,
      "razil": 7753,
      "▁ಮೂರನೇ": 7754,
      "▁ಅಮೆರಿಕ": 7755,
      "టిబెట్": 7756,
      "ಮಿಝೋರಂ": 7757,
      "▁ಉಗಮ": 7758,
      "మెరికా": 7759,
      "▁ಬ್ರಿಟಿಷ್": 7760,
      "▁ಕೆಲವೆಂದರೆ": 7761,
      "▁ಆರಂಭವಾಗಿ": 7762,
      "nclm.nic.in/shared/linkimages/NCL": 7763,
      "Census2011religion": 7764,
      "छत्तीसगढ़": 7765,
      "िंधु": 7766,
      "▁मुख्य": 7767,
      "lothing": 7768,
      "ब्बत": 7769,
      "▁widely": 7770,
      "▁[अंग्रेज़ी](https://hi.wikipedia.org/wiki/अंग्रेज़ी_भाषा": 7771,
      "Home_Affairs": 7772,
      "IFT": 7773,
      "బడ్డీ": 7774,
      "ేరళ": 7775,
      "▁ओर": 7776,
      "reedom": 7777,
      "▁कुछ": 7778,
      "్రైస్త": 7779,
      "ండమాన్": 7780,
      "ognised": 7781,
      "_Lanka": 7782,
      "ెలవుదిన": 7783,
      "olnar": 7784,
      "M50thReport.pdf)": 7785,
      "Tarlo1996": 7786,
      "_ಸಾಮ್ರಾಜ್ಯ": 7787,
      "runei": 7788,
      "अभिज्ञाप": 7789,
      "च्छ": 7790,
      "తెలంగాణ": 7791,
      "ెన్నై": 7792,
      "ಅರುಣಾಚಲ": 7793,
      "ಅಂಡಮಾನ್": 7794,
      "ಆಂಧ್ರ": 7795,
      "ಇಂದಿರಾ": 7796,
      "ಉರ್ದು": 7797,
      "ಎನ್.ವಿ.ರ": 7798,
      "ಒಡಿಶಾ": 7799,
      "ಕೀಸ್ತಾನಗಳ": 7800,
      "ಛತ್ತೀಸ್‌ಗಢ": 7801,
      "ಜ್ಞಾನ": 7802,
      "ಡೋಗ್ರಿ": 7803,
      "ತ್ರಿಪು": 7804,
      "ಧಂಖರ್": 7805,
      "ಭರತವರ್ಷ": 7806,
      "ಯಮುನಾ": 7807,
      "ಲಾರಂಭಿಸಿದ": 7808,
      "ಲಯಾಳಂ": 7809,
      "ಲಡಾಖ್": 7810,
      "ವಂದೇ": 7811,
      "ಶ್ರೀಲಂಕಾ": 7812,
      "ಸಂತಾಲಿ": 7813,
      "ಹರಿಯಾಣ": 7814,
      "ಾಂಧಿ": 7815,
      "ೃಷ್ಣಾ": 7816,
      "ೆಂಗಾಲಿ": 7817,
      "ೈವ್\\_ಟೆ": 7818,
      "ೊಂಕಣಿ": 7819,
      "‌ವೆಲ್ತ್‌": 7820,
      "‌మహల్": 7821,
      "▁ಭಾಷಾ": 7822,
      "acmillan": 7823,
      "್ರಹ್ಮಪುತ್ರ": 7824,
      "ingapore": 7825,
      "ರ್ನಾಟಕ": 7826,
      "▁ಪಟ್ಟಿಯಲ್ಲಿ": 7827,
      "_in_New_Delhi": 7828,
      "తాజ్‌మహల్": 7829,
      "▁ನಾಲ್ಕ": 7830,
      "▁Universal": 7831,
      "ಾಗಾಲ್ಯಾಂಡ್": 7832,
      "_and_union_territories": 7833,
      "క్షరాస్యత": 7834,
      "तेलंगाना": 7835,
      "ಟಿನ\\_ವೇಬ್ಯಾಕ್\\_ಕೊಂಡಿ": 7836,
      "▁./ವರ್ಗ:ವೆಬ್\\_ಆರ್ಕ": 7837,
      "ಾರ್ಖಂಡ್": 7838,
      "ಕಾಮನ್‌ವೆಲ್ತ್‌": 7839,
      "ಯುನೈಟೆಡ್": 7840,
      "▁ಲೇಖನ:": 7841,
      "ಯಾಧೀಶ": 7842,
      "నాగాలాండ్": 7843,
      "](https://te.wikipedia.org/wiki/జమ్మూ_కాశ్మీ": 7844,
      "ಾಲ್ಡೀವ್ಸ್": 7845,
      "▁ಮಾಹಿತಿ": 7846,
      "evanāgarī": 7847,
      "ತಮಿಳುನಾಡು": 7848,
      "▁ಮೆಷಿನ್](https://kn.wikipedia.org/wiki/ವೇಬ್ಯಾಕ್_ಮೆಷಿನ್": 7849,
      "al_in_March_2004": 7850,
      "Taj_Mahal_in_March_2004": 7851,
      "ternational_Monetary_Fund": 7852,
      "ಂಪ್ಲೇಟಿನ\\_ವೇಬ್ಯಾಕ್\\_ಕೊಂಡಿ": 7853,
      "▁ಕ್ರಿ.ಪೂ": 7854,
      "ోల్‌కాతా": 7855,
      "भीमबेटका": 7856,
      "nclm.nic.in/shared/linkimages/NCLM50thReport.pdf)": 7857,
      "अभिज्ञापक": 7858,
      "ಎನ್.ವಿ.ರಮಣ": 7859,
      "ೈವ್\\_ಟೆಂಪ್ಲೇಟಿನ\\_ವೇಬ್ಯಾಕ್\\_ಕೊಂಡಿ": 7860,
      "▁./ವರ್ಗ:ವೆಬ್\\_ಆರ್ಕೈವ್\\_ಟೆಂಪ್ಲೇಟಿನ\\_ವೇಬ್ಯಾಕ್\\_ಕೊಂಡಿ": 7861,
      "▁./ವರ್ಗ:ವೆಬ್\\_ಆರ್ಕೈವ್\\_ಟೆಂಪ್ಲೇಟಿನ\\_ವೇಬ್ಯಾಕ್\\_ಕೊಂಡಿಗಳು\r\n": 7862,
      "\"](https://web.archive.org/web/20": 7863,
      ",_India": 7864,
      ",PPP": 7865,
      "-w": 7866,
      "-no": 7867,
      "-II": 7868,
      "-logo": 7869,
      ".**": 7870,
      ".und": 7871,
      ".edu": 7872,
      "0/0": 7873,
      "1]](https://en.wikipedia.org/wiki/India#cite_note-": 7874,
      "122": 7875,
      "2),": 7876,
      "226": 7877,
      "418": 7878,
      "5-3": 7879,
      "58)": 7880,
      "6.\r\n": 7881,
      "6)\r\n": 7882,
      "7-8": 7883,
      "96": 7884,
      "97": 7885,
      "AD": 7886,
      "Al": 7887,
      "Allchin": 7888,
      "Countries": 7889,
      "Constituent": 7890,
      "EN": 7891,
      "Forest": 7892,
      "Jha": 7893,
      "Mumbai": 7894,
      "Petraglia": 7895,
      "Ram": 7896,
      "States": 7897,
      "Th": 7898,
      "Wright": 7899,
      "\\*": 7900,
      "_इ": 7901,
      "_श": 7902,
      "_धर्म": 7903,
      "aci": 7904,
      "cu": 7905,
      "cet": 7906,
      "dy": 7907,
      "eag": 7908,
      "g)": 7909,
      "gad": 7910,
      "ij": 7911,
      "ix": 7912,
      "ield": 7913,
      "janta": 7914,
      "lation": 7915,
      "men": 7916,
      "mall": 7917,
      "tou": 7918,
      "tation": 7919,
      "tain": 7920,
      "u,": 7921,
      "ui": 7922,
      "uries": 7923,
      "vil": 7924,
      "ँची": 7925,
      "अंग्रेज़ी": 7926,
      "उप": 7927,
      "एन": 7928,
      "गलु": 7929,
      "टना": 7930,
      "तन": 7931,
      "द्वार": 7932,
      "पार": 7933,
      "भग": 7934,
      "मरी": 7935,
      "रि": 7936,
      "स्व": 7937,
      "ेद": 7938,
      "ेल": 7939,
      "ोला": 7940,
      "▁औ": 7941,
      "▁ve": 7942,
      "▁भा": 7943,
      "▁versi": 7944,
      "▁40": 7945,
      "▁7.": 7946,
      "▁ले": 7947,
      "▁ob": 7948,
      "▁known": 7949,
      "▁भाग": 7950,
      "dira": 7951,
      "digen": 7952,
      "direct": 7953,
      "orb": 7954,
      "orm": 7955,
      "](https://id": 7956,
      ".org/s": 7957,
      "▁[य": 7958,
      "▁[ह": 7959,
      "▁[Hindi": 7960,
      "te,": 7961,
      "enj": 7962,
      "enter": 7963,
      "▁\"य": 7964,
      "in-": 7965,
      "onk": 7966,
      "tification": 7967,
      "alace": 7968,
      "alk:": 7969,
      "arity": 7970,
      "ester": 7971,
      "reen": 7972,
      "official": 7973,
      "the\\_": 7974,
      "](https://hi.wikipedia.org/wiki/दक्षिण": 7975,
      "](https://hi.wikipedia.org/wiki/तमिल": 7976,
      "▁काल": 7977,
      "▁कॉंग्रेस": 7978,
      "anda": 7979,
      "▁(b": 7980,
      "▁(2007": 7981,
      "▁(India)": 7982,
      "riy": 7983,
      "rian": 7984,
      "ries/": 7985,
      "्रय": 7986,
      "asht": 7987,
      "2013": 7988,
      "भारतीय": 7989,
      "▁India](https://en.wikipedia.org/wiki/S": 7990,
      "▁India\").[[": 7991,
      "▁सभा": 7992,
      "▁सित": 7993,
      "▁समाज": 7994,
      "▁inter": 7995,
      "▁independence": 7996,
      "**,": 7997,
      "acred": 7998,
      "sider": 7999,
      "etwork": 8000,
      "▁prac": 8001,
      "-03": 8002,
      "-0\").\r\n": 8003,
      "\\_Wiki": 8004,
      "▁cal": 8005,
      "▁cre": 8006,
      "▁मई": 8007,
      "▁मन": 8008,
      "▁मह": 8009,
      "▁मिल": 8010,
      "▁मशीन": 8011,
      "-138": 8012,
      "▁based": 8013,
      "▁buil": 8014,
      "lose": 8015,
      "▁116": 8016,
      "▁talk:": 8017,
      "\"),[": 8018,
      "▁men": 8019,
      "▁milk": 8020,
      "▁military": 8021,
      "▁millennium": 8022,
      "ेंगलु": 8023,
      "compar": 8024,
      "roco": 8025,
      "itation": 8026,
      "र्ध": 8027,
      "](https://hi.wikipedia.org/wiki/भारत_के_राज्य": 8028,
      "▁[↑](https://en.wikipedia.org/wiki/India#cite_": 8029,
      "links\r\n": 8030,
      "्तु": 8031,
      "▁Ram": 8032,
      "▁Rec": 8033,
      "▁Te": 8034,
      "▁Trade": 8035,
      "](https://en.wikipedia.org/wiki/India#cite_ref-vatsyayan-lord_43": 8036,
      "▁Michael": 8037,
      "▁26.": 8038,
      "▁25.": 8039,
      "india.com/": 8040,
      "ilbert": 8041,
      "▁में,": 8042,
      "▁अभ": 8043,
      "▁Dance": 8044,
      "oung": 8045,
      "23%": 8046,
      "igration": 8047,
      "_(भारत)": 8048,
      "▁19.": 8049,
      "▁\"Special:EditPage/Template:": 8050,
      "▁last": 8051,
      "▁जब": 8052,
      "▁जय": 8053,
      "lymp": 8054,
      "▁[↑](https://en.wikipedia.org/wiki/India#cite_ref-3": 8055,
      "▁[↑](https://en.wikipedia.org/wiki/India#cite_ref-4": 8056,
      "▁east": 8057,
      "▁Economy": 8058,
      "▁Emer": 8059,
      "▁Ganges": 8060,
      "▁Gujarat": 8061,
      "beral": 8062,
      "opland": 8063,
      "▁द्वीप": 8064,
      "ountries/": 8065,
      "aryana": 8066,
      "-4\").\r\n": 8067,
      "forge": 8068,
      "▁gar": 8069,
      "▁नव": 8070,
      "ablish": 8071,
      "▁2007.": 8072,
      "1857": 8073,
      "▁Franci": 8074,
      "tual": 8075,
      "akers": 8076,
      "▁names": 8077,
      "▁reg": 8078,
      "_से": 8079,
      "_साम": 8080,
      "](https://en.wikipedia.org/wiki/India#CITEREFM": 8081,
      "ell": 8082,
      "1999": 8083,
      "▁[Singh": 8084,
      "168": 8085,
      "29.": 8086,
      "40px-": 8087,
      "▁\"Climate": 8088,
      "▁\"Coordinated": 8089,
      "▁व्या": 8090,
      "▁Out": 8091,
      "a](https://en.wikipedia.org/wiki/M": 8092,
      "otto": 8093,
      "▁become": 8094,
      "a_M": 8095,
      "s](https://en.wikipedia.org/wiki/B": 8096,
      "s](https://en.wikipedia.org/wiki/C": 8097,
      "▁31": 8098,
      "▁\"Ministry": 8099,
      "▁originally": 8100,
      ")[[3": 8101,
      "anathan": 8102,
      "rchitecture": 8103,
      "](Special:EditPage/Template:": 8104,
      "▁गई": 8105,
      "ड़िया": 8106,
      "▁[Mughal": 8107,
      "▁शहर": 8108,
      "▁\"Special:BookSources/978-0-521": 8109,
      "](Special:BookSources/978-0-521": 8110,
      "ogni": 8111,
      "▁[मध्य": 8112,
      "]](https://hi.wikipedia.org/wiki/भारत#cite_note-pib": 8113,
      "398": 8114,
      "म्भ": 8115,
      "_के_अन": 8116,
      "▁direct": 8117,
      "संधान": 8118,
      "▁\"Template": 8119,
      "त्तरी": 8120,
      "▁ancient": 8121,
      "▁2011](https://en.wikipedia.org/wiki/India#CITEREF": 8122,
      "▁\"Delhi": 8123,
      "▁\"En": 8124,
      "▁Dec": 8125,
      "▁लिये": 8126,
      "ame=": 8127,
      "_Times": 8128,
      "▁Hindus": 8129,
      "▁Vedic": 8130,
      "▁यूनिवर्सिट": 8131,
      "1):": 8132,
      "](https://en.wikipedia.org/wiki/Delhi": 8133,
      "▁79.": 8134,
      "](https://en.wikipedia.org/wiki/Template_": 8135,
      "_Games": 8136,
      "▁[Tamil": 8137,
      "astest": 8138,
      "angetic": 8139,
      "_Economic": 8140,
      "onstitution_of_India": 8141,
      "▁[Routledge": 8142,
      "▁leg": 8143,
      "▁2014](https://en.wikipedia.org/wiki/India#CITEREF": 8144,
      "▁\"Routledge": 8145,
      "▁Urdu": 8146,
      "▁US$": 8147,
      "▁जनजाति": 8148,
      "▁(2017).": 8149,
      "▁sever": 8150,
      "▁राजधान": 8151,
      "▁centuries": 8152,
      "_Union": 8153,
      "_Univers": 8154,
      "](https://en.wikipedia.org/wiki/Routledge": 8155,
      "▁[History": 8156,
      "ctorate": 8157,
      "▁parliament": 8158,
      "india.gov.in_3": 8159,
      "▁[Wolpert": 8160,
      "रुणा": 8161,
      "▁[Fisher": 8162,
      "▁plain": 8163,
      "ronom": 8164,
      "talk:": 8165,
      "oolforge": 8166,
      "▁[t](https://en.wikipedia.org/wiki/Template_": 8167,
      "article/": 8168,
      "a/a": 8169,
      "hola": 8170,
      "telligence_Agency": 8171,
      "ustralia": 8172,
      "▁[e](Special:EditPage/Template:": 8173,
      "ोर्ट": 8174,
      "▁[v](Template:": 8175,
      "Environment": 8176,
      "Fisher2018),": 8177,
      "▁upper": 8178,
      "-language\\_text": 8179,
      "▁2025.\r\n": 8180,
      "cms).": 8181,
      "izo": 8182,
      "▁Policy": 8183,
      "a](https://en.wikipedia.org/wiki/China": 8184,
      "▁2018](https://en.wikipedia.org/wiki/India#CITEREFFisher2018),": 8185,
      "▁साम्राज्य\")": 8186,
      "arliamentary": 8187,
      "Hindustani": 8188,
      "iteracy": 8189,
      "धुनिक": 8190,
      "oordinated_Univers": 8191,
      "ूर्ण": 8192,
      "▁(2018),": 8193,
      "default": 8194,
      "rishnan": 8195,
      "hdr.und": 8196,
      "ockey": 8197,
      "onial": 8198,
      "▁Conservation": 8199,
      "▁Time\")+": 8200,
      "▁republic": 8201,
      "_Programme": 8202,
      "ibetan": 8203,
      "Atlas": 8204,
      "aranth": 8205,
      "library": 8206,
      "struction": 8207,
      "▁Index\")": 8208,
      "forcement": 8209,
      "imachal": 8210,
      "_and_Development": 8211,
      "▁India](https://en.wikipedia.org/wiki/Government_of_India": 8212,
      "▁appro": 8213,
      "▁<http://": 8214,
      "estival": 8215,
      "▁[China](https://en.wikipedia.org/wiki/China": 8216,
      "_देशों_की_सूची": 8217,
      "ताजमह": 8218,
      "▁1994](https://en.wikipedia.org/wiki/India#CITEREF": 8219,
      "adhya": 8220,
      "al_Time": 8221,
      "▁Games\")": 8222,
      "क्षरता": 8223,
      ".toolforge": 8224,
      "limate_": 8225,
      "▁स्थाप": 8226,
      "▁village": 8227,
      "harmaceutical": 8228,
      "data.worldbank.org/indicator/S": 8229,
      "▁engineering": 8230,
      "▁[पाकिस्तान](https://hi.wikipedia.org/wiki/पाकिस्तान": 8231,
      "▁democ": 8232,
      "entral_Intelligence_Agency": 8233,
      "PetragliaAllchin": 8234,
      "Wright2010": 8235,
      "touch": 8236,
      "▁version": 8237,
      "▁(2007).": 8238,
      "ेंगलुरु": 8239,
      "comparison": 8240,
      "rocodi": 8241,
      "_साम्राज्य": 8242,
      "_के_अनुसार": 8243,
      "▁यूनिवर्सिटी": 8244,
      "▁[Routledge](https://en.wikipedia.org/wiki/Routledge": 8245,
      "▁\"Routledge\").": 8246,
      "▁[t](https://en.wikipedia.org/wiki/Template_talk:": 8247,
      "oordinated_Universal_Time": 8248,
      "hdr.undp": 8249,
      ".toolforge.org/": 8250,
      "*](http://": 8251,
      "*](https://web.archive.org/web/201": 8252,
      "-H": 8253,
      "-T": 8254,
      "-[": 8255,
      "-th": 8256,
      "-li": 8257,
      "-de": 8258,
      "-27": 8259,
      "-asia": 8260,
      "-coefficient": 8261,
      ".P": 8262,
      "/)": 8263,
      "/).": 8264,
      "/field": 8265,
      "2-10": 8266,
      "37.": 8267,
      "4_": 8268,
      "4-3": 8269,
      "4121": 8270,
      "528": 8271,
      "623": 8272,
      "68.": 8273,
      "633": 8274,
      "82": 8275,
      "8]](https://en.wikipedia.org/wiki/India#cite_note-FOOTNOTE": 8276,
      "Ag": 8277,
      "C)": 8278,
      "CCN": 8279,
      "DD": 8280,
      "Date": 8281,
      "David": 8282,
      "Emb": 8283,
      "Ge": 8284,
      "Jana": 8285,
      "KI": 8286,
      "MD": 8287,
      "MAAJ": 8288,
      "Republic": 8289,
      "SN": 8290,
      "South_Asian": 8291,
      "Shanghai": 8292,
      "YS": 8293,
      "Ze": 8294,
      "_v": 8295,
      "_అ": 8296,
      "_ఎ": 8297,
      "_ర": 8298,
      "_10": 8299,
      "_राज्य": 8300,
      "_45": 8301,
      "_యు": 8302,
      "_time": 8303,
      "_రాజ": 8304,
      "_एशिया": 8305,
      "_శాస్త్ర": 8306,
      "aha": 8307,
      "ded": 8308,
      "dat": 8309,
      "dministrative": 8310,
      "eci": 8311,
      "fun": 8312,
      "government": 8313,
      "global": 8314,
      "hl": 8315,
      "ip": 8316,
      "iti": 8317,
      "mas": 8318,
      "more": 8319,
      "mod": 8320,
      "music": 8321,
      "ns": 8322,
      "oz": 8323,
      "rince": 8324,
      "tances": 8325,
      "uin": 8326,
      "vin": 8327,
      "voy": 8328,
      "wa": 8329,
      "wan": 8330,
      "xim": 8331,
      "°N": 8332,
      "°E﻿": 8333,
      "ंतर": 8334,
      "ईल": 8335,
      "ख्य": 8336,
      "घर": 8337,
      "चें": 8338,
      "जें": 8339,
      "तम": 8340,
      "तुल": 8341,
      "थियार": 8342,
      "फा": 8343,
      "बा": 8344,
      "मर": 8345,
      "मार": 8346,
      "वेश": 8347,
      "वैद": 8348,
      "शन": 8349,
      "िबंध": 8350,
      "ृष": 8351,
      "ृष्ण": 8352,
      "्लेट": 8353,
      "ఒలి": 8354,
      "కూ": 8355,
      "క్ర": 8356,
      "గే": 8357,
      "గ్ర": 8358,
      "గతి": 8359,
      "జు": 8360,
      "ఞాన": 8361,
      "టం": 8362,
      "టన్": 8363,
      "పం": 8364,
      "పో": 8365,
      "పచ్చ": 8366,
      "మ్య": 8367,
      "యాలో": 8368,
      "లె": 8369,
      "వై": 8370,
      "వ్": 8371,
      "వత్స": 8372,
      "వృద్ధి": 8373,
      "శ్రమ": 8374,
      "సీ": 8375,
      "స్రా": 8376,
      "హక": 8377,
      "హన": 8378,
      "ాంగ": 8379,
      "ీఠ": 8380,
      "ువు": 8381,
      "ూపా": 8382,
      "ృష్": 8383,
      "ెహ": 8384,
      "ెట్": 8385,
      "ేన": 8386,
      "ైద": 8387,
      "ైగా": 8388,
      "ొయ": 8389,
      "–4": 8390,
      "▁,": 8391,
      "▁X": 8392,
      "▁५": 8393,
      "▁ఘ": 8394,
      "▁edi": 8395,
      "▁78": 8396,
      "▁web": 8397,
      "▁ला": 8398,
      "▁జా": 8399,
      "▁vi": 8400,
      "▁62": 8401,
      "▁line": 8402,
      "▁education": 8403,
      "dis": 8404,
      "ora": 8405,
      "orpor": 8406,
      "▁[గ": 8407,
      "▁[కు": 8408,
      "▁[प्र": 8409,
      "▁[పా": 8410,
      "▁[దక్షిణ": 8411,
      "▁[హిందూ": 8412,
      "▁[तमिल": 8413,
      "▁[పాకిస్తాన్": 8414,
      "▁[ముంబై": 8415,
      "▁[गुजरात": 8416,
      "teg": 8417,
      "teri": 8418,
      "ene": 8419,
      "▁\"ड": 8420,
      "▁\"ह": 8421,
      "▁\"గ": 8422,
      "▁\".in": 8423,
      "▁\"రాష్ట్ర": 8424,
      "▁\"దక్షిణ": 8425,
      "▁\"మూస": 8426,
      "▁\"హిందూ": 8427,
      "▁\"పాకిస్తాన్": 8428,
      "▁\"ప్రపంచ": 8429,
      "▁\"ముంబై": 8430,
      "▁\"వర్గం:Harv": 8431,
      "▁\"ప్రత్యేక:EditPage/మూస:": 8432,
      "\")1": 8433,
      "ing/": 8434,
      "onomet": 8435,
      "till": 8436,
      "India_Goa": 8437,
      "](https://en.wikipedia.org/wiki/List_of_countries_by_": 8438,
      "erm": 8439,
      "eries": 8440,
      "arrow": 8441,
      "reater": 8442,
      "cir": 8443,
      "ारो": 8444,
      "ारम्भ": 8445,
      "ising": 8446,
      "isted": 8447,
      "omic": 8448,
      "](https://hi.wikipedia.org/wiki/ग": 8449,
      "](https://hi.wikipedia.org/wiki/द": 8450,
      "▁कम": 8451,
      "▁किन": 8452,
      "▁often": 8453,
      "▁(c": 8454,
      "▁(भारत": 8455,
      "्रह": 8456,
      "](https://te.wikipedia.org/wiki/మూస": 8457,
      "](https://te.wikipedia.org/wiki/జన": 8458,
      "](https://te.wikipedia.org/wiki/వర్గం:Harv": 8459,
      "](https://te.wikipedia.org/wiki/ప్రత్యేక:EditPage/మూస:": 8460,
      "▁India\r\n": 8461,
      "▁सह": 8462,
      "▁स्तर": 8463,
      "▁सभ्यता": 8464,
      "side": 8465,
      "▁poll": 8466,
      "▁su": 8467,
      "▁set": 8468,
      "\\_n": 8469,
      "\\_क": 8470,
      "▁central": 8471,
      "▁Comm": 8472,
      "▁Country": 8473,
      "▁Court": 8474,
      "agore": 8475,
      "id-": 8476,
      "▁Asher": 8477,
      "▁After": 8478,
      "్యాలె": 8479,
      "ad-": 8480,
      "adakh": 8481,
      "▁fl": 8482,
      "[[18": 8483,
      "▁Summer": 8484,
      "velo": 8485,
      "స్వా": 8486,
      "▁पू": 8487,
      "▁brief": 8488,
      "▁పొ": 8489,
      "▁పద్ధ": 8490,
      "▁పైగా": 8491,
      "ices": 8492,
      "▁trade": 8493,
      "ume": 8494,
      "ర్ద": 8495,
      "ర్ష": 8496,
      "▁middle": 8497,
      "▁marri": 8498,
      "▁market": 8499,
      "▁mismatch": 8500,
      "fied": 8501,
      "న్ను": 8502,
      "comp": 8503,
      "comes": 8504,
      "rove": 8505,
      "र्ट": 8506,
      "rak": 8507,
      "▁होत": 8508,
      "्त्र": 8509,
      "unle": 8510,
      "▁where": 8511,
      "▁written": 8512,
      "రాజ్యం": 8513,
      "]](https://en.wikipedia.org/wiki/India#cite_note-1": 8514,
      "ola": 8515,
      "del": 8516,
      "లోయ": 8517,
      "▁24.": 8518,
      "ily": 8519,
      "▁కేంద్ర": 8520,
      "▁కంపెనీ": 8521,
      "▁अमेर": 8522,
      "▁अलग": 8523,
      "▁अर्थव्यवस्था": 8524,
      "▁Day": 8525,
      "ounding": 8526,
      "▁Book": 8527,
      "ాలు\")\r\n": 8528,
      "ాలుగా": 8529,
      "క్తి": 8530,
      "emen": 8531,
      "emic": 8532,
      "igved": 8533,
      "107": 8534,
      "_(orthographic_projection": 8535,
      "▁వై": 8536,
      "वियत": 8537,
      "ayashi": 8538,
      "ldlife": 8539,
      "▁जिन": 8540,
      "భారతదేశం\r\n": 8541,
      "▁even": 8542,
      "▁epic": 8543,
      "▁early": 8544,
      "ाले": 8545,
      "ालैंड": 8546,
      ".in)\r\n": 8547,
      "263": 8548,
      "bercu": 8549,
      "▁సమా": 8550,
      "▁సర్వ": 8551,
      "▁సుల్తాన": 8552,
      "opal": 8553,
      "▁देव": 8554,
      "▁दोन": 8555,
      "▁Ne": 8556,
      "▁Nuclear": 8557,
      "न्ध": 8558,
      "▁Human": 8559,
      "▁Home": 8560,
      "_in_the": 8561,
      "308": 8562,
      "-4)": 8563,
      "-45": 8564,
      "-405": 8565,
      "▁बंगाल": 8566,
      "▁बड़े": 8567,
      "####": 8568,
      "▁प्रधानमंत्री": 8569,
      "भाजन": 8570,
      "-345": 8571,
      "-349": 8572,
      "▁చర్చ:": 8573,
      "▁सेवा": 8574,
      "abel": 8575,
      "▁John": 8576,
      "_Air": 8577,
      "_Arm": 8578,
      "తాక": 8579,
      "నాట": 8580,
      "తి](https://te.wikipedia.org/wiki/": 8581,
      "▁[\"Population": 8582,
      "establish": 8583,
      "▁ne": 8584,
      "▁religions": 8585,
      "▁काम": 8586,
      "sey": 8587,
      "సింది.": 8588,
      "15/": 8589,
      "▁do": 8590,
      "132": 8591,
      "135": 8592,
      "▁(సా.శ.17": 8593,
      "163": 8594,
      "astronom": 8595,
      "–సా.శ.14": 8596,
      "–సా.శ.1947)": 8597,
      "▁అను": 8598,
      "29)": 8599,
      "▁व्यवस्था": 8600,
      "ిక,": 8601,
      "▁On": 8602,
      "a](https://en.wikipedia.org/wiki/T": 8603,
      "_Cooperation": 8604,
      "AAMAAJ": 8605,
      "▁आक": 8606,
      "▁आद": 8607,
      "▁Indians": 8608,
      "▁Law": 8609,
      "▁London": 8610,
      "lated": 8611,
      "కుపచ్చ": 8612,
      "](http://p": 8613,
      "▁being": 8614,
      "](https://te.wikipedia.org/wiki/భారతదేశం#CITEREF": 8615,
      "▁West": 8616,
      "▁Wiley": 8617,
      "▁[Craven": 8618,
      "▁Kore": 8619,
      "haw": 8620,
      "▁develo": 8621,
      "▁ఆకుపచ్చ": 8622,
      "ajasthan": 8623,
      "logy": 8624,
      "-2\").": 8625,
      "▁రే": 8626,
      "మాతర": 8627,
      "మాబాద్": 8628,
      "▁परि": 8629,
      "రుపు": 8630,
      "రుగు": 8631,
      "_and_N": 8632,
      "ommaraj": 8633,
      "▁शा": 8634,
      "rupee": 8635,
      "▁संस्थान": 8636,
      "-7mar": 8637,
      "allav": 8638,
      "](https://hi.wikipedia.org/wiki/भारत#cite_ref-pib": 8639,
      "](https://hi.wikipedia.org/wiki/भारत#cite_ref-langoff": 8640,
      "]](https://hi.wikipedia.org/wiki/भारत#cite_note-langoff-1": 8641,
      "earning": 8642,
      "▁\"Ge": 8643,
      "ियन": 8644,
      "▁Asia:": 8645,
      "ी](https://hi.wikipedia.org/wiki/म": 8646,
      "संबर": 8647,
      "सां": 8648,
      "▁\"Tamil": 8649,
      "▁నది": 8650,
      "त्ति": 8651,
      "మించ": 8652,
      "▁रक्षा": 8653,
      "▁[Pakistan": 8654,
      "▁తన": 8655,
      "orities/": 8656,
      "▁any": 8657,
      "▁expectancy": 8658,
      "ం](https://te.wikipedia.org/wiki/అ": 8659,
      "ం](https://te.wikipedia.org/wiki/క": 8660,
      "जापान": 8661,
      "ంబంధ": 8662,
      "▁\"मध्य": 8663,
      "▁V.": 8664,
      "▁Vol": 8665,
      "general": 8666,
      "kee": 8667,
      "గువ": 8668,
      "ompany": 8669,
      "ultur": 8670,
      "▁[Delhi": 8671,
      ".nic.in)\r\n": 8672,
      "▁rural": 8673,
      "▁rise": 8674,
      "हाँ": 8675,
      "ोली": 8676,
      "html)\r\n": 8677,
      "▁uni": 8678,
      "▁సంస్థ": 8679,
      "▁సంవత్స": 8680,
      "ants": 8681,
      "1,7": 8682,
      "853": 8683,
      "డియా": 8684,
      "](https://hi.wikipedia.org/wiki/मध्य": 8685,
      "eft-": 8686,
      "\"](https://web.archive.org/web/20140": 8687,
      "▁1997": 8688,
      "▁1999": 8689,
      "ట్లు": 8690,
      "_చర్చ:": 8691,
      "▁\"మధ్య": 8692,
      "▁\"Indus": 8693,
      "120]](https://hi.wikipedia.org/wiki/भारत#cite_note-langoff-1": 8694,
      "▁ఎన్నిక": 8695,
      "▁ఎన్ను": 8696,
      "▁[మధ్య": 8697,
      "rigonomet": 8698,
      "▁(సా.శ.పూ.1200": 8699,
      "hock": 8700,
      "▁గణ": 8701,
      "ohenj": 8702,
      "](https://te.wikipedia.org/wiki/మధ్య": 8703,
      "gional": 8704,
      "द्यालय": 8705,
      "/country": 8706,
      "_language?action=edit&redlink=1": 8707,
      "▁./వర్గం:Harv\\_and\\_Sfn\\_no-target\\_errors\r\n": 8708,
      "▁tea": 8709,
      "▁[Ludden": 8710,
      "]](https://te.wikipedia.org/wiki/భారతదేశం#cite_note-india.gov.in": 8711,
      "_సంగీతం": 8712,
      "34238": 8713,
      "▁\"Human": 8714,
      "ారిగా": 8715,
      "गुप्त": 8716,
      "oorkee": 8717,
      "నాయక": 8718,
      "▁notation": 8719,
      "హాస": 8720,
      "▁([help](https://te.wikipedia.org/wiki/వర్గం:Harv": 8721,
      "దావరి": 8722,
      "2014-p": 8723,
      "▁కూడిన": 8724,
      "▁consider": 8725,
      "▁CITEREFStein1998": 8726,
      "▁CITEREFSingh2009": 8727,
      "▁నిర్వ": 8728,
      "▁స్థా": 8729,
      "](https://hi.wikipedia.org/wiki/पंजाब": 8730,
      "](https://hi.wikipedia.org/wiki/पश्चिम": 8731,
      "raditional": 8732,
      "Stein1998),": 8733,
      "Singh2009),": 8734,
      "ों_की_सूची?action=edit&redlink=1": 8735,
      "_region": 8736,
      "ోర్చు": 8737,
      "▁निभा": 8738,
      "son2014-p": 8739,
      "▁[t](https://te.wikipedia.org/wiki/మూస": 8740,
      "ropped": 8741,
      "శాఖ": 8742,
      "▁2009](https://hi.wikipedia.org/wiki/भारत#CITEREF": 8743,
      "▁'M": 8744,
      "▁China": 8745,
      "lobe": 8746,
      "unjabi": 8747,
      "KulkeRothermund200": 8748,
      "▁[జమ్మూ": 8749,
      "▁పాత్ర": 8750,
      "](https://hi.wikipedia.org/wiki/भारत#CITEREFStein1998),": 8751,
      "_dance": 8752,
      "▁rupee": 8753,
      "▁\"చైనా": 8754,
      "▁Short": 8755,
      "▁Shankar": 8756,
      "▁century,": 8757,
      "▁ఉన్నాయి.\r\n": 8758,
      "▁ఒకటి": 8759,
      "Wolpert2003),": 8760,
      "_War": 8761,
      "▁whose": 8762,
      "▁numbers": 8763,
      "జ్ఞాన": 8764,
      "▁थे": 8765,
      "▁पाकिस्तान": 8766,
      "ustralian": 8767,
      "▁[e](https://te.wikipedia.org/wiki/ప్రత్యేక:EditPage/మూస:": 8768,
      "2001),": 8769,
      "▁Art": 8770,
      "▁उपमहाद्वीप": 8771,
      "_1960": 8772,
      "कालीन": 8773,
      "▁[v](https://te.wikipedia.org/wiki/మూస:": 8774,
      "▁speakers": 8775,
      "▁मंदिर\")": 8776,
      "नागालैंड": 8777,
      "▁మార్గాలు": 8778,
      "धीरे": 8779,
      "▁2008](https://en.wikipedia.org/wiki/India#CITEREF": 8780,
      "Wikipedia:": 8781,
      "రోపా": 8782,
      "leges": 8783,
      "IAF": 8784,
      "cms)": 8785,
      "2015/0": 8786,
      "▁భారతదేశానికి": 8787,
      "▁మతము\")": 8788,
      "▁మతము\"),": 8789,
      "athakali": 8790,
      "_domain": 8791,
      "रोहर": 8792,
      "▁वर्षों": 8793,
      "11934238": 8794,
      "ీనంలో": 8795,
      "▁జాబితా\")\r\n": 8796,
      "▁include": 8797,
      "▁According": 8798,
      "▁longer": 8799,
      "▁ప్రపంచంలో": 8800,
      "▁ప్రభుత్వ": 8801,
      "▁ప్రభుత్వం": 8802,
      "%20%20%20%20%20%20%20%20": 8803,
      "▁Environmental": 8804,
      "Ludden2014": 8805,
      "issions": 8806,
      "/articleshow/": 8807,
      "d/d": 8808,
      "▁major": 8809,
      "▁మొదటి": 8810,
      "arnataka": 8811,
      "union_territory": 8812,
      "▁cities": 8813,
      "▁(2018).": 8814,
      "▁देख": 8815,
      "Library_of_Congress": 8816,
      "స్లామాబాద్": 8817,
      "▁पार्टी": 8818,
      "▁పాలన": 8819,
      "▁కార్య": 8820,
      "▁కారణంగా": 8821,
      "▁కలిగి": 8822,
      "emocracy": 8823,
      "▁[\"Gini": 8824,
      "ంటుంది.": 8825,
      "▁1998](https://hi.wikipedia.org/wiki/भारत#CITEREFStein1998),": 8826,
      "ांति": 8827,
      "▁served": 8828,
      "losis": 8829,
      "▁सिनेमा\"),": 8830,
      "ांधी": 8831,
      "శోకుడు": 8832,
      "itzel": 8833,
      "rajbhasha": 8834,
      "▁दृश्य": 8835,
      "▁జరిగిన": 8836,
      "▁local": 8837,
      "▁14.2%": 8838,
      "▁Before": 8839,
      "o-daro": 8840,
      "Encyclop": 8841,
      "▁[భారతదేశంలో": 8842,
      "▁(2006).": 8843,
      "▁అనేక": 8844,
      "undamental": 8845,
      "ecutive": 8846,
      "▁ఎక్కువగా": 8847,
      "▁भूमिका": 8848,
      "awaharlal": 8849,
      "▁caused": 8850,
      "▁दिसंबर": 8851,
      "प्राचीन": 8852,
      "AGE": 8853,
      "▁వారసత్వ": 8854,
      "▁ప్రస్తుతం": 8855,
      "a_dynasty": 8856,
      "▁రోడ్": 8857,
      "▁different": 8858,
      "▁తరువాత": 8859,
      "▁బెంగాల్": 8860,
      "ంపిక్": 8861,
      "▁Minorities,": 8862,
      "हित्य": 8863,
      "ेघालय": 8864,
      "arlung": 8865,
      "▁[India](https://en.wikipedia.org/wiki/India)": 8866,
      "Flag_of_India.svg": 8867,
      "ంస్కృతం": 8868,
      "▁oldest": 8869,
      "▁\"पाकिस्तान\")": 8870,
      "▁వెబ్": 8871,
      "▁సౌకర్య": 8872,
      "ండీగఢ్": 8873,
      "▁అభివృద్ధి": 8874,
      "▁నడిపించ": 8875,
      "గుప్త": 8876,
      "▁नेतृत्व": 8877,
      "▁contribu": 8878,
      "hattisgarh": 8879,
      "sites/default": 8880,
      "భారతదేశ_రాష్ట్రాలు,_కేంద్రపాలిత_ప్రాంతాలు": 8881,
      "Tarlo1996-26": 8882,
      "_and_union_territories_of_India": 8883,
      "digenous": 8884,
      "onkani": 8885,
      "▁[↑](https://en.wikipedia.org/wiki/India#cite_ref-1": 8886,
      "▁Recognised": 8887,
      "beralisation": 8888,
      "▁79.8%": 8889,
      "रुणाचल": 8890,
      "Davidson2014-p": 8891,
      "चेंज": 8892,
      "वैदिक": 8893,
      "िबंधीय": 8894,
      "ృష్ణా": 8895,
      "▁Asher,": 8896,
      "▁होती": 8897,
      "_(orthographic_projection).": 8898,
      "berculosis": 8899,
      "_Cooperation_Organisation": 8900,
      "-7mar2011": 8901,
      "](https://hi.wikipedia.org/wiki/भारत#cite_ref-langoff_128": 8902,
      "120]](https://hi.wikipedia.org/wiki/भारत#cite_note-langoff-128)": 8903,
      "▁(సా.శ.పూ.1200–సా.శ.పూ.": 8904,
      "ohenjo-daro": 8905,
[...]
