{
  "version": "1.0",
  "truncation": null,
  "padding": null,
  "added_tokens": [
    {
      "id": 0,
      "content": "[UNK]",
      "single_word": false,
      "lstrip": false,
      "rstrip": false,
      "normalized": false,
      "special": true
    }
  ],
  "normalizer": {
    "type": "NFKC"
  },
  "pre_tokenizer": {
    "type": "Metaspace",
    "replacement": "▁",
    "prepend_scheme": "never",
    "split": true
  },
  "post_processor": null,
  "decoder": {
    "type": "Metaspace",
    "replacement": "▁",
    "prepend_scheme": "never",
    "split": true
  },
  "model": {
    "type": "BPE",
    "dropout": null,
    "unk_token": "[UNK]",
    "continuing_subword_prefix": null,
    "end_of_word_suffix": null,
    "fuse_unk": false,
    "byte_fallback": false,
    "ignore_merges": false,
    "vocab": {
      "[UNK]": 0,
      "\n": 1,
      "\r": 2,
      "!": 3,
      "\"": 4,
      "#": 5,
      "$": 6,
      "%": 7,
      "&": 8,
      "'": 9,
      "(": 10,
      ")": 11,
      "*": 12,
      "+": 13,
      ",": 14,
      "-": 15,
      ".": 16,
      "/": 17,
      "0": 18,
      "1": 19,
      "2": 20,
      "3": 21,
      "4": 22,
      "5": 23,
      "6": 24,
      "7": 25,
      "8": 26,
      "9": 27,
      ":": 28,
      ";": 29,
      "<": 30,
      "=": 31,
      ">": 32,
      "?": 33,
      "A": 34,
      "B": 35,
      "C": 36,
      "D": 37,
      "E": 38,
      "F": 39,
      "G": 40,
      "H": 41,
      "I": 42,
      "J": 43,
      "K": 44,
      "L": 45,
      "M": 46,
      "N": 47,
      "O": 48,
      "P": 49,
      "Q": 50,
      "R": 51,
      "S": 52,
      "T": 53,
      "U": 54,
      "V": 55,
      "W": 56,
      "X": 57,
      "Y": 58,
      "Z": 59,
      "[": 60,
      "\\": 61,
      "]": 62,
      "^": 63,
      "_": 64,
      "`": 65,
      "a": 66,
      "b": 67,
      "c": 68,
      "d": 69,
      "e": 70,
      "f": 71,
      "g": 72,
      "h": 73,
      "i": 74,
      "j": 75,
      "k": 76,
      "l": 77,
      "m": 78,
      "n": 79,
      "o": 80,
      "p": 81,
      "q": 82,
      "r": 83,
      "s": 84,
      "t": 85,
      "u": 86,
      "v": 87,
      "w": 88,
      "x": 89,
      "y": 90,
      "z": 91,
      "{": 92,
      "|": 93,
      "}": 94,
      "~": 95,
      "°": 96,
      "·": 97,
      "Ö": 98,
      "á": 99,
      "â": 100,
      "æ": 101,
      "ç": 102,
      "è": 103,
      "é": 104,
      "í": 105,
      "ñ": 106,
      "ö": 107,
      "ü": 108,
      "ā": 109,
      "ī": 110,
      "İ": 111,
      "ņ": 112,
      "Ś": 113,
      "ś": 114,
      "ū": 115,
      "ș": 116,
      "ə": 117,
      "ɦ": 118,
      "ɪ": 119,
      "ɾ": 120,
      "ʊ": 121,
      "ʼ": 122,
      "ˈ": 123,
      "ː": 124,
      "ί": 125,
      "α": 126,
      "δ": 127,
      "θ": 128,
      "ν": 129,
      "π": 130,
      "ς": 131,
      "ό": 132,
      "ँ": 133,
      "ं": 134,
      "ः": 135,
      "अ": 136,
      "आ": 137,
      "इ": 138,
      "ई": 139,
      "उ": 140,
      "ऊ": 141,
      "ऋ": 142,
      "ऍ": 143,
      "ए": 144,
      "ऐ": 145,
      "ऑ": 146,
      "ओ": 147,
      "औ": 148,
      "क": 149,
      "ख": 150,
      "ग": 151,
      "घ": 152,
      "ङ": 153,
      "च": 154,
      "छ": 155,
      "ज": 156,
      "झ": 157,
      "ञ": 158,
      "ट": 159,
      "ठ": 160,
      "ड": 161,
      "ढ": 162,
      "ण": 163,
      "त": 164,
      "थ": 165,
      "द": 166,
      "ध": 167,
      "न": 168,
      "प": 169,
      "फ": 170,
      "ब": 171,
      "भ": 172,
      "म": 173,
      "य": 174,
      "र": 175,
      "ल": 176,
      "ळ": 177,
      "व": 178,
      "श": 179,
      "ष": 180,
      "स": 181,
      "ह": 182,
      "़": 183,
      "ा": 184,
      "ि": 185,
      "ी": 186,
      "ु": 187,
      "ू": 188,
      "ृ": 189,
      "े": 190,
      "ै": 191,
      "ॉ": 192,
      "ॊ": 193,
      "ो": 194,
      "ौ": 195,
      "्": 196,
      "।": 197,
      "०": 198,
      "१": 199,
      "२": 200,
      "३": 201,
      "४": 202,
      "५": 203,
      "६": 204,
      "७": 205,
      "८": 206,
      "९": 207,
      "॰": 208,
      "ం": 209,
      "ః": 210,
      "అ": 211,
      "ఆ": 212,
      "ఇ": 213,
      "ఈ": 214,
      "ఉ": 215,
      "ఋ": 216,
      "ఎ": 217,
      "ఏ": 218,
      "ఐ": 219,
      "ఒ": 220,
      "ఓ": 221,
      "ఔ": 222,
      "క": 223,
      "ఖ": 224,
      "గ": 225,
      "ఘ": 226,
      "చ": 227,
      "ఛ": 228,
      "జ": 229,
      "ఞ": 230,
      "ట": 231,
      "ఠ": 232,
      "డ": 233,
      "ఢ": 234,
      "ణ": 235,
      "త": 236,
      "థ": 237,
      "ద": 238,
      "ధ": 239,
      "న": 240,
      "ప": 241,
      "ఫ": 242,
      "బ": 243,
      "భ": 244,
      "మ": 245,
      "య": 246,
      "ర": 247,
      "ల": 248,
      "ళ": 249,
      "వ": 250,
      "శ": 251,
      "ష": 252,
      "స": 253,
      "హ": 254,
      "ా": 255,
      "ి": 256,
      "ీ": 257,
      "ు": 258,
      "ూ": 259,
      "ృ": 260,
      "ె": 261,
      "ే": 262,
      "ై": 263,
      "ొ": 264,
      "ో": 265,
      "ౌ": 266,
      "్": 267,
      "ಂ": 268,
      "ಅ": 269,
      "ಆ": 270,
      "ಇ": 271,
      "ಈ": 272,
      "ಉ": 273,
      "ಋ": 274,
      "ಎ": 275,
      "ಏ": 276,
      "ಐ": 277,
      "ಒ": 278,
      "ಓ": 279,
      "ಕ": 280,
      "ಖ": 281,
      "ಗ": 282,
      "ಘ": 283,
      "ಚ": 284,
      "ಛ": 285,
      "ಜ": 286,
      "ಝ": 287,
      "ಞ": 288,
      "ಟ": 289,
      "ಠ": 290,
      "ಡ": 291,
      "ಢ": 292,
      "ಣ": 293,
      "ತ": 294,
      "ಥ": 295,
      "ದ": 296,
      "ಧ": 297,
      "ನ": 298,
      "ಪ": 299,
      "ಫ": 300,
      "ಬ": 301,
      "ಭ": 302,
      "ಮ": 303,
      "ಯ": 304,
      "ರ": 305,
      "ಲ": 306,
      "ಳ": 307,
      "ವ": 308,
      "ಶ": 309,
      "ಷ": 310,
      "ಸ": 311,
      "ಹ": 312,
      "಼": 313,
      "ಾ": 314,
      "ಿ": 315,
      "ೀ": 316,
      "ು": 317,
      "ೂ": 318,
      "ೃ": 319,
      "ೆ": 320,
      "ೇ": 321,
      "ೈ": 322,
      "ೊ": 323,
      "ೋ": 324,
      "ೌ": 325,
      "್": 326,
      "೦": 327,
      "೧": 328,
      "೨": 329,
      "೩": 330,
      "೪": 331,
      "೫": 332,
      "೬": 333,
      "೭": 334,
      "೮": 335,
      "೯": 336,
      "ṅ": 337,
      "ṇ": 338,
      "Ṛ": 339,
      "ṣ": 340,
      "ṭ": 341,
      "Ἰ": 342,
      "‌": 343,
      "‍": 344,
      "‎": 345,
      "–": 346,
      "—": 347,
      "‘": 348,
      "’": 349,
      "“": 350,
      "”": 351,
      "†": 352,
      "‡": 353,
      "•": 354,
      "′": 355,
      "‹": 356,
      "›": 357,
      "⁡": 358,
      "₹": 359,
      "↑": 360,
      "−": 361,
      "▁": 362,
      "▪": 363,
      "﻿": 364,
      "wi": 365,
      "ki": 366,
      "wiki": 367,
      "ia": 368,
      "dia": 369,
      "or": 370,
      "tt": 371,
      "](": 372,
      ":/": 373,
      "htt": 374,
      "http": 375,
      "://": 376,
      "pe": 377,
      "](http": 378,
      "s://": 379,
      "](https://": 380,
      "g/": 381,
      ".or": 382,
      ".org/": 383,
      "pedia": 384,
      ".wiki": 385,
      ".org/wiki": 386,
      ".org/wiki/": 387,
      ".wikipedia": 388,
      ".wikipedia.org/wiki/": 389,
      "▁[": 390,
      "en": 391,
      "te": 392,
      "▁\"": 393,
      "\")": 394,
      "in": 395,
      "an": 396,
      "on": 397,
      "In": 398,
      "th": 399,
      "ti": 400,
      "](https://en": 401,
      "](https://en.wikipedia.org/wiki/": 402,
      "hi": 403,
      "India": 404,
      "er": 405,
      "\r\n": 406,
      "ar": 407,
      "20": 408,
      "al": 409,
      "es": 410,
      "▁|": 411,
      "ार": 412,
      "re": 413,
      "](https://hi": 414,
      "](https://hi.wikipedia.org/wiki/": 415,
      "of": 416,
      "▁क": 417,
      "्र": 418,
      "is": 419,
      "ci": 420,
      "tion": 421,
      "the": 422,
      "ed": 423,
      "om": 424,
      "and": 425,
      "भार": 426,
      "भारत": 427,
      "te_": 428,
      "▁-": 429,
      "▁of": 430,
      "#ci": 431,
      "#cite_": 432,
      "▁the": 433,
      "it": 434,
      "▁(": 435,
      "ou": 436,
      "▁स": 437,
      "as": 438,
      "201": 439,
      "](https://en.wikipedia.org/wiki/India": 440,
      "ic": 441,
      "▁India": 442,
      "le": 443,
      "19": 444,
      "▁म": 445,
      "OT": 446,
      "no": 447,
      "्य": 448,
      "oo": 449,
      "tr": 450,
      "▁in": 451,
      "్ర": 452,
      "id": 453,
      "](https://te": 454,
      "](https://te.wikipedia.org/wiki/": 455,
      "ate": 456,
      "▁s": 457,
      "**": 458,
      "ation": 459,
      "रा": 460,
      "](https://en.wikipedia.org/wiki/India#cite_": 461,
      "▁प": 462,
      "200": 463,
      "▁and": 464,
      "ent": 465,
      "-0": 466,
      "▁p": 467,
      "am": 468,
      "ing": 469,
      "ac": 470,
      "-1": 471,
      "ge": 472,
      "ార": 473,
      "at": 474,
      "▁c": 475,
      "ad": 476,
      "us": 477,
      "▁C": 478,
      "▁A": 479,
      "ें": 480,
      "ref": 481,
      "\\_": 482,
      "ान": 483,
      "note": 484,
      "र्": 485,
      ").": 486,
      "▁के": 487,
      "](https://hi.wikipedia.org/wiki/भारत": 488,
      "▁S": 489,
      "[[": 490,
      "ook": 491,
      "▁f": 492,
      "▁ह": 493,
      "ur": 494,
      "ref-": 495,
      "note-": 496,
      "्त": 497,
      "ve": 498,
      "▁b": 499,
      "ol": 500,
      "78": 501,
      "ang": 502,
      "um": 503,
      "▁1": 504,
      "to": 505,
      "il": 506,
      "▁P": 507,
      "ig": 508,
      "▁m": 509,
      "we": 510,
      "ul": 511,
      "ww": 512,
      "ాల": 513,
      "\"),": 514,
      "या": 515,
      "ver": 516,
      "िक": 517,
      "com": 518,
      "lo": 519,
      ".\r\n": 520,
      "IS": 521,
      "he": 522,
      "of_": 523,
      "et": 524,
      "▁में": 525,
      "_of_": 526,
      "FO": 527,
      "NOT": 528,
      "OTNOT": 529,
      "FOOTNOT": 530,
      "FOOTNOTE": 531,
      "ीय": 532,
      "▁[↑": 533,
      "్య": 534,
      "978": 535,
      "▁201": 536,
      "ch": 537,
      "BN": 538,
      "▁अ": 539,
      "ter": 540,
      "ISBN": 541,
      "ial": 542,
      "▁|\r\n": 543,
      "ce": 544,
      "ion": 545,
      "21": 546,
      "ory": 547,
      "un": 548,
      "భార": 549,
      "00": 550,
      "lin": 551,
      "భారత": 552,
      "ist": 553,
      "దే": 554,
      "fi": 555,
      "ों": 556,
      "▁w": 557,
      "▁d": 558,
      "దేశ": 559,
      "స్": 560,
      "our": 561,
      "▁T": 562,
      "st": 563,
      "]](https://en.wikipedia.org/wiki/India#cite_": 564,
      "enti": 565,
      "▁R": 566,
      "](https://en.wikipedia.org/wiki/India#cite_ref-": 567,
      "]](https://en.wikipedia.org/wiki/India#cite_note-": 568,
      "वि": 569,
      "red": 570,
      "▁ప": 571,
      "▁M": 572,
      "ना": 573,
      "ro": 574,
      "▁ज": 575,
      "web": 576,
      "्ष": 577,
      "identi": 578,
      "chi": 579,
      "▁**": 580,
      "▁a": 581,
      "fier": 582,
      "identifier": 583,
      "tic": 584,
      "kn": 585,
      "ra": 586,
      "సా": 587,
      "ाल": 588,
      "_क": 589,
      "identifier)": 590,
      "](https://kn": 591,
      "](https://kn.wikipedia.org/wiki/": 592,
      "▁है": 593,
      "▁l": 594,
      "-0)": 595,
      "ర్": 596,
      "=1": 597,
      "ment": 598,
      "▁द": 599,
      "▁to": 600,
      "link": 601,
      "](https://hi.wikipedia.org/wiki/भारत#cite_": 602,
      "book": 603,
      "ಾರ": 604,
      "edit": 605,
      "action": 606,
      "त्र": 607,
      "್ರ": 608,
      "న్": 609,
      "ir": 610,
      "राज": 611,
      "),": 612,
      "im": 613,
      "ेश": 614,
      "▁B": 615,
      "न्": 616,
      "action=": 617,
      "res": 618,
      "action=edit": 619,
      "िया": 620,
      "&red": 621,
      "?action=edit": 622,
      "link=1": 623,
      "&redlink=1": 624,
      "?action=edit&redlink=1": 625,
      "es/": 626,
      "em": 627,
      "age": 628,
      "▁2": 629,
      "s.": 630,
      "cial": 631,
      "ons": 632,
      "और": 633,
      "▁D": 634,
      "india": 635,
      "_(": 636,
      "▁ब": 637,
      "10": 638,
      "pg": 639,
      "ंग": 640,
      "ag": 641,
      "▁भारत": 642,
      "▁की": 643,
      "IT": 644,
      "el": 645,
      "ind": 646,
      "23": 647,
      "ity": 648,
      "angu": 649,
      "▁प्र": 650,
      ".com": 651,
      "ला": 652,
      "▁India\")": 653,
      "▁त": 654,
      ")\r\n": 655,
      "भा": 656,
      "्व": 657,
      "▁\"S": 658,
      "▁न": 659,
      "ER": 660,
      "sia": 661,
      "▁से": 662,
      "tri": 663,
      "50": 664,
      "EF": 665,
      "ITER": 666,
      "ay": 667,
      "ec": 668,
      "go": 669,
      "ITEREF": 670,
      ".com/": 671,
      "▁19": 672,
      ".j": 673,
      "ni": 674,
      "▁और": 675,
      "▁•": 676,
      "oun": 677,
      "▁[↑](https://en.wikipedia.org/wiki/India#cite_ref-": 678,
      "లు": 679,
      "▁*": 680,
      "pecial": 681,
      "▁E": 682,
      "\")\r\n": 683,
      "▁का": 684,
      "ri": 685,
      "రా": 686,
      "_स": 687,
      "24": 688,
      "ourc": 689,
      "ved": 690,
      "·**": 691,
      "्रे": 692,
      "▁**·**": 693,
      "_India": 694,
      "ता": 695,
      "26": 696,
      "pecial:": 697,
      "ld": 698,
      "्ट": 699,
      "ly": 700,
      "భారతదేశ": 701,
      "ಭಾರ": 702,
      "www": 703,
      "_S": 704,
      "ಭಾರತ": 705,
      "ber": 706,
      "▁G": 707,
      "ha": 708,
      "\").": 709,
      "#C": 710,
      ".శ": 711,
      ".శ.": 712,
      "లో": 713,
      "cal": 714,
      "rom": 715,
      "#CITEREF": 716,
      "▁H": 717,
      "up": 718,
      "సా.శ.": 719,
      "▁N": 720,
      "ources/": 721,
      "www.": 722,
      "11": 723,
      "978-0": 724,
      "Book": 725,
      "್ಯ": 726,
      "28": 727,
      "outh": 728,
      "_in": 729,
      "Sources/": 730,
      "pecial:Book": 731,
      "pecial:BookSources/": 732,
      "ateg": 733,
      "▁\"भारत": 734,
      "-3": 735,
      "▁క": 736,
      "-4": 737,
      "ategory": 738,
      "op": 739,
      ".in": 740,
      "ategory:": 741,
      "स्त": 742,
      "archi": 743,
      "▁व": 744,
      "tu": 745,
      "राज्य": 746,
      "▁e": 747,
      "ational": 748,
      "▁20": 749,
      "err": 750,
      "क्ष": 751,
      "▁200": 752,
      "ew": 753,
      "for": 754,
      "ित": 755,
      "▁on": 756,
      "▁--": 757,
      "her": 758,
      "త్ర": 759,
      "न्द": 760,
      "Uni": 761,
      "me": 762,
      "ాలు": 763,
      "_A": 764,
      "-8": 765,
      "రి": 766,
      "vers": 767,
      "archive": 768,
      "క్": 769,
      "anguage": 770,
      "25": 771,
      "ary": 772,
      "▁आ": 773,
      "ంద": 774,
      "षा": 775,
      "▁th": 776,
      "▁---": 777,
      "pl": 778,
      "पु": 779,
      "calf": 780,
      "od": 781,
      "30": 782,
      "ab": 783,
      "ति": 784,
      "ని": 785,
      "▁వ": 786,
      "▁re": 787,
      "etcalf": 788,
      "ub": 789,
      "ास": 790,
      "199": 791,
      "ain": 792,
      "](https://en.wikipedia.org/wiki/India#CITEREF": 793,
      "n_": 794,
      "22": 795,
      "978-0-": 796,
      "▁F": 797,
      "ak": 798,
      "The": 799,
      "▁n": 800,
      "▁or": 801,
      "18": 802,
      "▁J": 803,
      "tem": 804,
      "per": 805,
      "▁[\"": 806,
      "archive.org/": 807,
      "est": 808,
      "orld": 809,
      "List": 810,
      "स्": 811,
      "್ತ": 812,
      "ap": 813,
      "▁[S": 814,
      "ల్": 815,
      "▁from": 816,
      "ted": 817,
      "con": 818,
      "భారతదేశం": 819,
      "_of_India": 820,
      "▁.": 821,
      "▁h": 822,
      "ress": 823,
      "▁Re": 824,
      "error": 825,
      "▁by": 826,
      "▁(identifier)": 827,
      "_(identifier)": 828,
      "▁(identifier)\")": 829,
      "]](https://en.wikipedia.org/wiki/India#cite_note-FOOTNOTE": 830,
      "भाषा": 831,
      "web.": 832,
      "ంగ": 833,
      "](https://web.": 834,
      "/http": 835,
      "web/": 836,
      "archive.org/web/": 837,
      "](https://web.archive.org/web/": 838,
      "ens": 839,
      "▁In": 840,
      "Har": 841,
      "मा": 842,
      "▁స": 843,
      "▁को": 844,
      "rit": 845,
      "था": 846,
      "##": 847,
      "]](https://hi.wikipedia.org/wiki/भारत#cite_": 848,
      "har": 849,
      "os": 850,
      "_and": 851,
      ".[[": 852,
      "णी": 853,
      "ast": 854,
      "री": 855,
      "ht": 856,
      "▁p.": 857,
      ".jpg": 858,
      "Metcalf": 859,
      "▁మ": 860,
      "ची": 861,
      "ರ್": 862,
      "▁for": 863,
      "15": 864,
      "देश": 865,
      "13": 866,
      "29": 867,
      "_P": 868,
      "ಲಿ": 869,
      "▁ग": 870,
      "ud": 871,
      "goo": 872,
      "gov": 873,
      "ड़": 874,
      "16": 875,
      "ort": 876,
      "40": 877,
      "▁\"C": 878,
      "్రా": 879,
      "▁पर": 880,
      "books": 881,
      "▁./": 882,
      "gle": 883,
      "▁उ": 884,
      "▁ಸ": 885,
      "▁is": 886,
      "with": 887,
      "▁[A": 888,
      "AA": 889,
      "▁ए": 890,
      "versity": 891,
      "s/": 892,
      "ष्ट": 893,
      "ाद": 894,
      "▁है।": 895,
      "▁ar": 896,
      "try": 897,
      "id=": 898,
      "▁g": 899,
      "uc": 900,
      "▁O": 901,
      "17": 902,
      ".gov": 903,
      "ీయ": 904,
      "og": 905,
      "▁श": 906,
      "_के": 907,
      ".in/": 908,
      "▁ಮ": 909,
      "▁L": 910,
      "](https://en.wikipedia.org/wiki/S": 911,
      "li": 912,
      "google": 913,
      "▁Indian": 914,
      "inal": 915,
      "ండ": 916,
      "978-1": 917,
      "▁([": 918,
      "14": 919,
      "_C": 920,
      "▁[म": 921,
      "्रेणी": 922,
      "?id=": 923,
      "_म": 924,
      "books.": 925,
      ".com/books": 926,
      "google.com/books": 927,
      "books.google.com/books": 928,
      "श्रेणी": 929,
      "umb": 930,
      "ष्ट्र": 931,
      "books.google.com/books?id=": 932,
      "ep": 933,
      "ng": 934,
      "▁[ISBN": 935,
      "nd": 936,
      "का": 937,
      "▁सं": 938,
      "विश": 939,
      "श्रेणी:": 940,
      "▁\"ISBN": 941,
      "ISBN_(identifier)": 942,
      "27": 943,
      "ले": 944,
      "'s": 945,
      "*.": 946,
      "▁W": 947,
      "_in_India": 948,
      "ने": 949,
      "జ్య": 950,
      "-9": 951,
      "▁చ": 952,
      "ेत्र": 953,
      "](https://hi.wikipedia.org/wiki/भारत#cite_ref-": 954,
      "]](https://hi.wikipedia.org/wiki/भारत#cite_note-": 955,
      "▁Asia": 956,
      "▁K": 957,
      "▁[*": 958,
      "प्र": 959,
      "म्": 960,
      "ther": 961,
      "▁[C": 962,
      "िल": 963,
      "ಂದ": 964,
      "](https://books.google.com/books?id=": 965,
      "తా": 966,
      "ము": 967,
      "](https://en.wikipedia.org/wiki/C": 968,
      "నా": 969,
      "▁ಪ": 970,
      "తి": 971,
      "్ట": 972,
      "_के_": 973,
      "px": 974,
      "ish": 975,
      "av": 976,
      "ff": 977,
      "University": 978,
      "▁इ": 979,
      "▁r": 980,
      "्या": 981,
      "errors": 982,
      "ಗಳ": 983,
      "Harv": 984,
      "िय": 985,
      "▁The": 986,
      "▁\"M": 987,
      "p.": 988,
      "▁t": 989,
      "media": 990,
      "हि": 991,
      "ी](https://hi.wikipedia.org/wiki/": 992,
      "do": 993,
      "s,": 994,
      ".p": 995,
      "ज़": 996,
      "సి": 997,
      "ot": 998,
      "త్": 999,
      "mons": 1000,
      "a_": 1001,
      "br": 1002,
      "सं": 1003,
      "सा": 1004,
      "-2": 1005,
      "35": 1006,
      "▁pp.": 1007,
      "aj": 1008,
      "fn": 1009,
      "](S": 1010,
      "umm": 1011,
      "und": 1012,
      ")[[": 1013,
      "ong": 1014,
      "▁[↑](https://en.wikipedia.org/wiki/India#cite_ref-FOOTNOTE": 1015,
      "त्त": 1016,
      "▁र": 1017,
      "ensus": 1018,
      "-7": 1019,
      "ence": 1020,
      "iginal": 1021,
      "load": 1022,
      "ance": 1023,
      "upload": 1024,
      "36": 1025,
      "PA": 1026,
      "▁[M": 1027,
      "ll": 1028,
      "al_": 1029,
      "over": 1030,
      "ನ್": 1031,
      ".wikimedia": 1032,
      "](https://en.wikipedia.org/wiki/M": 1033,
      "ana": 1034,
      "▁be": 1035,
      "![": 1036,
      "▁as": 1037,
      "47": 1038,
      "ys": 1039,
      "▁(సా.శ.": 1040,
      "ರಾ": 1041,
      "ಲ್": 1042,
      "pedia/": 1043,
      ".org/wikipedia/": 1044,
      "upload.wikimedia": 1045,
      "upload.wikimedia.org/wikipedia/": 1046,
      "](http://": 1047,
      "tein": 1048,
      "ies": 1049,
      "](https://upload.wikimedia.org/wikipedia/": 1050,
      "ages": 1051,
      "1.": 1052,
      "opul": 1053,
      "ates": 1054,
      "యా": 1055,
      "thumb": 1056,
      "र्व": 1057,
      "](Special:BookSources/": 1058,
      "all": 1059,
      "ow": 1060,
      "rchi": 1061,
      "ंड": 1062,
      "ులు": 1063,
      "▁రా": 1064,
      "ct": 1065,
      "commons": 1066,
      "▁original": 1067,
      "/thumb": 1068,
      "/thumb/": 1069,
      "-5": 1070,
      "eved": 1071,
      "gh": 1072,
      "िस": 1073,
      "–సా.శ.": 1074,
      "](https://en.wikipedia.org/wiki/ISBN_(identifier)": 1075,
      "▁\"Special:BookSources/": 1076,
      "▁[ISBN](https://en.wikipedia.org/wiki/ISBN_(identifier)": 1077,
      "trieved": 1078,
      "▁Retrieved": 1079,
      "](https://web.archive.org/web/201": 1080,
      "▁అ": 1081,
      "राष्ट्र": 1082,
      "art": 1083,
      "px-": 1084,
      "_D": 1085,
      "tern": 1086,
      "](https://upload.wikimedia.org/wikipedia/commons": 1087,
      "get": 1088,
      "38": 1089,
      "Category:": 1090,
      "ి.": 1091,
      "%2": 1092,
      "▁[B": 1093,
      "&pg": 1094,
      "&pg=": 1095,
      "ತ್ತ": 1096,
      "▁ल": 1097,
      "ans": 1098,
      "ಭಾರತದ": 1099,
      "](https://upload.wikimedia.org/wikipedia/commons/thumb/": 1100,
      "▁\"B": 1101,
      "▁सा": 1102,
      "▁ప్ర": 1103,
      "्षेत्र": 1104,
      "70": 1105,
      "ss": 1106,
      "ిక": 1107,
      "nic": 1108,
      "ear": 1109,
      "omm": 1110,
      "चि": 1111,
      "ಸ್": 1112,
      "▁I": 1113,
      "ut": 1114,
      "मन": 1115,
      "ी_": 1116,
      "తం": 1117,
      "▁राज्य": 1118,
      "opulation": 1119,
      "7.": 1120,
      "_M": 1121,
      "पा": 1122,
      "▁\"P": 1123,
      "ountri": 1124,
      "श्रेणी:Harv": 1125,
      "▁\"A": 1126,
      "2011": 1127,
      "2.": 1128,
      "iv": 1129,
      "sh": 1130,
      "जा": 1131,
      "▁\"म": 1132,
      "▁with": 1133,
      "&pg=PA": 1134,
      "de": 1135,
      "▁भाषा": 1136,
      "ma": 1137,
      "\"))": 1138,
      "rchived": 1139,
      "%20": 1140,
      "ిన": 1141,
      "▁हैं": 1142,
      "జ్యం": 1143,
      "land": 1144,
      "▁य": 1145,
      "▁वि": 1146,
      "▁भ": 1147,
      "esh": 1148,
      "జా": 1149,
      "2006": 1150,
      "](https://en.wikipedia.org/wiki/B": 1151,
      "-10": 1152,
      "conom": 1153,
      "90": 1154,
      "ूची": 1155,
      "ore": 1156,
      "▁no": 1157,
      "2018": 1158,
      "गर": 1159,
      "ంచ": 1160,
      "కు": 1161,
      "ire": 1162,
      "Indian": 1163,
      "ummit": 1164,
      "ountries": 1165,
      "ank": 1166,
      "ism": 1167,
      "▁Category:": 1168,
      "6.": 1169,
      "](https://te.wikipedia.org/wiki/భారతదేశం": 1170,
      "▁[↑](https://hi.wikipedia.org/wiki/भारत#cite_ref-": 1171,
      "plate": 1172,
      "60": 1173,
      "▁&": 1174,
      "](https://en.wikipedia.org/wiki/P": 1175,
      "_and_": 1176,
      "/https://": 1177,
      "_b": 1178,
      "▁University": 1179,
      "9.": 1180,
      "ेला": 1181,
      "ను": 1182,
      "పూ": 1183,
      "titu": 1184,
      "ill": 1185,
      "eral": 1186,
      "ass": 1187,
      "ile": 1188,
      "*](https://books.google.com/books?id=": 1189,
      "हा": 1190,
      "▁*[": 1191,
      "-6": 1192,
      "▁\"T": 1193,
      "inis": 1194,
      "nment": 1195,
      "భా": 1196,
      "ations": 1197,
      "4.": 1198,
      "y_": 1199,
      "ata": 1200,
      "ai": 1201,
      "48": 1202,
      "कार": 1203,
      "पर": 1204,
      "▁[P": 1205,
      "▁कर": 1206,
      "ंग्रे": 1207,
      "istory": 1208,
      "ord": 1209,
      "ture": 1210,
      "hin": 1211,
      "](https://www.": 1212,
      "Hind": 1213,
      "क्त": 1214,
      "िर": 1215,
      "ोल": 1216,
      "ప్ర": 1217,
      "33": 1218,
      "कि": 1219,
      "मी": 1220,
      "ద్": 1221,
      "ింద": 1222,
      "▁was": 1223,
      ".jp": 1224,
      "ati": 1225,
      "▁st": 1226,
      "ubl": 1227,
      "▁\"List": 1228,
      "▁ఉ": 1229,
      "हिन्द": 1230,
      "45": 1231,
      "ard": 1232,
      "▁de": 1233,
      "Stein": 1234,
      "▁\"E": 1235,
      "se": 1236,
      "ंध": 1237,
      "ेष": 1238,
      "ం:": 1239,
      "](https://hi.wikipedia.org/wiki/म": 1240,
      "language": 1241,
      "ke": 1242,
      ".jpg)": 1243,
      "port": 1244,
      "ी\")": 1245,
      "▁ಹ": 1246,
      "ाना": 1247,
      "▁अन": 1248,
      "sher": 1249,
      "▁\"G": 1250,
      "arget": 1251,
      "ani": 1252,
      "▁language": 1253,
      "द्": 1254,
      "से": 1255,
      "▁ఆ": 1256,
      "▁an": 1257,
      "▁क्षेत्र": 1258,
      "ust": 1259,
      "▁ex": 1260,
      "iss": 1261,
      "hm": 1262,
      "ue": 1263,
      "್ಟ": 1264,
      "ಲ್ಲಿ": 1265,
      "%2C": 1266,
      ".jpg/": 1267,
      "CS": 1268,
      "43": 1269,
      "र्म": 1270,
      "pr": 1271,
      "htm": 1272,
      "ts": 1273,
      "List_of_": 1274,
      "▁are": 1275,
      "धान": 1276,
      "वा": 1277,
      "ोत": 1278,
      "ಕ್": 1279,
      "india.gov": 1280,
      "anguages": 1281,
      "cy": 1282,
      "oc": 1283,
      "](https://en.wikipedia.org/wiki/A": 1284,
      "भि": 1285,
      "श्": 1286,
      "▁ర": 1287,
      "\").\r\n": 1288,
      "ಾನ": 1289,
      "▁ಕ": 1290,
      "▁3": 1291,
      "▁2011": 1292,
      "धार": 1293,
      "ृत": 1294,
      "▁\"D": 1295,
      "▁ने": 1296,
      "](https://en.wikipedia.org/wiki/E": 1297,
      "other": 1298,
      "▁[G": 1299,
      "మా": 1300,
      "▁సా": 1301,
      "्रा": 1302,
      "భారతీయ": 1303,
      "_s": 1304,
      "df": 1305,
      "als": 1306,
      "వా": 1307,
      "विशेष": 1308,
      "ical": 1309,
      "46": 1310,
      "▁ವ": 1311,
      "](https://en.wikipedia.org/wiki/T": 1312,
      "▁Press": 1313,
      "_T": 1314,
      "के": 1315,
      "రు": 1316,
      "लेख": 1317,
      "AJ": 1318,
      "/http://": 1319,
      "8.": 1320,
      "80": 1321,
      "▁it": 1322,
      "▁(P": 1323,
      "onom": 1324,
      "BAJ": 1325,
      "QBAJ": 1326,
      "▁ನ": 1327,
      "▁[अ": 1328,
      "▁Hind": 1329,
      "2010": 1330,
      "ingh": 1331,
      "ib": 1332,
      "ex": 1333,
      "వి": 1334,
      "ష్ట": 1335,
      "▁१": 1336,
      "ian": 1337,
      "ార్": 1338,
      "ीय_": 1339,
      "పూ.": 1340,
      "ಂತ": 1341,
      "ರಿ": 1342,
      "▁V": 1343,
      "onstitu": 1344,
      "_Asia": 1345,
      "5.": 1346,
      "DP": 1347,
      "77": 1348,
      "rad": 1349,
      "ंद": 1350,
      "ंत्र": 1351,
      "ूल": 1352,
      "ेल": 1353,
      "▁\"अ": 1354,
      "lop": 1355,
      "▁ति": 1356,
      "క్ష": 1357,
      "udd": 1358,
      "▁एक": 1359,
      "mp": 1360,
      "ine": 1361,
      "ford": 1362,
      "National": 1363,
      "ate_": 1364,
      "](https://en.wikipedia.org/wiki/D": 1365,
      "▁[भारत": 1366,
      "▁पु": 1367,
      "స్థ": 1368,
      "రిత్ర": 1369,
      "ತ್ತು": 1370,
      "विशेष:": 1371,
      "ik": 1372,
      "aki": 1373,
      "end": 1374,
      "▁whi": 1375,
      "978-0-19": 1376,
      "39": 1377,
      "49": 1378,
      "ोग": 1379,
      "a\")": 1380,
      "tim": 1381,
      ").\r\n": 1382,
      "eng": 1383,
      "tics": 1384,
      "AAQBAJ": 1385,
      "ಗಳು": 1386,
      "_R": 1387,
      "िण": 1388,
      "ern": 1389,
      "ess": 1390,
      "स्तान": 1391,
      "xford": 1392,
      "oli": 1393,
      "న్న": 1394,
      "gion": 1395,
      "ame": 1396,
      "▁con": 1397,
      "cl": 1398,
      "3.": 1399,
      "▁\"स": 1400,
      "MetcalfMetcalf": 1401,
      "_1": 1402,
      "_B": 1403,
      "▁[2": 1404,
      "1)": 1405,
      "ीप": 1406,
      "omp": 1407,
      "lec": 1408,
      "stan": 1409,
      "artic": 1410,
      "new": 1411,
      "▁U": 1412,
      "lig": 1413,
      "▁\"R": 1414,
      "▁प्रदेश": 1415,
      "क्षिण": 1416,
      "RI": 1417,
      "▁tr": 1418,
      ".pdf": 1419,
      ".pdf)": 1420,
      "DF": 1421,
      "-1)": 1422,
      "गमन": 1423,
      "थि": 1424,
      "▁[स": 1425,
      "vi": 1426,
      "▁[D": 1427,
      "icial": 1428,
      "ric": 1429,
      "ven": 1430,
      "ದೇ": 1431,
      "▁ಅ": 1432,
      "▁ಬ": 1433,
      "ated": 1434,
      "द्य": 1435,
      "नी": 1436,
      "ी_स": 1437,
      "](https://te.wikipedia.org/wiki/భారతదేశం#cite_": 1438,
      "▁तिथि": 1439,
      "gen": 1440,
      "rou": 1441,
      "▁[1": 1442,
      "ers": 1443,
      "ult": 1444,
      "ँच": 1445,
      "यु": 1446,
      "ून": 1447,
      "గా": 1448,
      "pend": 1449,
      "tral": 1450,
      "2009": 1451,
      "](https://kn.wikipedia.org/wiki/ಭಾರತ": 1452,
      "United": 1453,
      "ದೇಶ": 1454,
      "ath": 1455,
      "▁(PDF": 1456,
      ",_": 1457,
      "ark": 1458,
      "](https://en.wikipedia.org/wiki/G": 1459,
      "](https://en.wikipedia.org/wiki/R": 1460,
      "ere": 1461,
      "ంట": 1462,
      "కి": 1463,
      "▁ख": 1464,
      "▁तिथि:": 1465,
      "ition": 1466,
      "▁5": 1467,
      "ef": 1468,
      "his": 1469,
      "bot": 1470,
      "dus": 1471,
      "▁which": 1472,
      "ob": 1473,
      "మ్రా": 1474,
      "▁भारतीय": 1475,
      "ష్ట్ర": 1476,
      "_N": 1477,
      "▁[![": 1478,
      "▁[E": 1479,
      "ties": 1480,
      "les": 1481,
      "au": 1482,
      "जन": 1483,
      "ढ़": 1484,
      "धिक": 1485,
      "ంత": 1486,
      "ತಿ": 1487,
      "ರು": 1488,
      "▁अभि": 1489,
      "▁देश": 1490,
      "▁अभिगमन": 1491,
      "-p": 1492,
      "250": 1493,
      "out": 1494,
      "000": 1495,
      "▁[Archived": 1496,
      ".nic": 1497,
      "albot": 1498,
      "cont": 1499,
      "fe": 1500,
      "धर्म": 1501,
      "्री": 1502,
      "्रोत": 1503,
      "▁South": 1504,
      "▁जन": 1505,
      "▁तथा": 1506,
      "ountry": 1507,
      "▁\"भारतीय": 1508,
      "ublic": 1509,
      "▁De": 1510,
      "ಸಂ": 1511,
      "amil": 1512,
      "ती": 1513,
      "त्": 1514,
      "बर": 1515,
      "పు": 1516,
      "▁च": 1517,
      "▁\"क": 1518,
      "▁हैं।": 1519,
      "▁[T": 1520,
      "](https://en.wikipedia.org/wiki/List_of_": 1521,
      "▁that": 1522,
      "velop": 1523,
      "-s": 1524,
      "Asher": 1525,
      "हर": 1526,
      "ूर्व": 1527,
      "्ल": 1528,
      "ಷ್ಟ": 1529,
      "ಾಗ": 1530,
      "▁న": 1531,
      "▁[R": 1532,
      "85": 1533,
      "▁India's": 1534,
      "_G": 1535,
      "▁199": 1536,
      "▁has": 1537,
      "वं": 1538,
      "మి": 1539,
      "ాన": 1540,
      "ange": 1541,
      "ree": 1542,
      "](https://hi.wikipedia.org/wiki/क": 1543,
      "▁pro": 1544,
      "स्तक": 1545,
      "पुस्तक": 1546,
      "विशेष:पुस्तक": 1547,
      "्रोत/": 1548,
      "4)": 1549,
      "territ": 1550,
      "0%": 1551,
      "ty": 1552,
      ")\")": 1553,
      "मान": 1554,
      "పా": 1555,
      "▁ఇ": 1556,
      "▁త": 1557,
      "ous": 1558,
      "ight": 1559,
      "िका": 1560,
      "▁जा": 1561,
      "राष्ट्रीय": 1562,
      "భాష": 1563,
      "द्ध": 1564,
      "▁–": 1565,
      "AAQBAJ&pg=PA": 1566,
      "▁\"N": 1567,
      "econom": 1568,
      ".nic.in/": 1569,
      "दी": 1570,
      "रकार": 1571,
      "हार": 1572,
      "ಿಕ": 1573,
      "](https://hi.wikipedia.org/wiki/स": 1574,
      "aste": 1575,
      "पुर": 1576,
      "RICS": 1577,
      "](https://kn.wikipedia.org/wiki/ಭಾರತ#cite_": 1578,
      "sv": 1579,
      "velopment": 1580,
      "_p": 1581,
      "census": 1582,
      "▁7": 1583,
      "2)": 1584,
      "పాల": 1585,
      "లీ": 1586,
      "▁राज": 1587,
      "▁[क": 1588,
      "▁\"ब": 1589,
      "log": 1590,
      "10.": 1591,
      "विश्व": 1592,
      "▁इस": 1593,
      "india-": 1594,
      "ile:": 1595,
      "sland": 1596,
      "ase": 1597,
      "978-0-5": 1598,
      "html": 1599,
      "idge": 1600,
      "riti": 1601,
      "▁దేశ": 1602,
      "▁\"In": 1603,
      "▁मेला": 1604,
      "స్తా": 1605,
      "ali": 1606,
      "-d": 1607,
      "62": 1608,
      "duc": 1609,
      "hr": 1610,
      "37": 1611,
      "▁[N": 1612,
      "67": 1613,
      "File:": 1614,
      "गु": 1615,
      "వర్": 1616,
      "ాయ": 1617,
      "ಂಗ": 1618,
      "ಂಡ": 1619,
      "ಿಂದ": 1620,
      "▁स्": 1621,
      "रालेख": 1622,
      "\"](https://web.archive.org/web/201": 1623,
      "hy": 1624,
      "ost": 1625,
      "_E": 1626,
      "world": 1627,
      "▁at": 1628,
      "ission": 1629,
      "hist": 1630,
      "\"\r\n": 1631,
      "3)": 1632,
      "ove": 1633,
      "ा_": 1634,
      "िव": 1635,
      "▁\"प": 1636,
      "ack": 1637,
      "▁हु": 1638,
      "_की_स": 1639,
      "▁वर्": 1640,
      "_में": 1641,
      "ames": 1642,
      "World": 1643,
      "ಸಿ": 1644,
      "▁4": 1645,
      "್ರಾ": 1646,
      "iki": 1647,
      "▁2014": 1648,
      "MetcalfMetcalf2006": 1649,
      "PP": 1650,
      "ध्य": 1651,
      "्च": 1652,
      "▁[ब": 1653,
      "](https://hi.wikipedia.org/wiki/अ": 1654,
      "र्थ": 1655,
      "स्क": 1656,
      "ंग्रेज़": 1657,
      "mpire": 1658,
      "మ్రాజ్యం": 1659,
      "रालेखित": 1660,
      "12": 1661,
      "hand": 1662,
      "▁[K": 1663,
      "ritish": 1664,
      "-m": 1665,
      "2004": 1666,
      "65": 1667,
      "ज्": 1668,
      "](File:": 1669,
      "](https://en.wikipedia.org/wiki/N": 1670,
      "దేశ్": 1671,
      "▁भी": 1672,
      "onstitution": 1673,
      "arg": 1674,
      "▁pe": 1675,
      "isation": 1676,
      "elhi": 1677,
      "1998": 1678,
      "_भारत": 1679,
      "थान": 1680,
      "हास": 1681,
      "िट": 1682,
      "िश": 1683,
      "ం](https://te.wikipedia.org/wiki/": 1684,
      "nolog": 1685,
      "rap": 1686,
      "bridge": 1687,
      "चित्र": 1688,
      "india.gov.in/": 1689,
      "IN": 1690,
      "na": 1691,
      "▁\"The": 1692,
      "](https://en.wikipedia.org/wiki/India#cite_ref-FOOTNOTE": 1693,
      "ಷ್ಟ್ರ": 1694,
      "..": 1695,
      "2007": 1696,
      "ambridge": 1697,
      "hel": 1698,
      "/https://www.": 1699,
      "qu": 1700,
      "द्र": 1701,
      "फ़": 1702,
      "ुख": 1703,
      "ంబ": 1704,
      "టి": 1705,
      "▁[the": 1706,
      "](https://hi.wikipedia.org/wiki/ब": 1707,
      "ope": 1708,
      "ome": 1709,
      "outh_Asia": 1710,
      "###": 1711,
      "lection": 1712,
      "ah": 1713,
      "ach": 1714,
      "oh": 1715,
      "▁v": 1716,
      "\")*": 1717,
      "gover": 1718,
      "do-": 1719,
      "शिया": 1720,
      "ంలో": 1721,
      "ಜ್ಯ": 1722,
      "](https://hi.wikipedia.org/wiki/भारत_में": 1723,
      "್ಯಾ": 1724,
      "స్తాన్": 1725,
      "▁\"K": 1726,
      "ury": 1727,
      "1,": 1728,
      "6)": 1729,
      "usic": 1730,
      "plate_": 1731,
      "▁its": 1732,
      "times": 1733,
      "roup": 1734,
      "](https://en.wikipedia.org/wiki/In": 1735,
      "yson": 1736,
      "ीन": 1737,
      "గు": 1738,
      "డు": 1739,
      "నే": 1740,
      "్చ": 1741,
      "▁सम": 1742,
      "▁हि": 1743,
      "त्तर": 1744,
      "ram": 1745,
      "▁\"Indian": 1746,
      "ater": 1747,
      "ansk": 1748,
      "conomy": 1749,
      "120": 1750,
      "_m": 1751,
      "ದೆ": 1752,
      "್ವ": 1753,
      "arl": 1754,
      "▁ಮತ್ತು": 1755,
      "\\_S": 1756,
      "मिल": 1757,
      "ुस": 1758,
      "మూ": 1759,
      "▁[978-1": 1760,
      "▁सूची": 1761,
      "్రీ": 1762,
      "▁History": 1763,
      "జాత": 1764,
      "-b": 1765,
      "-t": 1766,
      "RC": 1767,
      "ple": 1768,
      "▁te": 1769,
      "inent": 1770,
      "ant": 1771,
      "2003": 1772,
      "_by_": 1773,
      "05": 1774,
      "ure": 1775,
      "ते": 1776,
      "wn": 1777,
      "anskrit": 1778,
      "Oxford": 1779,
      "dit": 1780,
      "lish": 1781,
      "रु": 1782,
      "ूच": 1783,
      "ूर": 1784,
      "లా": 1785,
      "▁un": 1786,
      "▁[प": 1787,
      "ign": 1788,
      "ulture": 1789,
      "ంగా": 1790,
      "▁ಪ್ರ": 1791,
      "mer": 1792,
      "any": 1793,
      "cies": 1794,
      "ashm": 1795,
      "template": 1796,
      "ashmir": 1797,
      "Dw": 1798,
      "orth": 1799,
      "ond": 1800,
      "▁(201": 1801,
      "akistan": 1802,
      "led": 1803,
      "alay": 1804,
      "uring": 1805,
      "कर": 1806,
      "డ్": 1807,
      "ిల్": 1808,
      "▁జ": 1809,
      "alth": 1810,
      "▁सरकार": 1811,
      "olog": 1812,
      "une": 1813,
      "/c": 1814,
      "s\")": 1815,
      "ಜನ": 1816,
      "ೆಯ": 1817,
      "eneral": 1818,
      "anc": 1819,
      "▁18": 1820,
      "ound": 1821,
      "ರಾಷ್ಟ್ರ": 1822,
      "mund": 1823,
      "ice": 1824,
      "▁languages": 1825,
      "othermund": 1826,
      "E0%": 1827,
      "_language": 1828,
      "पाल": 1829,
      "हु": 1830,
      "ा:": 1831,
      "ैद": 1832,
      "ोक": 1833,
      "లి": 1834,
      "▁घ": 1835,
      "▁२": 1836,
      "▁[L": 1837,
      "\"))\r\n": 1838,
      "స్త్ర": 1839,
      "▁तक": 1840,
      "साँच": 1841,
      "किस्तान": 1842,
      "59": 1843,
      "▁ad": 1844,
      "](https://en.wikipedia.org/wiki/K": 1845,
      "urope": 1846,
      "irst": 1847,
      ".jpg)\r\n": 1848,
      "7)": 1849,
      "_d": 1850,
      "ision": 1851,
      "ulke": 1852,
      "pur": 1853,
      "ug": 1854,
      "▁2021": 1855,
      "ommission": 1856,
      "radesh": 1857,
      "government": 1858,
      "aw": 1859,
      "्ड": 1860,
      "కా": 1861,
      "ణా": 1862,
      "దక్ష": 1863,
      "ధిక": 1864,
      "ೀಯ": 1865,
      "▁8": 1866,
      "](https://hi.wikipedia.org/wiki/भारतीय_": 1867,
      "▁ప్రా": 1868,
      "▁వి": 1869,
      "సియా": 1870,
      "overnment": 1871,
      "ನ್ನ": 1872,
      "](http://www.": 1873,
      "250px-": 1874,
      "978-0-521": 1875,
      "జాతీయ": 1876,
      "0.": 1877,
      "4%": 1878,
      "_F": 1879,
      "usin": 1880,
      "emplate": 1881,
      "ograp": 1882,
      "69": 1883,
      "[![": 1884,
      "gan": 1885,
      "▁sub": 1886,
      "odern": 1887,
      "AARC": 1888,
      "Singh": 1889,
      "\"](https://www.": 1890,
      "न\")": 1891,
      "सम": 1892,
      "వం": 1893,
      "▁[In": 1894,
      "▁\"L": 1895,
      "ों_की_स": 1896,
      "▁సం": 1897,
      "▁చరిత్ర": 1898,
      "श्चि": 1899,
      "▁were": 1900,
      ".;": 1901,
      ".sv": 1902,
      "_c": 1903,
      "ry": 1904,
      "ಖ್ಯ": 1905,
      "▁ಆ": 1906,
      "_and_S": 1907,
      "Stein2010": 1908,
      "▁le": 1909,
      "▁error": 1910,
      "\\_and": 1911,
      "\\_errors": 1912,
      "tical": 1913,
      "doi": 1914,
      "help": 1915,
      "lim": 1916,
      "rim": 1917,
      "ओं": 1918,
      "गण": 1919,
      "ीं": 1920,
      "ूप": 1921,
      "డి": 1922,
      "](https://hi.wikipedia.org/wiki/प": 1923,
      "]](https://hi.wikipedia.org/wiki/भारत#cite_note-FOOTNOTE": 1924,
      "illion": 1925,
      "a,": 1926,
      "continent": 1927,
      "erv": 1928,
      "conomic": 1929,
      "-in": 1930,
      "▁errors": 1931,
      "▁([help": 1932,
      "ystem": 1933,
      "▁errors\"))\r\n": 1934,
      "68": 1935,
      "रब": 1936,
      "्स": 1937,
      "ంధ": 1938,
      "on-": 1939,
      "ese": 1940,
      "▁किया": 1941,
      "isher": 1942,
      "స్త": 1943,
      "नाम": 1944,
      "aint": 1945,
      "ರ್ಮ": 1946,
      "_के_राज्य": 1947,
      "▁రాజ్యం": 1948,
      "Stein1998": 1949,
      "▁సామ్రాజ్యం": 1950,
      "ंदिर": 1951,
      "వర్గ": 1952,
      "దక్షి": 1953,
      "Singh2009": 1954,
      "uary": 1955,
      "ite": 1956,
      "national": 1957,
      "oi": 1958,
      "yn": 1959,
      "uly": 1960,
      "▁Hindu": 1961,
      "val": 1962,
      "▁ha": 1963,
      "old": 1964,
      "56": 1965,
      "_the": 1966,
      "_प्र": 1967,
      "जी": 1968,
      "दक्षिण": 1969,
      "ष्": 1970,
      "దీ": 1971,
      "▁\"H": 1972,
      "▁countries": 1973,
      "्वीप": 1974,
      "ండి": 1975,
      "ternational": 1976,
      "ज्ञ": 1977,
      "వర్గం:": 1978,
      "-l": 1979,
      "Talbot": 1980,
      "entral": 1981,
      "ise": 1982,
      "2008": 1983,
      "ace": 1984,
      "AsherTalbot": 1985,
      "34": 1986,
      "ail": 1987,
      "ಸ್ತ": 1988,
      "ined": 1989,
      "▁cent": 1990,
      "age/": 1991,
      ".jpg)](File:": 1992,
      "fn_": 1993,
      "▁template": 1994,
      "omb": 1995,
      "no-t": 1996,
      "\\_no-t": 1997,
      "▁St": 1998,
      "▁Sfn": 1999,
      "▁2007": 2000,
      "template_": 2001,
      "](https://web.archive.org/web/20": 2002,
      "▁target": 2003,
      "fn\\_no-t": 2004,
      "arget\\_errors": 2005,
      "\\_Sfn\\_no-t": 2006,
      "_and_Sfn_": 2007,
      "▁error:": 2008,
      "\\_and\\_Sfn\\_no-t": 2009,
      "template_errors": 2010,
      "▁target:": 2011,
      "arget\\_errors\r\n": 2012,
      "_and_Sfn_template_errors": 2013,
      "\\_and\\_Sfn\\_no-target\\_errors\r\n": 2014,
      "mber": 2015,
      "ंजा": 2016,
      "ख्या": 2017,
      "वन": 2018,
      "తర": 2019,
      "ది": 2020,
      "▁బ": 2021,
      "न्न": 2022,
      "▁भाषा\")": 2023,
      "▁खाना": 2024,
      "ों_की_सूची": 2025,
      "ंजाब": 2026,
      "att": 2027,
      "\").[[": 2028,
      "ower": 2029,
      "▁CITEREF": 2030,
      "बसे": 2031,
      "ुल": 2032,
      "ట్": 2033,
      "ిత": 2034,
      "ಭಾ": 2035,
      "ಿತ": 2036,
      "](https://en.wikipedia.org/wiki/Indian_": 2037,
      "act": 2038,
      "ेंद्र": 2039,
      "](https://hi.wikipedia.org/wiki/भारत_क": 2040,
      "▁region": 2041,
      "peration": 2042,
      "▁गया": 2043,
      "▁Asian": 2044,
      "▁राज्यों": 2045,
      "2005": 2046,
      "pril": 2047,
      "%E0%": 2048,
      "GDP": 2049,
      "shi": 2050,
      "▁\"F": 2051,
      "ats": 2052,
      "▁li": 2053,
      "1_": 2054,
      "▁sfn": 2055,
      "▁pl": 2056,
      "umber": 2057,
      "▁wh": 2058,
      "_చ": 2059,
      "o-": 2060,
      "uk": 2061,
      "चल": 2062,
      "बंध": 2063,
      "ం\")": 2064,
      "▁\"మ": 2065,
      "▁हो": 2066,
      "▁17": 2067,
      "▁नि": 2068,
      "न्द्र": 2069,
      "▁[मूल": 2070,
      "ियों": 2071,
      "ింది.": 2072,
      "5)": 2073,
      "C&pg=PA": 2074,
      "countries": 2075,
      "kno": 2076,
      "uman": 2077,
      "[![](https://upload.wikimedia.org/wikipedia/commons/thumb/": 2078,
      "cre": 2079,
      "ेव": 2080,
      "ಿಯ": 2081,
      "](https://en.wikipedia.org/wiki/L": 2082,
      "▁An": 2083,
      "ಸ್ಥ": 2084,
      "data": 2085,
      "gis": 2086,
      "nion": 2087,
      "ब्": 2088,
      "िन": 2089,
      "▁ఎ": 2090,
      "▁[మ": 2091,
      "ari": 2092,
      "▁सबसे": 2093,
      "ालय": 2094,
      "स्था": 2095,
      "चीन": 2096,
      "▁(సా.శ.పూ.": 2097,
      "▁पुरालेखित": 2098,
      "चित्र:": 2099,
      "▁सूची\")": 2100,
      "▁पुरालेखित।": 2101,
      "hind": 2102,
      "cient": 2103,
      "▁Archived": 2104,
      "india/": 2105,
      "matics": 2106,
      "Hindi": 2107,
      "Edit": 2108,
      "Page/": 2109,
      "ref-1": 2110,
      "note-1": 2111,
      "inistry": 2112,
      "EditPage/": 2113,
      "_L": 2114,
      "mb": 2115,
      "ck": 2116,
      "fter": 2117,
      "lass": 2118,
      "year": 2119,
      "जरा": 2120,
      "ैन": 2121,
      "ధ్య": 2122,
      "ನೇ": 2123,
      "▁గ": 2124,
      "▁శ": 2125,
      "▁ಇ": 2126,
      "▁territ": 2127,
      "ork": 2128,
      "ories": 2129,
      "](https://hi.wikipedia.org/wiki/चित्र:": 2130,
      "off": 2131,
      "್ರಿ": 2132,
      "ियाँ": 2133,
      "ంద్ర": 2134,
      "क्ति": 2135,
      "▁25": 2136,
      "▁July": 2137,
      "aman": 2138,
      "▁World": 2139,
      "news/": 2140,
      "](https://en.wikipedia.org/wiki/H": 2141,
      "ood": 2142,
      "▁ch": 2143,
      "emb": 2144,
      "earch": 2145,
      "58": 2146,
      "प्त": 2147,
      "ोर": 2148,
      "।[[": 2149,
      "ైన": 2150,
      "▁[उ": 2151,
      "tec": 2152,
      "](https://en.wikipedia.org/wiki/F": 2153,
      "](https://te.wikipedia.org/wiki/మ": 2154,
      "▁10": 2155,
      "▁పే": 2156,
      "▁जिस": 2157,
      "▁प्रा": 2158,
      "▁this": 2159,
      "स्थान": 2160,
      "nglish": 2161,
      "ुसार": 2162,
      "121": 2163,
      "Wiki": 2164,
      "air": 2165,
      "ms": 2166,
      "tal": 2167,
      "tive": 2168,
      "2014": 2169,
      "_Indian_": 2170,
      "ನಾ": 2171,
      "ವಿ": 2172,
      "▁ಭಾರತದ": 2173,
      "▁ಸಂ": 2174,
      "ligion": 2175,
      "DwAAQBAJ&pg=PA": 2176,
      "_and_Sfn_template_errors?action=edit&redlink=1": 2177,
      "ಭಾಷ": 2178,
      "▁21": 2179,
      "▁[F": 2180,
      "▁April": 2181,
      "ongress": 2182,
      "100": 2183,
      "Rothermund": 2184,
      "च्च": 2185,
      "ण्ड": 2186,
      "वरी": 2187,
      "ట్ట": 2188,
      "హింద": 2189,
      "▁భారతదేశం": 2190,
      "▁India,": 2191,
      "](https://hi.wikipedia.org/wiki/भारत#CITEREF": 2192,
      "▁2010": 2193,
      "_सं": 2194,
      "ంగ్": 2195,
      "▁है।\r\n": 2196,
      "▁साथ": 2197,
      "ద్ధ": 2198,
      "](https://hi.wikipedia.org/wiki/भारत_में_": 2199,
      "330": 2200,
      "57": 2201,
      "uch": 2202,
      "ugh": 2203,
      "▁[H": 2204,
      "/http://www.": 2205,
      ".\"\r\n": 2206,
      "44": 2207,
      "cto": 2208,
      "ution": 2209,
      "197": 2210,
      "▁**[": 2211,
      "ople": 2212,
      "ctober": 2213,
      "51": 2214,
      "Kulke": 2215,
      "man": 2216,
      "low": 2217,
      "▁New": 2218,
      "ommissioner": 2219,
      "आई": 2220,
      "ाम": 2221,
      "ించ": 2222,
      "ಧರ್ಮ": 2223,
      "▁9": 2224,
      "▁ఒ": 2225,
      "▁था": 2226,
      "▁धर्म": 2227,
      "▁భాష": 2228,
      "▁ಜನ": 2229,
      "▁[క": 2230,
      "▁\"श्रेणी:Harv": 2231,
      "](https://hi.wikipedia.org/wiki/श्रेणी:Harv": 2232,
      "▁सि": 2233,
      "▁cons": 2234,
      "ాల్": 2235,
      "याल": 2236,
      "▁Tim": 2237,
      "्वर": 2238,
      "▁आधार": 2239,
      "tember": 2240,
      "▁./Category:": 2241,
      "▁./श्रेणी:Harv": 2242,
      "eptember": 2243,
      "▁संघ": 2244,
      "](Special:BookSources/978-1": 2245,
      "▁\"Special:BookSources/978-1": 2246,
      "▁Island": 2247,
      "पाकिस्तान": 2248,
      "▁not": 2249,
      "▁([help](https://hi.wikipedia.org/wiki/श्रेणी:Harv": 2250,
      "▁./श्रेणी:Harv\\_and\\_Sfn\\_no-target\\_errors\r\n": 2251,
      "▁([help](https://hi.wikipedia.org/wiki/श्रेणी:Harv_and_Sfn_template_errors?action=edit&redlink=1": 2252,
      ",000": 2253,
      "arch": 2254,
      "▁Pres": 2255,
      "argest": 2256,
      "ombined": 2257,
      "aper": 2258,
      "▁Empire": 2259,
      "ative": 2260,
      "emplate:": 2261,
      "/0": 2262,
      "/artic": 2263,
      "8/": 2264,
      "9)": 2265,
      "ule": 2266,
      "line": 2267,
      "▁Asia\")": 2268,
      "]](https://te.wikipedia.org/wiki/భారతదేశం#cite_": 2269,
      "की": 2270,
      "णा": 2271,
      "तंत्र": 2272,
      "्ला": 2273,
      "చ్చ": 2274,
      "జీ": 2275,
      "ేంద్ర": 2276,
      "▁विश्व": 2277,
      "ority": 2278,
      "▁[W": 2279,
      "▁\"उ": 2280,
      "▁\"క": 2281,
      "](https://hi.wikipedia.org/wiki/उ": 2282,
      "्यट": 2283,
      "rov": 2284,
      "ाली": 2285,
      "▁October": 2286,
      "fficial": 2287,
      "श्मी": 2288,
      "ledge": 2289,
      "1/": 2290,
      "▁government": 2291,
      "ori": 2292,
      "iron": 2293,
      ".jpg/250px-": 2294,
      "KulkeRothermund": 2295,
      "\"](https://": 2296,
      "uj": 2297,
      "ದಲ್ಲಿ": 2298,
      "ವರ್": 2299,
      "▁Pl": 2300,
      "s.[[": 2301,
      "ರಾಜ್ಯ": 2302,
      "ನ್ನು": 2303,
      "ive": 2304,
      "rd": 2305,
      "▁6": 2306,
      "pt": 2307,
      "ंब": 2308,
      "गढ़": 2309,
      "ज्य": 2310,
      "तमिल": 2311,
      "दा": 2312,
      "भी": 2313,
      "वे": 2314,
      "ांग": 2315,
      "ेर": 2316,
      "త్య": 2317,
      "బ్": 2318,
      "మీ": 2319,
      "्रिट": 2320,
      "ed.": 2321,
      "ide": 2322,
      "](https://te.wikipedia.org/wiki/ద": 2323,
      "్యా": 2324,
      "▁अधिक": 2325,
      "▁26": 2326,
      "రాష్ట్ర": 2327,
      "तिहास": 2328,
      "▁June": 2329,
      "▁./వర్గం:": 2330,
      "Hindu": 2331,
      "▁language\")": 2332,
      "also": 2333,
      "▁१९": 2334,
      "युक्त": 2335,
      "▁(PDF)": 2336,
      "स्कृत": 2337,
      "▁हिन्द": 2338,
      "-f": 2339,
      "2-0)": 2340,
      "Dyson": 2341,
      "dom": 2342,
      "▁em": 2343,
      "king": 2344,
      "lear": 2345,
      "▁system": 2346,
      "▁\"South": 2347,
      "ummit\")": 2348,
      "7-1": 2349,
      "Combined": 2350,
      "ect": 2351,
      "▁En": 2352,
      "here": 2353,
      "viron": 2354,
      "edi": 2355,
      "▁off": 2356,
      "ade": 2357,
      "oll": 2358,
      "▁15": 2359,
      "▁16": 2360,
      "vironment": 2361,
      "में": 2362,
      "रे": 2363,
      "ంక": 2364,
      "ప్": 2365,
      "యు": 2366,
      "ದ್": 2367,
      "ಮು": 2368,
      "▁ಭಾರತ": 2369,
      "iament": 2370,
      "▁[J": 2371,
      "▁\"J": 2372,
      "▁मान": 2373,
      "▁2016": 2374,
      "rab": 2375,
      "▁बाद": 2376,
      "्वार": 2377,
      "िल्ल": 2378,
      "తంత్ర": 2379,
      "ಕ್ಷ": 2380,
      "्राज्य": 2381,
      "engal": 2382,
      "](https://te.wikipedia.org/wiki/భారతదేశం#cite_ref-": 2383,
      "ಾಗಿ": 2384,
      "arliament": 2385,
      "దక్షిణ": 2386,
      "ಭಾಷೆ": 2387,
      "]](https://te.wikipedia.org/wiki/భారతదేశం#cite_note-": 2388,
      "2_": 2389,
      "gy": 2390,
      "mar": 2391,
      "s-": 2392,
      "210": 2393,
      "brary": 2394,
      "▁us": 2395,
      "▁Pradesh": 2396,
      "row": 2397,
      "ortal": 2398,
      "▁[Archived](https://web.archive.org/web/201": 2399,
      "ology": 2400,
      "2%": 2401,
      "athe": 2402,
      "▁econom": 2403,
      "▁year": 2404,
      "\")*.": 2405,
      "ince": 2406,
      "](https://en.wikipedia.org/wiki/J": 2407,
      "▁into": 2408,
      "_Press": 2409,
      "uclear": 2410,
      "uropean": 2411,
      "/p": 2412,
      "_స": 2413,
      "_और": 2414,
      "एं": 2415,
      "वर्": 2416,
      "शास": 2417,
      "తము": 2418,
      "వే": 2419,
      "ష్": 2420,
      "ాన్": 2421,
      "time": 2422,
      "▁कार": 2423,
      "▁dis": 2424,
      "స్క": 2425,
      "क्षेत्र": 2426,
      "माण": 2427,
      "ड़ा": 2428,
      "▁शास": 2429,
      "म्ब": 2430,
      "▁साम": 2431,
      "▁यह": 2432,
      "▁[भारतीय": 2433,
      "ిల్లీ": 2434,
      "ographi": 2435,
      "▁have": 2436,
      "ज्ञान": 2437,
      "/A": 2438,
      "▁also": 2439,
      "one": 2440,
      "▁September": 2441,
      "07": 2442,
      "ocial": 2443,
      "por": 2444,
      "pic": 2445,
      "ವೇ": 2446,
      "್ಚ": 2447,
      "\")**": 2448,
      "anges": 2449,
      "▁during": 2450,
      "▁2022": 2451,
      "_summit": 2452,
      "Dyson2018": 2453,
      "uis": 2454,
      "ley": 2455,
      "▁2019": 2456,
      "india.gov.in": 2457,
      "▁[Archived](https://web.archive.org/web/20": 2458,
      "_In": 2459,
      "_भाषा": 2460,
      "तर": 2461,
      "ाट": 2462,
      "జి": 2463,
      "ధాన": 2464,
      "బె": 2465,
      "▁थ": 2466,
      "▁\"विशेष:पुस्तक": 2467,
      "](https://hi.wikipedia.org/wiki/ISBN_(identifier)": 2468,
      "](https://hi.wikipedia.org/wiki/विशेष:पुस्तक": 2469,
      "▁their": 2470,
      "▁स्रोत/": 2471,
      "▁पा": 2472,
      "ారు": 2473,
      "](https://hi.wikipedia.org/wiki/भारत_के_": 2474,
      "ember": 2475,
      "लाई": 2476,
      "_स्रोत/": 2477,
      "▁కా": 2478,
      "apit": 2479,
      "▁./श्रेणी:": 2480,
      "▁[ISBN](https://hi.wikipedia.org/wiki/ISBN_(identifier)": 2481,
      "_के_आ": 2482,
      "▁రాజ": 2483,
      "▁लि": 2484,
      "inister": 2485,
      "साँचा:": 2486,
      "श्चिम": 2487,
      "%E0%A": 2488,
      "ांग्ला": 2489,
      "](https://hi.wikipedia.org/wiki/विशेष:पुस्तक_स्रोत/": 2490,
      "jab": 2491,
      "ne": 2492,
      "oor": 2493,
      "par": 2494,
      "▁per": 2495,
      "idd": 2496,
      "▁first": 2497,
      "odi": 2498,
      "▁Press\").": 2499,
      "outledge": 2500,
      "%28": 2501,
      "_K": 2502,
      "_at": 2503,
      "encies": 2504,
      "annic": 2505,
      "▁India:": 2506,
      "tra": 2507,
      "▁population": 2508,
      "▁2018": 2509,
      "ritannic": 2510,
      "depend": 2511,
      "2-": 2512,
      "_3": 2513,
      "▁2023": 2514,
      "▁(PDF).": 2515,
      ".svg": 2516,
      "]](https://kn.wikipedia.org/wiki/ಭಾರತ#cite_": 2517,
      "ंप": 2518,
      "मुख": 2519,
      "దు": 2520,
      "మ్": 2521,
      "శ్": 2522,
      "ಕಿ": 2523,
      "ಗಣ": 2524,
      "ದಿ": 2525,
      "ಮಿ": 2526,
      "ರೆ": 2527,
      "ಹಿಂದ": 2528,
      "▁ದ": 2529,
      "▁राष्ट्रीय": 2530,
      "\")•": 2531,
      "2023": 2532,
      "ash": 2533,
      "](https://te.wikipedia.org/wiki/క": 2534,
      "▁part": 2535,
      "ural": 2536,
      "▁[↑](https://hi.wikipedia.org/wiki/भारत#cite_": 2537,
      "్యవ": 2538,
      "▁जु": 2539,
      "▁है,": 2540,
      "ेश्वर": 2541,
      "ayan": 2542,
      "ంది.": 2543,
      "▁उप": 2544,
      "▁यु": 2545,
      "gency": 2546,
      "त्प": 2547,
      "गुजरा": 2548,
      "history": 2549,
      "ूचना": 2550,
      "-in-": 2551,
      "_प्रदेश": 2552,
      "_చరిత్ర": 2553,
      "330px-": 2554,
      "्रिटिश": 2555,
      "3,": 2556,
      "ini": 2557,
      "cience": 2558,
      "▁Census": 2559,
      "usiness": 2560,
      "country": 2561,
      "fl": 2562,
      "India)": 2563,
      "▁se": 2564,
      "▁comp": 2565,
      "urr": 2566,
      "▁2024": 2567,
      "-80": 2568,
      "udden": 2569,
      "8)": 2570,
      "ban": 2571,
      "son": 2572,
      "ya": 2573,
      "wing": 2574,
      "▁[I": 2575,
      "ool": 2576,
      "hism": 2577,
      "31": 2578,
      "87": 2579,
      "_पर": 2580,
      "काल": 2581,
      "बाद": 2582,
      "रक्ष": 2583,
      "वाद": 2584,
      "ाष्ट्र": 2585,
      "ागर": 2586,
      "ोर्": 2587,
      "ఢిల్లీ": 2588,
      "పంచ": 2589,
      "–1": 2590,
      "▁[सं": 2591,
      "ారి": 2592,
      "▁Chin": 2593,
      "ween": 2594,
      "िक्ष": 2595,
      "etween": 2596,
      "chnolog": 2597,
      "▁world": 2598,
      "_मेला": 2599,
      "नेमा": 2600,
      "धार_पर": 2601,
      "द्योग": 2602,
      "हाराष्ट्र": 2603,
      "మూస": 2604,
      "_के_आधार_पर": 2605,
      "_के_आधार_पर_भारत": 2606,
      "-language": 2607,
      "estern": 2608,
      "▁Aug": 2609,
      "▁1,": 2610,
      "▁Pro": 2611,
      "▁form": 2612,
      "ishing": 2613,
      "▁August": 2614,
      "-19": 2615,
      "4-0)": 2616,
      "hp": 2617,
      "ote": 2618,
      "rac": 2619,
      "ಗ:": 2620,
      "▁class": 2621,
      "\\_with": 2622,
      "angl": 2623,
      "unjab": 2624,
      "▁2009": 2625,
      "-81": 2626,
      "1994": 2627,
      "▁ಹೆ": 2628,
      "ವರ್ಗ:": 2629,
      "gar": 2630,
      "van": 2631,
      "▁es": 2632,
      "ument": 2633,
      "▁Population": 2634,
      "pib": 2635,
      "एशिया": 2636,
      "ली": 2637,
      "వు": 2638,
      "▁wi": 2639,
      "▁\"O": 2640,
      "▁\"భారతీయ": 2641,
      "▁स्व": 2642,
      "▁मंदिर": 2643,
      "्यव": 2644,
      "adu": 2645,
      "▁Commissioner": 2646,
      "▁Ass": 2647,
      "▁Metcalf": 2648,
      "▁दक्षिण": 2649,
      "ंगा": 2650,
      "elig": 2651,
      "able": 2652,
      "ंग्रेज़ी": 2653,
      "▁subcontinent": 2654,
      "▁पुरालेखित।.": 2655,
      "▁जुलाई": 2656,
      "_के_आधार_पर_भारत_के_राज्य": 2657,
      "_University": 2658,
      "be": 2659,
      "iver": 2660,
      "ing\\_": 2661,
      "▁National": 2662,
      "978-0-19-8": 2663,
      "\".": 2664,
      "89": 2665,
      "ofindia": 2666,
      "▁2006": 2667,
      "\\_with\\_": 2668,
      "1-0)": 2669,
      "pp": 2670,
      "adition": 2671,
      "▁Act": 2672,
      "▁Sh": 2673,
      "ganisation": 2674,
      "CE": 2675,
      "eth": 2676,
      "hol": 2677,
      "ron": 2678,
      "tain": 2679,
      "तेल": 2680,
      "ीस": 2681,
      "००": 2682,
      "జన": 2683,
      "టు": 2684,
      "టె": 2685,
      "ಟಿ": 2686,
      "ಣಿ": 2687,
      "ತಂತ": 2688,
      "▁ಎ": 2689,
      "▁ರ": 2690,
      "▁नाम": 2691,
      "omen": 2692,
      "▁पूर्व": 2693,
      "entre": 2694,
      "amb": 2695,
      "▁अप": 2696,
      "नाग": 2697,
      "▁विक": 2698,
      "▁ಸಾ": 2699,
      "▁చె": 2700,
      "నాయ": 2701,
      "▁रूप": 2702,
      "–సా.శ.పూ.": 2703,
      "▁[↑](https://hi.wikipedia.org/wiki/भारत#cite_ref-FOOTNOTE": 2704,
      "▁ఆర్": 2705,
      "▁देशों": 2706,
      "పాలిత": 2707,
      "స్త్రం:": 2708,
      "▁ప్రాంత": 2709,
      "embly": 2710,
      "▁ಜನಸಂ": 2711,
      "ేంద్రపాలిత": 2712,
      "](https://te.wikipedia.org/wiki/దస్త్రం:": 2713,
      "ತಂತ್ರ": 2714,
      "3-0)": 2715,
      "_%28": 2716,
      "ident": 2717,
      "-17": 2718,
      "904": 2719,
      "▁Development": 2720,
      "-g": 2721,
      "/f": 2722,
      "_H": 2723,
      "ual": 2724,
      "▁res": 2725,
      "▁India\"),": 2726,
      "▁been": 2727,
      "_De": 2728,
      "censusindia.gov.in/": 2729,
      "-c": 2730,
      ".html": 2731,
      "_I": 2732,
      "dis": 2733,
      "▁[[": 2734,
      "eser": 2735,
      "▁but": 2736,
      "ters": 2737,
      "raven": 2738,
      "▁[*A": 2739,
      "irect": 2740,
      "iddle": 2741,
      "_University_Press": 2742,
      "&s": 2743,
      "2/": 2744,
      "75": 2745,
      "ok": 2746,
      "pu": 2747,
      "ंक": 2748,
      "टे": 2749,
      "धी": 2750,
      "ोन": 2751,
      "ఖ్య": 2752,
      "గో": 2753,
      "తో": 2754,
      "బి": 2755,
      "హి": 2756,
      "ार्": 2757,
      "▁कि": 2758,
      "▁Cambridge": 2759,
      "▁between": 2760,
      "ross": 2761,
      "imf": 2762,
      "ंगाल": 2763,
      "▁तट": 2764,
      "▁न्या": 2765,
      "▁एवं": 2766,
      "ffair": 2767,
      "-2)": 2768,
      "श्मीर": 2769,
      "స్కృ": 2770,
      "%E0%A4%": 2771,
      "्यवस्था": 2772,
      "64": 2773,
      "a/": 2774,
      "▁im": 2775,
      "edic": 2776,
      "andhi": 2777,
      "ode": 2778,
      ".jpg/330px-": 2779,
      "▁2014.\r\n": 2780,
      "cri": 2781,
      "ft": 2782,
      "fric": 2783,
      "ibrary": 2784,
      "ran": 2785,
      "ಂಧ": 2786,
      "ಗೆ": 2787,
      "ವಾ": 2788,
      "ಿಮ": 2789,
      "▁ಚ": 2790,
      "▁ಧರ್ಮ": 2791,
      "iation": 2792,
      "1947": 2793,
      "iles/": 2794,
      "▁more": 2795,
      "term": 2796,
      "Harle": 2797,
      "harma": 2798,
      "▁./ವರ್ಗ:": 2799,
      "ಂದಿ": 2800,
      "ಭಾರತದ_": 2801,
      "-20": 2802,
      "88": 2803,
      "ee": 2804,
      "rish": 2805,
      "▁al": 2806,
      "▁ac": 2807,
      "▁[3": 2808,
      "ature": 2809,
      "avid": 2810,
      "%2F": 2811,
      "ritannica": 2812,
      "-re": 2813,
      "2,": 2814,
      "Template:": 2815,
      "_ప": 2816,
      "_re": 2817,
      "ल\")": 2818,
      "सद": 2819,
      "హా": 2820,
      "ి.\r\n": 2821,
      "▁Y": 2822,
      "▁all": 2823,
      "▁ను": 2824,
      "▁జాతీయ": 2825,
      "▁[U": 2826,
      "▁[न": 2827,
      "▁\"द": 2828,
      "▁केंद्र": 2829,
      "्तर": 2830,
      "भाग": 2831,
      "trib": 2832,
      "▁1950": 2833,
      "▁Jan": 2834,
      ".php": 2835,
      "संख्या": 2836,
      "%20%20": 2837,
      "▁अनुसार": 2838,
      "▁प्रदेश\")": 2839,
      "view": 2840,
      "▁स्थ": 2841,
      "్యవస్థ": 2842,
      "censusindia.gov.in/2011": 2843,
      "mu": 2844,
      "oon": 2845,
      "pa": 2846,
      "public": 2847,
      "sl": 2848,
      "▁[Indian": 2849,
      "ones": 2850,
      "eration": 2851,
      "ouse": 2852,
      "trar": 2853,
      "▁co": 2854,
      "▁bec": 2855,
      "igh": 2856,
      "▁music": 2857,
      "berg": 2858,
      "▁century": 2859,
      "gistrar": 2860,
      ":[": 2861,
      "iz": 2862,
      ".org/10.": 2863,
      "▁\"W": 2864,
      "2024": 2865,
      "doi.org/10.": 2866,
      "_O": 2867,
      "▁$": 2868,
      "▁0.": 2869,
      "ering": 2870,
      "ures": 2871,
      "istan": 2872,
      "▁Th": 2873,
      "▁2020": 2874,
      "form": 2875,
      "umbai": 2876,
      ".png": 2877,
      "▁state": 2878,
      "chnology": 2879,
      "-le": 2880,
      "76": 2881,
      "_f": 2882,
      "_ಮ": 2883,
      "fic": 2884,
      "lang": 2885,
      "tates": 2886,
      "एँ": 2887,
      "एस": 2888,
      "खा": 2889,
      "गो": 2890,
      "चे": 2891,
      "लि": 2892,
      "सी": 2893,
      "ैक": 2894,
      "ोड़": 2895,
      "డా": 2896,
      "దా": 2897,
      "బడ": 2898,
      "మే": 2899,
      "రణ": 2900,
      "ಪಾ": 2901,
      "ಪ್ರ": 2902,
      "▁೧": 2903,
      "▁లో": 2904,
      "▁[हिन्द": 2905,
      "▁\"I": 2906,
      "ार्ट": 2907,
      "▁मूल": 2908,
      "978-81": 2909,
      "▁dance": 2910,
      "विधान": 2911,
      "▁जो": 2912,
      "▁after": 2913,
      "▁बहु": 2914,
      "230": 2915,
      "▁सेना": 2916,
      "▁కూ": 2917,
      "ాలు,": 2918,
      "ड़ी": 2919,
      ".gov.in/": 2920,
      "म्बर": 2921,
      "▁రాష్ట్ర": 2922,
      "▁भू": 2923,
      "clud": 2924,
      "కిస్తాన్": 2925,
      "धिकार": 2926,
      "ಂಗ್": 2927,
      "nologue": 2928,
      "▁ಪ್ರದೇಶ": 2929,
      "ರಾಷ್ಟ್ರೀಯ": 2930,
      "▁చరిత్ర\")": 2931,
      "्यटन": 2932,
      "ujar": 2933,
      "▁ಜನಸಂಖ್ಯ": 2934,
      "*,": 2935,
      "_W": 2936,
      "minis": 2937,
      "ttar": 2938,
      "2019": 2939,
      "olper": 2940,
      "▁East": 2941,
      "countries_by_": 2942,
      "known": 2943,
      "olpert": 2944,
      "%29": 2945,
      "ces": 2946,
      "▁over": 2947,
      "ia\")": 2948,
      "ann": 2949,
      "▁par": 2950,
      "cember": 2951,
      "ourt": 2952,
      "▁ab": 2953,
      "ely": 2954,
      "▁For": 2955,
      "▁[Stein": 2956,
      "▁Or": 2957,
      "cul": 2958,
      "wart": 2959,
      "zberg": 2960,
      "▁other": 2961,
      "kim": 2962,
      "chwart": 2963,
      "fore": 2964,
      "ommon": 2965,
      "CS1": 2966,
      "olitical": 2967,
      "dustry": 2968,
      "▁Press.": 2969,
      "▁years": 2970,
      "chwartzberg": 2971,
      "wo": 2972,
      "तिक": 2973,
      "दू": 2974,
      "भू": 2975,
      "श्री": 2976,
      "ीत": 2977,
      "ील": 2978,
      "▁'": 2979,
      "▁ఈ": 2980,
      "▁భారత": 2981,
      "](https://en.wikipedia.org/wiki/W": 2982,
      "▁Congress": 2983,
      "▁di": 2984,
      "▁May": 2985,
      "नाथ": 2986,
      "_क्षेत्र": 2987,
      "▁22": 2988,
      "▁24": 2989,
      "▁English": 2990,
      "త్రి": 2991,
      "ాలు](https://te.wikipedia.org/wiki/": 2992,
      "▁एशिया": 2993,
      "▁अन्य": 2994,
      "▁2011.\r\n": 2995,
      "ovement": 2996,
      "गुजरात": 2997,
      "c=": 2998,
      "itt": 2999,
      "ta": 3000,
      "ped": 3001,
      "▁[t": 3002,
      "come": 3003,
      "ird": 3004,
      "▁number": 3005,
      "harat": 3006,
      "life": 3007,
      ".as": 3008,
      "86": 3009,
      "rin": 3010,
      "war": 3011,
      "ಟ್ಟ": 3012,
      "ತ್ರ": 3013,
      "ದು": 3014,
      "ಾಲ": 3015,
      "೨೦": 3016,
      "▁ಉ": 3017,
      "▁ಶ": 3018,
      "▁ಭಾಷೆ": 3019,
      "pear": 3020,
      "▁[Metcalf": 3021,
      "ough": 3022,
      "2016": 3023,
      "ooperation": 3024,
      "adesh": 3025,
      "▁most": 3026,
      "▁2012": 3027,
      "ಾರ್": 3028,
      "▁India\")\r\n": 3029,
      "▁(identifier)\"):[": 3030,
      "▁ಪಾ": 3031,
      "ಸ್ತಾನ": 3032,
      "angladesh": 3033,
      "-B": 3034,
      "-of": 3035,
      "79": 3036,
      "ymb": 3037,
      "er,": 3038,
      "arb": 3039,
      "▁Ar": 3040,
      "▁1947": 3041,
      "▁Fe": 3042,
      "cyc": 3043,
      "obb": 3044,
      "ID": 3045,
      "_క": 3046,
      "han": 3047,
      "अन": 3048,
      "जय": 3049,
      "टक": 3050,
      "पी": 3051,
      "पति": 3052,
      "मह": 3053,
      "रो": 3054,
      "ेस": 3055,
      "తు": 3056,
      "పతి": 3057,
      "▁ड": 3058,
      "▁फ": 3059,
      "▁30": 3060,
      "▁ని": 3061,
      "▁స్థ": 3062,
      "▁[द": 3063,
      "▁[అ": 3064,
      "▁[ప": 3065,
      "▁\"భారతదేశం": 3066,
      "్రి": 3067,
      "ర్వ": 3068,
      "న్ని": 3069,
      "िया\")": 3070,
      "ose": 3071,
      "▁गण": 3072,
      "म्म": 3073,
      "ी_भाषा": 3074,
      ".jpg)](https://hi.wikipedia.org/wiki/चित्र:": 3075,
      "वंश": 3076,
      "మిళ": 3077,
      "▁जाता": 3078,
      "▁वर्ष": 3079,
      "ैदान": 3080,
      "వంశ": 3081,
      "तंत्रता": 3082,
      "वेब": 3083,
      "▁official": 3084,
      "▁साम्राज्य": 3085,
      "द्योगिक": 3086,
      "▁January": 3087,
      ".n": 3088,
      "4/": 3089,
      "4–": 3090,
      "fr": 3091,
      "▁[O": 3092,
      "tell": 3093,
      "theast": 3094,
      "2001": 3095,
      "ama": 3096,
      "ustral": 3097,
      "▁Comp": 3098,
      "olic": 3099,
      "▁Pe": 3100,
      "▁ag": 3101,
      "rahm": 3102,
      "emple": 3103,
      "▁election": 3104,
      "▁[South": 3105,
      "ikshi": 3106,
      "▁[2](https://en.wikipedia.org/wiki/India#cite_ref-FOOTNOTE": 3107,
      "▁[1](https://en.wikipedia.org/wiki/India#cite_ref-FOOTNOTE": 3108,
      "times.com/": 3109,
      "rime": 3110,
      "ikshit": 3111,
      "1–": 3112,
      "bal": 3113,
      "i,": 3114,
      "त्य": 3115,
      "ised": 3116,
      "asia": 3117,
      "2000": 3118,
      "atus": 3119,
      "_of_the": 3120,
      "▁Talbot": 3121,
      "▁states": 3122,
      "ographic": 3123,
      "Fisher": 3124,
      "orther": 3125,
      "▁[e": 3126,
      "▁[v": 3127,
      "▁1.": 3128,
      "▁2017": 3129,
      "union": 3130,
      "▁national": 3131,
      "Fisher2018": 3132,
      "-26": 3133,
      "01": 3134,
      "Ar": 3135,
      "CO": 3136,
      "IM": 3137,
      "_మ": 3138,
      "_భాష": 3139,
      "ges": 3140,
      "has": 3141,
      "ket": 3142,
      "lations": 3143,
      "oy": 3144,
      "ua": 3145,
      "पे": 3146,
      "मंत्र": 3147,
      "रवरी": 3148,
      "िज़": 3149,
      "ेट": 3150,
      "ఫ్": 3151,
      "ವಾಗಿ": 3152,
      "ೃತ": 3153,
      "▁en": 3154,
      "▁we": 3155,
      "▁స్": 3156,
      "▁[इ": 3157,
      "▁[బ": 3158,
      "▁[స": 3159,
      "▁[पु": 3160,
      "▁\"इ": 3161,
      "▁\"అ": 3162,
      "▁\"ಭಾರತದ": 3163,
      "▁\"हिन्द": 3164,
      "▁मु": 3165,
      "▁[↑](https://kn.wikipedia.org/wiki/ಭಾರತ#cite_": 3166,
      "विज्ञान": 3167,
      "ाला": 3168,
      "](https://kn.wikipedia.org/wiki/ಭಾರತದ_": 3169,
      "న్నాయ": 3170,
      "▁కాల": 3171,
      "ాలు\")": 3172,
      "]](https://hi.wikipedia.org/wiki/भारत#cite_note-1": 3173,
      "ड़े": 3174,
      "▁उत्तर": 3175,
      "▁Oxford": 3176,
      "ndaman": 3177,
      "ులు](https://te.wikipedia.org/wiki/": 3178,
      ".jpg)](https://te.wikipedia.org/wiki/దస్త్రం:": 3179,
      "▁రై": 3180,
      "▁ಕೋ": 3181,
      "द्यान": 3182,
      "hru": 3183,
      "र्थिक": 3184,
      "▁समय": 3185,
      "ಸ್ಥೆ": 3186,
      "హిందూ": 3187,
      "यालय": 3188,
      "▁[↑](https://hi.wikipedia.org/wiki/भारत#cite_ref-1": 3189,
      "▁2006](https://en.wikipedia.org/wiki/India#CITEREF": 3190,
      "-21": 3191,
      "Pages": 3192,
      "oin": 3193,
      "oth": 3194,
      "ale": 3195,
      "ased": 3196,
      "▁March": 3197,
      "auth": 3198,
      "120px-": 3199,
      "▁territories": 3200,
      "ffairs": 3201,
      ",[[": 3202,
      "-to": 3203,
      "32": 3204,
      "5-0)": 3205,
      "Vi": 3206,
      "_territ": 3207,
      "oci": 3208,
      "▁\"U": 3209,
      "reat": 3210,
      "them": 3211,
      "▁spe": 3212,
      "▁Constitution": 3213,
      "▁13": 3214,
      "▁had": 3215,
      "doc": 3216,
      "▁original](https://www.": 3217,
      "ed.).": 3218,
      "langoff": 3219,
      "orthern": 3220,
      ".india": 3221,
      "4).": 3222,
      "ious": 3223,
      "va": 3224,
      "y\")": 3225,
      "▁[s": 3226,
      "wealth": 3227,
      "ched": 3228,
      "▁Budd": 3229,
      "▁BCE": 3230,
      "emoc": 3231,
      "▁[2](https://en.wikipedia.org/wiki/India#cite_ref-": 3232,
      "▁[1](https://en.wikipedia.org/wiki/India#cite_ref-": 3233,
      "AsherTalbot2008": 3234,
      "▁2010](https://en.wikipedia.org/wiki/India#CITEREF": 3235,
      "ughal": 3236,
      "/articl": 3237,
      "olicy": 3238,
      "81": 3239,
      "CN": 3240,
      "di": 3241,
      "dr": 3242,
      "lag": 3243,
      "डी": 3244,
      "डु": 3245,
      "णि": 3246,
      "धु": 3247,
      "लोक": 3248,
      "ఆసియా": 3249,
      "ద్ర": 3250,
      "భూ": 3251,
      "మె": 3252,
      "య్య": 3253,
      "ర్య": 3254,
      "▁k": 3255,
      "▁छ": 3256,
      "▁ల": 3257,
      "](https://doi.org/10.": 3258,
      "▁\"न": 3259,
      "▁\"ప": 3260,
      "▁\"బ": 3261,
      "▁\"స": 3262,
      "▁\"सं": 3263,
      "are": 3264,
      "▁मा": 3265,
      "▁[↑](https://te.wikipedia.org/wiki/భారతదేశం#cite_ref-": 3266,
      "▁2015": 3267,
      "नाव": 3268,
      "▁द्वार": 3269,
      "ake": 3270,
      "माज": 3271,
      "ी](https://hi.wikipedia.org/wiki/अ": 3272,
      "త్త": 3273,
      "▁అధిక": 3274,
      "▁ప్రదేశ్": 3275,
      "ప్రదేశ్": 3276,
      "सेना": 3277,
      "▁चु": 3278,
      "▁हुई": 3279,
      "शासित": 3280,
      "त्पाद": 3281,
      "▁నుండి": 3282,
      "ymbol": 3283,
      "-23": 3284,
      "EO": 3285,
      "WEO": 3286,
      "vol": 3287,
      "▁/": 3288,
      "eds.": 3289,
      "andard": 3290,
      "iction": 3291,
      "▁dec": 3292,
      "riod": 3293,
      "▁GDP": 3294,
      "▁tradition": 3295,
      "▁December": 3296,
      "crease": 3297,
      "apita": 3298,
      "▁became": 3299,
      "1]](https://en.wikipedia.org/wiki/India#cite_note-FOOTNOTE": 3300,
      "7C": 3301,
      "TR": 3302,
      "cent": 3303,
      "gl": 3304,
      "hang": 3305,
      "right": 3306,
      "ಕಾ": 3307,
      "ಪು": 3308,
      "ಯು": 3309,
      "ವೆ": 3310,
      "▁up": 3311,
      "▁[India": 3312,
      "change": 3313,
      "rop": 3314,
      "agar": 3315,
      "▁ಮು": 3316,
      "▁two": 3317,
      "▁It": 3318,
      "%2C_": 3319,
      "▁Hindi": 3320,
      "olitics": 3321,
      "▁produc": 3322,
      "ಹಿಂದೂ": 3323,
      "censusindia.gov.in/2011census": 3324,
      "/S": 3325,
      "5_": 3326,
      "Rep": 3327,
      "bi": 3328,
      "▁time": 3329,
      "▁Nations": 3330,
      "1996": 3331,
      "▁Plate": 3332,
      "Pages\\_": 3333,
      "_ब": 3334,
      "div": 3335,
      "y,": 3336,
      "ईसा": 3337,
      "कल": 3338,
      "खाना": 3339,
      "तु": 3340,
      "नगर": 3341,
      "ल्": 3342,
      "ोम": 3343,
      "।\r\n": 3344,
      "ణి": 3345,
      "తమిళ": 3346,
      "మైన": 3347,
      "హార": 3348,
      "ోర్": 3349,
      "▁ऊ": 3350,
      "▁\"ఇ": 3351,
      "▁\"భారత": 3352,
      "](https://hi.wikipedia.org/wiki/इ": 3353,
      "▁सु": 3354,
      "ict": 3355,
      "](https://te.wikipedia.org/wiki/బ": 3356,
      "र्दू": 3357,
      "▁अग": 3358,
      "▁दिया": 3359,
      "▁27": 3360,
      "▁बढ़": 3361,
      "abad": 3362,
      "▁మొ": 3363,
      "నాగ": 3364,
      "త్తర": 3365,
      "bruary": 3366,
      "ులు\")": 3367,
      "राष्ट्रपति": 3368,
      "हिन्दी": 3369,
      "्रां": 3370,
      "▁हुआ": 3371,
      "हासागर": 3372,
      "फ़रवरी": 3373,
      "ष्ण": 3374,
      "ंबई": 3375,
      "▁लिए": 3376,
      "శ్మీ": 3377,
      "మూస:": 3378,
      "▁विकास": 3379,
      "9-0)": 3380,
      "Asia": 3381,
      "ae": 3382,
      "az": 3383,
      "if": 3384,
      "▁+": 3385,
      "▁hi": 3386,
      "▁end": 3387,
      "\");": 3388,
      "](https://en.wikipedia.org/wiki/The": 3389,
      "araj": 3390,
      "alley": 3391,
      "read": 3392,
      "omin": 3393,
      "▁includ": 3394,
      "▁summit\")": 3395,
      "▁caste": 3396,
      "adi": 3397,
      "ussia": 3398,
      "▁Per": 3399,
      "loy": 3400,
      "etail": 3401,
      "▁war": 3402,
      "ticles": 3403,
      "▁General": 3404,
      "_in_S": 3405,
      "▁2025": 3406,
      "formatics": 3407,
      "1997": 3408,
      "rits": 3409,
      "▁general": 3410,
      "▁[*India": 3411,
      "ivil": 3412,
      "▁\"Economy": 3413,
      "](https://en.wikipedia.org/wiki/Economy": 3414,
      ".indiatimes.com/": 3415,
      "84": 3416,
      "_19": 3417,
      "cat": 3418,
      "jec": 3419,
      "▁[978-0-": 3420,
      "inguis": 3421,
      "▁*The": 3422,
      "▁2008": 3423,
      "2).": 3424,
      "500": 3425,
      "7-0": 3426,
      "8-0)": 3427,
      "cord": 3428,
      "nam": 3429,
      "ph": 3430,
      "▁und": 3431,
      "-40": 3432,
      "▁right": 3433,
      "▁Union": 3434,
      "▁Times": 3435,
      ",9": 3436,
      "d/": 3437,
      "क्स": 3438,
      "न](https://hi.wikipedia.org/wiki/": 3439,
      "योग": 3440,
      "वै": 3441,
      "स्ट": 3442,
      "ूर्": 3443,
      "ृति": 3444,
      "శా": 3445,
      "ైనా": 3446,
      "ಕೆ": 3447,
      "ತೆ": 3448,
      "ದಾ": 3449,
      "ನೆ": 3450,
      "ುನಾ": 3451,
      "ೇಂದ": 3452,
      "ೈನ": 3453,
      "ೊಂದಿ": 3454,
      "▁j": 3455,
      "▁ಈ": 3456,
      "▁ಲ": 3457,
      "▁[m": 3458,
      "▁[आ": 3459,
      "▁[ज": 3460,
      "▁[ఇ": 3461,
      "▁[doi": 3462,
      "teen": 3463,
      "▁\"आ": 3464,
      "▁\"జ": 3465,
      "](https://en.wikipedia.org/wiki/O": 3466,
      "arn": 3467,
      "ारी": 3468,
      "ार्च": 3469,
      "](https://te.wikipedia.org/wiki/ఇ": 3470,
      "](https://te.wikipedia.org/wiki/స": 3471,
      "olk": 3472,
      "igence": 3473,
      "िक्": 3474,
      "chool": 3475,
      "భారత_": 3476,
      "▁जून": 3477,
      "▁दे": 3478,
      "▁दिस": 3479,
      "राजस्थान": 3480,
      "▁BRICS": 3481,
      "▁29": 3482,
      "_(India)": 3483,
      "రాజ": 3484,
      "లో](https://te.wikipedia.org/wiki/": 3485,
      "రిజ": 3486,
      "క్కు": 3487,
      "ండ్": 3488,
      "नेपाल": 3489,
      "त्तरा": 3490,
      "ow/": 3491,
      "जाति": 3492,
      "eshow/": 3493,
      "▁क्षेत्र\")": 3494,
      "धानमंत्र": 3495,
      "▁\"Doi": 3496,
      "▁ವಿ": 3497,
      "▁Press](https://en.wikipedia.org/wiki/": 3498,
      "](https://en.wikipedia.org/wiki/Doi": 3499,
      "ಗಳು\r\n": 3500,
      "्रीका": 3501,
      "ಂಗಾ": 3502,
      "गणना": 3503,
      "▁खाना\")": 3504,
      "▁निर्": 3505,
      "माणु": 3506,
      "]](https://kn.wikipedia.org/wiki/ಭಾರತ#cite_note-": 3507,
      "ಕಿಸ್ತಾನ": 3508,
      "eligion": 3509,
      "స్కృతి": 3510,
      "▁(identifier)\"):[10.": 3511,
      "म्मू": 3512,
      "telligence": 3513,
      "IMF": 3514,
      "▁[doi](https://en.wikipedia.org/wiki/Doi": 3515,
      "▁दिसम्बर": 3516,
      "▁[doi](https://en.wikipedia.org/wiki/Doi_(identifier)": 3517,
      "7/": 3518,
      "▁[United": 3519,
      "ominal": 3520,
      "lobal": 3521,
      ".gov/": 3522,
      ".jpg/120px-": 3523,
      "-78": 3524,
      "-india": 3525,
      "-28": 3526,
      "-india-": 3527,
      "73": 3528,
      "C).": 3529,
      "En": 3530,
      "_11": 3531,
      "la": 3532,
      "pect": 3533,
      "omas": 3534,
      "▁India.": 3535,
      "1950": 3536,
      "▁Ch": 3537,
      "▁Sanskrit": 3538,
      "etary": 3539,
      "ung": 3540,
      "imalay": 3541,
      ".com/news/": 3542,
      "▁2004": 3543,
      "osed": 3544,
      "▁War": 3545,
      "ublishing": 3546,
      "▁depend": 3547,
      "▁period": 3548,
      "rovision": 3549,
      "_Development": 3550,
      ".aspx": 3551,
      "▁February": 3552,
      "6-0)": 3553,
      "Craven": 3554,
      "cms": 3555,
      "ton": 3556,
      "yayan": 3557,
      "▁ci": 3558,
      "▁am": 3559,
      "▁ref": 3560,
      "than": 3561,
      "](https://en.wikipedia.org/wiki/I": 3562,
      "al_P": 3563,
      "▁sh": 3564,
      "▁sup": 3565,
      "ilg": 3566,
      "▁mil": 3567,
      "▁modern": 3568,
      "▁million": 3569,
      "logo": 3570,
      "▁2019.": 3571,
      "cean": 3572,
      "ources": 3573,
      "▁one": 3574,
      "hina": 3575,
      "978-0-19-9": 3576,
      "ricket": 3577,
      "ultan": 3578,
      "978-0-521-80": 3579,
      "ainting": 3580,
      "atsyayan": 3581,
      "tecture": 3582,
      "KulkeRothermund2004": 3583,
      "Hinduism": 3584,
      "904-7": 3585,
      "_Island": 3586,
      "slam": 3587,
      "ujarat": 3588,
      "Craven1997": 3589,
      "978-0-521-80904-7": 3590,
      ",0": 3591,
      ".htm": 3592,
      "/P": 3593,
      "124": 3594,
      "LA": 3595,
      "_प": 3596,
      "bn": 3597,
      "s\r\n": 3598,
      "टी": 3599,
      "द्वीप": 3600,
      "वी": 3601,
      "हीं": 3602,
      "िज": 3603,
      "िन्": 3604,
      "ैल": 3605,
      "ैंड": 3606,
      "ం?action=edit&redlink=1": 3607,
      "చే": 3608,
      "బా": 3609,
      "▁फ़रवरी": 3610,
      "▁[జ": 3611,
      "](https://hi.wikipedia.org/wiki/सं": 3612,
      "▁(eds.": 3613,
      "▁मार्च": 3614,
      "्यता": 3615,
      "▁पह": 3616,
      "▁पार्ट": 3617,
      "र्स": 3618,
      "र्जा": 3619,
      "](https://hi.wikipedia.org/wiki/भारतीय": 3620,
      "urn": 3621,
      "▁పా": 3622,
      "त्रि": 3623,
      "▁बना": 3624,
      "▁वा": 3625,
      "▁వా": 3626,
      "▁group": 3627,
      "ండు": 3628,
      "▁संविधान": 3629,
      "▁చూ": 3630,
      "▁Kashmir": 3631,
      "త్వ": 3632,
      "र्वत": 3633,
      "ंडिया": 3634,
      "पात": 3635,
      "ंग्रेस": 3636,
      "ప్రధాన": 3637,
      "onstituent": 3638,
      "▁తే": 3639,
      "स्कृति": 3640,
      "▁2021.\r\n": 3641,
      "actbook": 3642,
      "▁हिन्दी": 3643,
      "▁शासन": 3644,
      "▁थी": 3645,
      "▁estim": 3646,
      "वेबैक": 3647,
      "▁द्वारा": 3648,
      "inguistic": 3649,
      "71": 3650,
      "Wolpert": 3651,
      "_V": 3652,
      "eb": 3653,
      "\"):": 3654,
      "tig": 3655,
      "uslim": 3656,
      "▁14": 3657,
      "chin": 3658,
      "indus": 3659,
      "▁India\").": 3660,
      "econd": 3661,
      "1162": 3662,
      "▁than": 3663,
      "1990": 3664,
      "▁northern": 3665,
      "▁[*The": 3666,
      "\"](https://web.archive.org/web/20160": 3667,
      ".png)": 3668,
      "ministr": 3669,
      "2]](https://en.wikipedia.org/wiki/India#cite_note-FOOTNOTE": 3670,
      "55": 3671,
      "Main": 3672,
      "ahar": 3673,
      "ehru": 3674,
      "gram": 3675,
      "m.nic.in/": 3676,
      "ncl": 3677,
      "ves": 3678,
      "vatsyayan": 3679,
      "wal": 3680,
      "way": 3681,
      "ಂಬ": 3682,
      "ಗಿ": 3683,
      "ಗು": 3684,
      "ಡಿ": 3685,
      "ಭೆ": 3686,
      "ಯಾ": 3687,
      "ಸಭೆ": 3688,
      "▁ಒ": 3689,
      "▁[ಮ": 3690,
      "▁\"ಮ": 3691,
      "](https://en.wikipedia.org/wiki/U": 3692,
      "arge": 3693,
      "astern": 3694,
      "ics": 3695,
      "▁str": 3696,
      "▁such": 3697,
      "](https://kn.wikipedia.org/wiki/ಮ": 3698,
      "▁later": 3699,
      "▁2003": 3700,
      "▁there": 3701,
      "▁art": 3702,
      "](https://en.wikipedia.org/wiki/South_Asia": 3703,
      "](Special:BookSources/978-0-": 3704,
      "▁\"Special:BookSources/978-0-": 3705,
      "-108": 3706,
      "-107-1": 3707,
      "_BRICS": 3708,
      "athak": 3709,
      "ovember": 3710,
      "-lord": 3711,
      "▁emp": 3712,
      "▁classical": 3713,
      "978-0-19-88": 3714,
      "ommonwealth": 3715,
      "gramme": 3716,
      "nclm.nic.in/": 3717,
      "vatsyayan-lord": 3718,
      "ealth": 3719,
      "iter": 3720,
      "nominal": 3721,
      "site": 3722,
      "utt": 3723,
      "var": 3724,
      "ered": 3725,
      "ar,": 3726,
      "▁(*": 3727,
      "-14": 3728,
      "▁Con": 3729,
      "▁Ac": 3730,
      "▁Min": 3731,
      "akh": 3732,
      "dex": 3733,
      "ankar": 3734,
      "Pages\\_us": 3735,
      "nominal)": 3736,
      "7-0)": 3737,
      "99": 3738,
      "JP": 3739,
      "_न": 3740,
      "_సా": 3741,
      "back": 3742,
      "etr": 3743,
      "ru": 3744,
      "ंट": 3745,
      "खंड": 3746,
      "खण्ड": 3747,
      "गोल": 3748,
      "धि": 3749,
      "रू": 3750,
      "रेल": 3751,
      "व्यवस्था": 3752,
      "शीन": 3753,
      "ुरु": 3754,
      "ुंबई": 3755,
      "ौर": 3756,
      "ौद्ध": 3757,
      "ौद्योगिक": 3758,
      "ంప": 3759,
      "కో": 3760,
      "గణ": 3761,
      "దిన": 3762,
      "నై": 3763,
      "రీ": 3764,
      "▁या": 3765,
      "▁\"చ": 3766,
      "्रम": 3767,
      "omes": 3768,
      "ould": 3769,
      "▁संग": 3770,
      "▁मैदान": 3771,
      "](https://te.wikipedia.org/wiki/జ": 3772,
      "ammu": 3773,
      "ారం": 3774,
      "_of_S": 3775,
      "▁2013": 3776,
      "▁अरब": 3777,
      "▁Modern": 3778,
      "नाडु": 3779,
      "▁जल": 3780,
      "ticle": 3781,
      "▁दर": 3782,
      "▁Bank": 3783,
      "▁प्रति": 3784,
      "ताब्": 3785,
      "▁క్రీ": 3786,
      "स्त्र": 3787,
      "క్‌": 3788,
      "पुरी": 3789,
      "నికి": 3790,
      "ల్ల": 3791,
      "ంగీ": 3792,
      "▁సి": 3793,
      "uction": 3794,
      "▁Language": 3795,
      "](https://hi.wikipedia.org/wiki/भारत#cite_ref-FOOTNOTE": 3796,
      "నాభా": 3797,
      "▁इतिहास": 3798,
      "▁हैं,": 3799,
      "జాబి": 3800,
      "erala": 3801,
      "पर्यटन": 3802,
      "Hindust": 3803,
      "किम": 3804,
      "anipur": 3805,
      "ikh": 3806,
      "▁[![](https://upload.wikimedia.org/wikipedia/commons/thumb/": 3807,
      "दीव": 3808,
      "▁इसके": 3809,
      "पालिका": 3810,
      "▁घाट": 3811,
      "▁2021.": 3812,
      "▁శా": 3813,
      "▁భాష\")": 3814,
      "▁सिनेमा": 3815,
      "▁Environment": 3816,
      "బెంగ": 3817,
      "िक्षा": 3818,
      "िक्किम": 3819,
      "Wolpert2003": 3820,
      "జాబితా": 3821,
      "5–": 3822,
      "63": 3823,
      "BC": 3824,
      "a.": 3825,
      "lor": 3826,
      "ner": 3827,
      "y-": 3828,
      "▁ri": 3829,
      "▁\"United": 3830,
      "arly": 3831,
      "ed/": 3832,
      "▁(2018": 3833,
      "2015": 3834,
      "2017": 3835,
      "trol": 3836,
      "▁south": 3837,
      "atak": 3838,
      "▁found": 3839,
      "▁Pakistan": 3840,
      "▁mathe": 3841,
      "owland": 3842,
      "MetcalfMetcalf2006),": 3843,
      "▁who": 3844,
      "rowth": 3845,
      "▁2018](https://en.wikipedia.org/wiki/India#CITEREF": 3846,
      "Harle1994": 3847,
      ".IN": 3848,
      "6).": 3849,
      "IA": 3850,
      "_en": 3851,
      "co": 3852,
      "ities": 3853,
      "ks": 3854,
      "nal": 3855,
      "tin": 3856,
      "thnologue": 3857,
      "amp": 3858,
      "vel": 3859,
      "ISO": 3860,
      "▁British": 3861,
      "resident": 3862,
      "▁28": 3863,
      "▁K.": 3864,
      "ffice": 3865,
      "▁original](https://": 3866,
      "▁*[The": 3867,
      "ances": 3868,
      "▁Assembly": 3869,
      "WEO.IN": 3870,
      "IMFWEO.IN": 3871,
      "-25": 3872,
      "2–": 3873,
      "3_": 3874,
      "6–": 3875,
      "Ludden": 3876,
      "Qu": 3877,
      "_for": 3878,
      "s18": 3879,
      "yan": 3880,
      "win": 3881,
      "enn": 3882,
      "inf": 3883,
      "religion": 3884,
      "▁Se": 3885,
      "ild": 3886,
      "0000": 3887,
      "rown": 3888,
      "▁Economic": 3889,
      "tud": 3890,
      "errit": 3891,
      "MetcalfMetcalf201": 3892,
      "_pro": 3893,
      "do-A": 3894,
      "ector": 3895,
      "▁under": 3896,
      "omestic": 3897,
      "3]](https://en.wikipedia.org/wiki/India#cite_note-FOOTNOTE": 3898,
      "Con": 3899,
      "Dikshit": 3900,
      "Empire": 3901,
      "European": 3902,
      "NGDP": 3903,
      "Schwartzberg": 3904,
      "can": 3905,
      "dones": 3906,
      "ho": 3907,
      "rm": 3908,
      "s_of_India": 3909,
      "west": 3910,
      "रण": 3911,
      "लिस": 3912,
      "वार": 3913,
      "वीं": 3914,
      "शक": 3915,
      "स](https://hi.wikipedia.org/wiki/": 3916,
      "सभा": 3917,
      "ां": 3918,
      "ाप": 3919,
      "ांध": 3920,
      "ोष": 3921,
      "०१": 3922,
      "చల్": 3923,
      "యన్": 3924,
      "షు": 3925,
      "ూర్": 3926,
      "ಖ್": 3927,
      "ಚ್ಚ": 3928,
      "ಟೆ": 3929,
      "ಣೆ": 3930,
      "ಪಂ": 3931,
      "ಬ್ಯಾ": 3932,
      "ಭೂ": 3933,
      "ರಂ": 3934,
      "ಲಾ": 3935,
      "ಷ್": 3936,
      "ಹಾ": 3937,
      "ಹಲಿ": 3938,
      "ು.": 3939,
      "▁ध": 3940,
      "▁ro": 3941,
      "▁[చ": 3942,
      "▁[భారత": 3943,
      "▁[ಭಾರತದ": 3944,
      "▁[భారతీయ": 3945,
      "tes": 3946,
      "▁\"V": 3947,
      "](https://en.wikipedia.org/wiki/V": 3948,
      "ess/": 3949,
      "esearch": 3950,
      "oot": 3951,
      "▁industry": 3952,
      "](https://te.wikipedia.org/wiki/ప": 3953,
      "](https://te.wikipedia.org/wiki/భారతీయ": 3954,
      "राठ": 3955,
      "ingdom": 3956,
      "ార్ట": 3957,
      "्ता:": 3958,
      "olle": 3959,
      "▁me": 3960,
      "▁many": 3961,
      "ాలయ": 3962,
      "state": 3963,
      "▁long": 3964,
      "▁large": 3965,
      "▁दृ": 3966,
      "▁दो": 3967,
      "▁प्रमुख": 3968,
      "క్క": 3969,
      "▁వ్యవస్థ": 3970,
      "▁religion": 3971,
      "aksh": 3972,
      "ast_Asia": 3973,
      "▁ము": 3974,
      "ರ್ಥ": 3975,
      "ండో": 3976,
      "ముంబ": 3977,
      "▁rule": 3978,
      "िये": 3979,
      "సిన": 3980,
      "▁रह": 3981,
      "▁लग": 3982,
      "ినల్": 3983,
      "ద్ద": 3984,
      "▁ఉన్న": 3985,
      "▁ఉన్నాయ": 3986,
      "ृत्य": 3987,
      "ಂತರ": 3988,
      "ूनिव": 3989,
      "పాకిస్తాన్": 3990,
      "ಸಿಂಧ": 3991,
      "▁people": 3992,
      "ದೆ.": 3993,
      "ದೆಹಲಿ": 3994,
      "ूरो": 3995,
      "usiness/": 3996,
      "ంధీ": 3997,
      "](https://hi.wikipedia.org/wiki/भारत_की_": 3998,
      "](https://hi.wikipedia.org/wiki/भारत_का_": 3999,
      "inistry_of_": 4000,
      "_संघ": 4001,
      "▁ఒక": 4002,
      "▁ఒరిజ": 4003,
      "ದ್ಧ": 4004,
      "ವೇಬ್ಯಾ": 4005,
      "▁युद्ध": 4006,
      "तेलु": 4007,
      "▁न्यायालय": 4008,
      "धिकारिक": 4009,
      "వంశం": 4010,
      "▁[पुरालेखित": 4011,
      "glance": 4012,
      "▁अगस्त": 4013,
      "](https://en.wikipedia.org/wiki/Economy_of_": 4014,
      "धानमंत्री": 4015,
      "▁among": 4016,
      "▁(eds.).": 4017,
      "▁తేదీ": 4018,
      "DikshitSchwartzberg": 4019,
      "ార్టీ": 4020,
      "▁ఒరిజినల్": 4021,
      "ವೇಬ್ಯಾಕ್": 4022,
      "DikshitSchwartzberg2023": 4023,
      "\"](https://books.google.com/books?id=": 4024,
      "_9": 4025,
      "_n": 4026,
      "_13": 4027,
      "a-": 4028,
      "aus": 4029,
      "t-": 4030,
      "▁comm": 4031,
      "\\_s": 4032,
      "▁Mon": 4033,
      "109": 4034,
      "ivision": 4035,
      "▁union": 4036,
      "-largest": 4037,
      "▁States": 4038,
      "Wikipedia": 4039,
      "Pages\\_using\\_": 4040,
      "119": 4041,
      "545": 4042,
      "UN": 4043,
      "▁out": 4044,
      "India_": 4045,
      "▁All": 4046,
      "118": 4047,
      "▁[\"India": 4048,
      "_and_depend": 4049,
      "ervation": 4050,
      "7,": 4051,
      "gr": 4052,
      "languages": 4053,
      "ning": 4054,
      "iam": 4055,
      "pee": 4056,
      "▁\"India": 4057,
      "eral_": 4058,
      "arna": 4059,
      "alore": 4060,
      "achin": 4061,
      "▁Arab": 4062,
      "▁Afric": 4063,
      "angalore": 4064,
      "▁Data": 4065,
      "_Summit": 4066,
      "2905": 4067,
      "rade": 4068,
      "ineering": 4069,
      "viol": 4070,
      "arket": 4071,
      "ynast": 4072,
      "▁Islands": 4073,
      "rdu": 4074,
      "▁economic": 4075,
      "▁Act,": 4076,
      "_in_South_Asia": 4077,
      "1162-2": 4078,
      "-107-11162-2": 4079,
      "978-0-19-882905": 4080,
      "erritory": 4081,
      "ast_Asia_Summit": 4082,
      "978-0-19-882905-8": 4083,
      "-प": 4084,
      ".fr": 4085,
      "54": 4086,
      "_अ": 4087,
      "_ए": 4088,
      "population": 4089,
      "ंका": 4090,
      "कट": 4091,
      "गंगा": 4092,
      "देव": 4093,
      "भो": 4094,
      "मेर": 4095,
      "ल](https://hi.wikipedia.org/wiki/": 4096,
      "लंका": 4097,
      "हैद": 4098,
      "िला": 4099,
      "ीमा": 4100,
      "ूह": 4101,
      "्म": 4102,
      "జ్": 4103,
      "వరి": 4104,
      "శ్చ": 4105,
      "ిన్న": 4106,
      "ెల": 4107,
      "▁:": 4108,
      "▁ट": 4109,
      "▁[ओ": 4110,
      "tex": 4111,
      "▁\"ओ": 4112,
      "▁\"భారతదేశ": 4113,
      "ins": 4114,
      "208": 4115,
      "](https://hi.wikipedia.org/wiki/आ": 4116,
      "్రె": 4117,
      "राबाद": 4118,
      "ata_": 4119,
      "ाने": 4120,
      "र्ना": 4121,
      "▁अप्र": 4122,
      "217": 4123,
      "_का_": 4124,
      "▁नी": 4125,
      "24)": 4126,
      "ాలు\r\n": 4127,
      "254": 4128,
      "నిస్తాన్": 4129,
      "▁[\"C": 4130,
      "▁మధ్య": 4131,
      "▁[Asher": 4132,
      "▁संबंध": 4133,
      "म्प": 4134,
      "हिमा": 4135,
      "त्तीस": 4136,
      "र्वो": 4137,
      "▁भाषाओं": 4138,
      "](https://te.wikipedia.org/wiki/భారతదేశంలో": 4139,
      "▁करने": 4140,
      "िरपे": 4141,
      "▁area": 4142,
      "वायु": 4143,
      "స్థాన్": 4144,
      "endra": 4145,
      "ीपी": 4146,
      "▁मेला\")": 4147,
      "▁हुए": 4148,
      "meric": 4149,
      "▁పేజీ": 4150,
      "orities": 4151,
      "भीम": 4152,
      "िल्ली": 4153,
      "▁कार्य": 4154,
      "మ్మూ": 4155,
      "▁[हिन्दी](https://hi.wikipedia.org/wiki/": 4156,
      "▁\"భారతదేశంలో": 4157,
      "▁చూసిన": 4158,
      "▁తేదీ:": 4159,
      "हैदराबाद": 4160,
      "శ్చి": 4161,
      "र्नाटक": 4162,
      "िरपेक्ष": 4163,
      "▁పేజీని": 4164,
      "127": 4165,
      "98": 4166,
      "II": 4167,
      "South": 4168,
      "bank": 4169,
      "ix": 4170,
      "ox": 4171,
      "tition": 4172,
      "cil": 4173,
      "tions": 4174,
      "▁(20": 4175,
      "▁some": 4176,
      "▁CE": 4177,
      "ulti": 4178,
      "ments": 4179,
      "_Centre": 4180,
      "ingham": 4181,
      "▁territory": 4182,
      "document": 4183,
      "ictionary": 4184,
      "/auth": 4185,
      "3/": 4186,
      "6]](https://en.wikipedia.org/wiki/India#cite_note-": 4187,
      "Spear": 4188,
      "ave": 4189,
      "detail": 4190,
      "election": 4191,
      "fgh": 4192,
      "jpg": 4193,
      "k:": 4194,
      "yle": 4195,
      "ಖಂಡ": 4196,
      "ಮ್ರಾ": 4197,
      "ಶ್ಚ": 4198,
      "ಹಾರ": 4199,
      "್ಮ": 4200,
      "▁he": 4201,
      "▁her": 4202,
      "dian": 4203,
      "oral": 4204,
      "▁[19": 4205,
      "▁\"Oxford": 4206,
      "\")[[": 4207,
      "ines": 4208,
      "inance": 4209,
      "itary": 4210,
      "196": 4211,
      "▁ins": 4212,
      "▁social": 4213,
      "urton": 4214,
      "▁11": 4215,
      "ility": 4216,
      "▁maj": 4217,
      "▁minister": 4218,
      "states": 4219,
      "▁2.": 4220,
      "23)": 4221,
      "26)": 4222,
      "pecial:EditPage/": 4223,
      "▁Nadu": 4224,
      "್ಯವ": 4225,
      "-317": 4226,
      "ainism": 4227,
      "apan": 4228,
      "▁...": 4229,
      "▁ಸ್ವ": 4230,
      "▁article": 4231,
      "overe": 4232,
      "ಸ್ಕ": 4233,
      "▁ಹೊಂದಿ": 4234,
      "engali": 4235,
      "india-glance": 4236,
      "PPP": 4237,
      "ohn": 4238,
      "▁ಹೆಚ್ಚ": 4239,
      "ತಂತ್ರ್ಯ": 4240,
      "▁ಪಾಕಿಸ್ತಾನ": 4241,
      "ymbols": 4242,
      "▁high": 4243,
      "ುನಾವ": 4244,
      "teenth": 4245,
      "arnatak": 4246,
      "ರ್ಥಿಕ": 4247,
      "Spear1990": 4248,
      "fghan": 4249,
      "ಮ್ರಾಜ್ಯ": 4250,
      "pecial:EditPage/Template:": 4251,
      "india-glance/": 4252,
      "6/": 4253,
      "ds": 4254,
      "lia": 4255,
      "oa": 4256,
      "educ": 4257,
      "▁(1,": 4258,
      "asing": 4259,
      "▁since": 4260,
      "ams": 4261,
      "▁Al": 4262,
      "urch": 4263,
      "▁R.": 4264,
      "▁Raj": 4265,
      "▁land": 4266,
      "28)": 4267,
      "▁Fund": 4268,
      "▁Increase": 4269,
      "▁1998": 4270,
      "hrist": 4271,
      "...": 4272,
      ".svg/": 4273,
      "▁left": 4274,
      "▁used": 4275,
      "education": 4276,
      ".world": 4277,
      "3),": 4278,
      "5/": 4279,
      "7_": 4280,
      "91": 4281,
      "dition": 4282,
      "ihar": 4283,
      "press": 4284,
      "ंह": 4285,
      "गल": 4286,
      "झार": 4287,
      "डिया": 4288,
      "तट": 4289,
      "निक": 4290,
      "पान": 4291,
      "मालय": 4292,
      "हन": 4293,
      "हरी": 4294,
      "ाय": 4295,
      "िस्तान": 4296,
      "िहार": 4297,
      "షన్": 4298,
      "హ్": 4299,
      "ెలు": 4300,
      "▁ऑ": 4301,
      "▁50": 4302,
      "▁राष्ट्र": 4303,
      "▁लेख": 4304,
      "▁history": 4305,
      "▁term": 4306,
      "▁[V": 4307,
      "▁[च": 4308,
      "▁[Oxford": 4309,
      "](https://hi.wikipedia.org/wiki/ओ": 4310,
      "▁कुल": 4311,
      "▁they": 4312,
      "▁India*](https://books.google.com/books?id=": 4313,
      "](https://te.wikipedia.org/wiki/అ": 4314,
      "▁power": 4315,
      "र्ष": 4316,
      "▁केन्द्र": 4317,
      "▁ही": 4318,
      "▁होत": 4319,
      "ety": 4320,
      "00)": 4321,
      "ournal": 4322,
      "▁total": 4323,
      "ियां": 4324,
      "▁बन": 4325,
      "▁बा": 4326,
      "▁नद": 4327,
      "▁नहीं": 4328,
      "▁से](http://www.": 4329,
      "266": 4330,
      "-3)": 4331,
      "▁वार": 4332,
      "రియా": 4333,
      "पुरा": 4334,
      "स्ला": 4335,
      "▁మార్": 4336,
      "▁उद्यान": 4337,
      "▁है।[[": 4338,
      "▁Official": 4339,
      "▁शताब्": 4340,
      "▁Wiki": 4341,
      "▁रहा": 4342,
      "ప్రపంచ": 4343,
      "विशेष:EditPage/": 4344,
      "▁मेला](https://hi.wikipedia.org/wiki/": 4345,
      "▁సంస్కృతి": 4346,
      "श्चिमी": 4347,
      "गणराज्य": 4348,
      "దీవ": 4349,
      "GDP_(": 4350,
      "▁प्राप्त": 4351,
      "▁स्रोत/978-1": 4352,
      "](https://hi.wikipedia.org/wiki/विशेष:पुस्तक_स्रोत/978-1": 4353,
      "▁भूम": 4354,
      "countries_by_GDP_(": 4355,
      "▁गणराज्य": 4356,
      "union_territ": 4357,
      "▁चुनाव": 4358,
      "Report": 4359,
      "रेलू": 4360,
      "▁[पुरालेखित](https://web.archive.org/web/201": 4361,
      "र्वोच्च": 4362,
      "विशेष:EditPage/साँचा:": 4363,
      "1-0": 4364,
      "130": 4365,
      "9,": 4366,
      "UCN": 4367,
      "_4": 4368,
      "che": 4369,
      "owe": 4370,
      "rganisation": 4371,
      "▁ra": 4372,
      "▁6.": 4373,
      "▁oc": 4374,
      "▁[978-0": 4375,
      "ally": 4376,
      "city": 4377,
      "1970": 4378,
      "▁incre": 4379,
      "ada": 4380,
      "▁Cons": 4381,
      "▁SAARC": 4382,
      "urban": 4383,
      "▁both": 4384,
      "▁largest": 4385,
      "▁2026": 4386,
      "▁[\"A": 4387,
      "](https://en.wikipedia.org/wiki/South": 4388,
      "avy": 4389,
      "▁rate": 4390,
      "](Special:BookSources/978-0": 4391,
      "▁\"Special:BookSources/978-0": 4392,
      "978-0-19-5": 4393,
      "▁trans": 4394,
      "riculture": 4395,
      "ography": 4396,
      "▁\"History": 4397,
      "▁play": 4398,
      "](https://en.wikipedia.org/wiki/History": 4399,
      "arliamentary": 4400,
      "▁world's": 4401,
      "garh": 4402,
      "ront": 4403,
      "Articles": 4404,
      "▁2006](https://en.wikipedia.org/wiki/India#CITEREFMetcalfMetcalf2006),": 4405,
      "industry": 4406,
      "▁article:": 4407,
      "fghanistan": 4408,
      "▁occ": 4409,
      "3TR": 4410,
      "94": 4411,
      "RL": 4412,
      "_U": 4413,
      "ao": 4414,
      "ical_": 4415,
      "_Sh": 4416,
      "harm": 4417,
      "ffer": 4418,
      "pring": 4419,
      "_New": 4420,
      "rishn": 4421,
      "/articleshow/": 4422,
      "3TRt": 4423,
      "-on-": 4424,
      "0)": 4425,
      "2),": 4426,
      "2nd": 4427,
      "9).": 4428,
      "ele": 4429,
      "ott": 4430,
      "its": 4431,
      "onsoon": 4432,
      "▁north": 4433,
      "▁house": 4434,
      "](https://web.archive.org/web/200": 4435,
      "▁Indus": 4436,
      "own": 4437,
      "▁status": 4438,
      "National_In": 4439,
      "ship": 4440,
      "▁2019.\r\n": 4441,
      "formation": 4442,
      ".aspx?": 4443,
      "▁estimate": 4444,
      "-विज्ञान": 4445,
      "4-108": 4446,
      "All": 4447,
      "Robb": 4448,
      "Sharma": 4449,
      "_आ": 4450,
      "_उ": 4451,
      "_व": 4452,
      "_देश": 4453,
      "britannica": 4454,
      "business/": 4455,
      "egistrar": 4456,
      "gani": 4457,
      "hal": 4458,
      "kar": 4459,
      "lack": 4460,
      "pres": 4461,
      "ria": 4462,
      "ras": 4463,
      "ंच": 4464,
      "ईरा": 4465,
      "छत्तीस": 4466,
      "त्व": 4467,
      "फल": 4468,
      "फ्रीका": 4469,
      "लग": 4470,
      "लयाल": 4471,
      "स\")": 4472,
      "सून": 4473,
      "िंध": 4474,
      "ीच": 4475,
      "१९": 4476,
      "ం\"),": 4477,
      "ంత్రి": 4478,
      "ఆఫ్": 4479,
      "కత": 4480,
      "కై": 4481,
      "క్య": 4482,
      "దాయ": 4483,
      "రే": 4484,
      "లంక": 4485,
      "వీ": 4486,
      "శ్రీ": 4487,
      "షి": 4488,
      "సు": 4489,
      "ಕ್ತ": 4490,
      "ಗೋ": 4491,
      "ಜಾ": 4492,
      "ಜೈನ": 4493,
      "ಡಳ": 4494,
      "ಡೆ": 4495,
      "ಡ್": 4496,
      "ಧ್ಯ": 4497,
      "ಯಿ": 4498,
      "ಳಿ": 4499,
      "ಳು": 4500,
      "ಷಿ": 4501,
      "ಷ್ಯಾ": 4502,
      "ಿಲಿ": 4503,
      "ೀಪ": 4504,
      "ೋಕ": 4505,
      "ೌದ್ಧ": 4506,
      "▁ఏ": 4507,
      "](Category:": 4508,
      "▁[ಬ": 4509,
      "▁[సి": 4510,
      "▁\"च": 4511,
      "▁\"ल": 4512,
      "▁\"ಬ": 4513,
      "▁\"National": 4514,
      "](https://hi.wikipedia.org/wiki/च": 4515,
      "▁कई": 4516,
      "▁कश्मीर": 4517,
      "▁(India": 4518,
      "▁सद": 4519,
      "▁सैन": 4520,
      "▁मुख": 4521,
      "](https://te.wikipedia.org/wiki/చ": 4522,
      "▁पर्वत": 4523,
      "▁Summit\")": 4524,
      "▁member": 4525,
      "స్సా": 4526,
      "वित": 4527,
      "▁పరి": 4528,
      "▁పార్టీ": 4529,
      "road": 4530,
      "▁**ರಾಷ್ಟ್ರೀಯ": 4531,
      "_का": 4532,
      "](https://kn.wikipedia.org/wiki/ಬ": 4533,
      "▁दि": 4534,
      "న్‌": 4535,
      "▁Bengal": 4536,
      "emale": 4537,
      "▁Delhi": 4538,
      "▁बीच": 4539,
      "▁से](http://": 4540,
      "ताज": 4541,
      "▁Gandhi": 4542,
      "▁కు": 4543,
      "क्षा": 4544,
      "न्दिर": 4545,
      "verse": 4546,
      "25)": 4547,
      "▁आधिकारिक": 4548,
      "▁వచ్చ": 4549,
      "ests": 4550,
      "स्थ": 4551,
      "apu": 4552,
      ".[[3": 4553,
      "▁गु": 4554,
      "▁\"Category:": 4555,
      "▁उत्पाद": 4556,
      "ाद्वीप": 4557,
      "_मंदिर": 4558,
      "epal": 4559,
      "▁संस्कृति": 4560,
      "लेट": 4561,
      "प्रा": 4562,
      "ముద్ర": 4563,
      "▁इन": 4564,
      "ummer": 4565,
      "▁began": 4566,
      "िस्ट": 4567,
      "▁करोड़": 4568,
      "▁अनु": 4569,
      "केर": 4570,
      "▁[अंग्रेज़": 4571,
      "uddhism": 4572,
      "articles": 4573,
      "▁ಬೆ": 4574,
      "ultural": 4575,
      "గాంధీ": 4576,
      "ತಿಹಾ": 4577,
      "ರುವ": 4578,
      "▁जनगणना": 4579,
      "▁हैं।\r\n": 4580,
      "▁राजनी": 4581,
      "ducation": 4582,
      "▁\"पंजाब": 4583,
      "र्थव्यवस्था": 4584,
      "నేపాల": 4585,
      "Oxford_University_Press": 4586,
      "▁[पंजाब": 4587,
      "करण": 4588,
      "ryan": 4589,
      "Stein2010),": 4590,
      "limate": 4591,
      "aint:": 4592,
      "▁होता": 4593,
      "ब्ब": 4594,
      "▁పేరు": 4595,
      "▁जिसमें": 4596,
      "హిందీ": 4597,
      "▁Empire\")": 4598,
      "/article": 4599,
      "▁कारण": 4600,
      "074-108": 4601,
      "_at_the": 4602,
      "ोर्ड": 4603,
      "_मेला?action=edit&redlink=1": 4604,
      "▁చెయ్య": 4605,
      "esert": 4606,
      "गोआ": 4607,
      "▁కూడా": 4608,
      "▁ಜನಸಂಖ್ಯೆ": 4609,
      "श्रीलंका": 4610,
      "▁Company": 4611,
      "▁ಕೋಟಿ": 4612,
      "▁2010](https://en.wikipedia.org/wiki/India#CITEREFStein2010),": 4613,
      "▁Press](https://en.wikipedia.org/wiki/Oxford_University_Press": 4614,
      "-78074-108": 4615,
      "ultanate": 4616,
      "र्सिट": 4617,
      "ministrative": 4618,
      "ంగీతం": 4619,
      "yanmar": 4620,
      "ముంబై": 4621,
      "ूनिवर्सिट": 4622,
      "శ్చిమ": 4623,
      "ಶ್ಚಿಮ": 4624,
      "ುನಾವಣೆ": 4625,
      "Spear199024": 4626,
      "▁మార్గ": 4627,
      "britannica.com/": 4628,
      "ganiz": 4629,
      "ಡಳಿತ": 4630,
      "▁[अंग्रेज़ी](https://hi.wikipedia.org/wiki/अ": 4631,
      "ತಿಹಾಸ": 4632,
      "▁చెయ్యబడ": 4633,
      "-78074-108-6": 4634,
      "53": 4635,
      "New": 4636,
      "e/": 4637,
      "hief": 4638,
      "itz": 4639,
      "▁Science": 4640,
      "▁23": 4641,
      "▁David": 4642,
      "rief": 4643,
      "26.": 4644,
      "▁2005": 4645,
      "▁relig": 4646,
      "ubcontinent": 4647,
      "akhand": 4648,
      "▁Republic": 4649,
      "epart": 4650,
      "▁Valley": 4651,
      "olden": 4652,
      "ttarakhand": 4653,
      "CS1\\_": 4654,
      "-to-": 4655,
      "epartment": 4656,
      "-world": 4657,
      "1-1": 4658,
      "De": 4659,
      "_43": 4660,
      "day": 4661,
      "eval": 4662,
      "▁[4": 4663,
      "ancy": 4664,
      "aran": 4665,
      "ing_": 4666,
      "▁C.": 4667,
      "\\_country": 4668,
      "▁made": 4669,
      "local": 4670,
      "▁2011.": 4671,
      "imes": 4672,
      "ecur": 4673,
      "_Delhi": 4674,
      "def": 4675,
      "obox": 4676,
      "countries_and_depend": 4677,
      "edieval": 4678,
      "encies_by_": 4679,
      "cript": 4680,
      "formatics_Centre": 4681,
      "▁dependencies": 4682,
      "infobox": 4683,
      "National_Informatics_Centre": 4684,
      "countries_and_dependencies_by_": 4685,
      ".bn": 4686,
      "122": 4687,
      "7%": 4688,
      "_J": 4689,
      "ball": 4690,
      "ez": 4691,
      "ker": 4692,
      "ving": 4693,
      "ym": 4694,
      "ors": 4695,
      "▁[p": 4696,
      "entr": 4697,
      "anor": 4698,
      "tice": 4699,
      "eries": 4700,
      "aldiv": 4701,
      "icha": 4702,
      "▁sp": 4703,
      "▁prime": 4704,
      "ament": 4705,
      "lowing": 4706,
      "21)": 4707,
      "003": 4708,
      "▁Be": 4709,
      "ell": 4710,
      "sian": 4711,
      "ountain": 4712,
      "hai": 4713,
      "▁relations": 4714,
      "▁From": 4715,
      "▁non-": 4716,
      "ots": 4717,
      "otals": 4718,
      "order": 4719,
      "reek": 4720,
      "_East_Asia_Summit": 4721,
      "histor": 4722,
      "qual": 4723,
      "/cb": 4724,
      "pura": 4725,
      "AARC_summit": 4726,
      "▁lead": 4727,
      "flu": 4728,
      "▁York": 4729,
      "rahmapu": 4730,
      "emocrac": 4731,
      "do-Aryan": 4732,
      "▁(India)\")": 4733,
      "ganization": 4734,
      "aldives": 4735,
      "ichael": 4736,
      ",6": 4737,
      "110": 4738,
      "219": 4739,
      "5%": 4740,
      "Ag": 4741,
      "_వ": 4742,
      "_14": 4743,
      "ling": 4744,
      "ser": 4745,
      "y=": 4746,
      "जम्मू": 4747,
      "पि": 4748,
      "भ्यता": 4749,
      "मो": 4750,
      "लों": 4751,
      "शा": 4752,
      "िख": 4753,
      "िम": 4754,
      "ीगढ़": 4755,
      "ॉक": 4756,
      "గర": 4757,
      "టక": 4758,
      "టా": 4759,
      "దార": 4760,
      "నీ": 4761,
      "రో": 4762,
      "సభ": 4763,
      "ెద్ద": 4764,
      "▁%": 4765,
      "▁ओ": 4766,
      "▁[वि": 4767,
      "▁[सा": 4768,
      "▁\"ग": 4769,
      "▁\"సి": 4770,
      "inated": 4771,
      "ret": 4772,
      "](https://hi.wikipedia.org/wiki/ल": 4773,
      "▁कु": 4774,
      "भारत)": 4775,
      "▁सूचना": 4776,
      "as,": 4777,
      "▁मध्य": 4778,
      "▁महासागर": 4779,
      "](https://te.wikipedia.org/wiki/భారత_": 4780,
      "▁capita": 4781,
      "ानव": 4782,
      "र्ज": 4783,
      "▁12": 4784,
      "▁పు": 4785,
      "▁जी": 4786,
      "ालदीव": 4787,
      "▁दशक": 4788,
      "ेशन": 4789,
      "ेशिया": 4790,
      "▁D.": 4791,
      "aglia": 4792,
      "elang": 4793,
      "రాజ్య": 4794,
      "28.": 4795,
      "-30": 4796,
      "▁కేంద్రపాలిత": 4797,
      "क्षर": 4798,
      "षाण": 4799,
      "▁మా": 4800,
      "▁शक्ति": 4801,
      "▁शिक्षा": 4802,
      "काश": 4803,
      "▁చే": 4804,
      "ము\")": 4805,
      "త్స": 4806,
      "ंडीगढ़": 4807,
      "▁రాజ్య": 4808,
      "▁लोग": 4809,
      "▁क्षेत्रीय": 4810,
      "వాతంత్ర": 4811,
      "▁पुरा": 4812,
      "जनसंख्या": 4813,
      "▁जनसंख्या": 4814,
      "html)": 4815,
      "▁దేశాల": 4816,
      "▁वर्ग": 4817,
      "లాదేశ్": 4818,
      "]](https://hi.wikipedia.org/wiki/भारत#cite_note-FOOTNOTEStein1998": 4819,
      "]](https://hi.wikipedia.org/wiki/भारत#cite_note-FOOTNOTESingh2009": 4820,
      "స్తు": 4821,
      "▁సామ్రాజ్యం](https://te.wikipedia.org/wiki/": 4822,
      "ంగ్లాదేశ్": 4823,
      "▁భాషలు": 4824,
      "ారు.": 4825,
      "मुख्य": 4826,
      ".html)": 4827,
      "%E0%A4%B": 4828,
      "_ప్రా": 4829,
      "▁स्थित": 4830,
      "fication": 4831,
      "్రిటి": 4832,
      "▁అధికార": 4833,
      "त्तराखण्ड": 4834,
      "ూర్పు": 4835,
      "▁अप्रैल": 4836,
      "हिमाचल": 4837,
      "▁लेख:": 4838,
      "▁शताब्दी": 4839,
      "3TRtDwAAQBAJ&pg=PA": 4840,
      "కైవు": 4841,
      "\"[[": 4842,
      "318": 4843,
      "7c": 4844,
      "i-": 4845,
      "▁36": 4846,
      "▁ed.).": 4847,
      "tered": 4848,
      "isc": 4849,
      "▁(2006": 4850,
      "trod": 4851,
      "acy": 4852,
      "-15": 4853,
      "▁country": 4854,
      "▁Publishing": 4855,
      "_of_C": 4856,
      "ficient": 4857,
      "ource": 4858,
      "▁Tamil": 4859,
      "imach": 4860,
      "▁Di": 4861,
      "105": 4862,
      "ouncil": 4863,
      "▁Ex": 4864,
      "▁Himalay": 4865,
      "upta": 4866,
      "▁Press,": 4867,
      "article": 4868,
      "▁prov": 4869,
      "ustralia": 4870,
      "ociety": 4871,
      "\"](http://": 4872,
      "*)": 4873,
      "-C": 4874,
      "-and": 4875,
      "129": 4876,
      "8+": 4877,
      "IJ": 4878,
      "Rowland": 4879,
      "_with": 4880,
      "af": 4881,
      "aury": 4882,
      "ios": 4883,
      "ject": 4884,
      "operation": 4885,
      "rid": 4886,
      "rans": 4887,
      "shar": 4888,
      "s_in_India": 4889,
      "ward": 4890,
      "ಗ್ರಾ": 4891,
      "ಣಾ": 4892,
      "ಪತಿ": 4893,
      "ಮ್": 4894,
      "ಮಾನ": 4895,
      "ಸಾ": 4896,
      "ೂರ್": 4897,
      "ೆಷಿ": 4898,
      "ೊಂಡ": 4899,
      "▁·": 4900,
      "▁ದೇಶ": 4901,
      "▁his": 4902,
      "▁ರಾಜ್ಯ": 4903,
      "orce": 4904,
      "ortheast": 4905,
      "▁\"[": 4906,
      "thnic": 4907,
      "aro": 4908,
      "aria": 4909,
      "aries": 4910,
      "20)": 4911,
      "reme": 4912,
      "icon": 4913,
      "-135": 4914,
      "▁Cooperation": 4915,
      "▁famil": 4916,
      "olon": 4917,
      "▁mar": 4918,
      "▁movement": 4919,
      "978-9": 4920,
      "linkim": 4921,
      "ists": 4922,
      "▁River": 4923,
      "rotec": 4924,
      "](https://kn.wikipedia.org/wiki/List_of_": 4925,
      "ಾರ್ವ": 4926,
      "ages/": 4927,
      "index": 4928,
      "aylor": 4929,
      "▁Ge": 4930,
      "force": 4931,
      "abha": 4932,
      "](https://en.wikipedia.org/wiki/India#CITEREFB": 4933,
      "▁[\"The": 4934,
      "]](https://en.wikipedia.org/wiki/India#cite_note-FOOTNOTEMetcalfMetcalf2006": 4935,
      "asting": 4936,
      "ರ್ಕ": 4937,
      "udi": 4938,
      "▁ಸಿ": 4939,
      "▁gre": 4940,
      "ಗಳಲ್ಲಿ": 4941,
      "overty": 4942,
      "ನ್.": 4943,
      "ternal": 4944,
      "▁ಹೋ": 4945,
      "ಕ್ಕೆ": 4946,
      "▁3,": 4947,
      "▁ನಗ": 4948,
      "ತ್ತು_": 4949,
      "▁ಅತಿ": 4950,
      "ಸಂಸ್ಕ": 4951,
      "ಸಿಖ್": 4952,
      "india.gov.in/india-glance/": 4953,
      "do-P": 4954,
      "▁tex": 4955,
      "▁ಆರ್ಥಿಕ": 4956,
      "ಸ್ಥಾನ": 4957,
      "▁economy": 4958,
      ".svg.png)": 4959,
      "ಗಣರಾಜ್ಯ": 4960,
      "▁ಹೆಸ": 4961,
      "-lead": 4962,
      "_ಮತ್ತು_": 4963,
      "ಪ್ರದೇಶ": 4964,
      "▁೧೯": 4965,
      "ತ್ರಿಕ": 4966,
      "೨೦೧": 4967,
      "ೇಂದ್ರ": 4968,
      "nclm.nic.in/shar": 4969,
      "ed/linkim": 4970,
      "donesia": 4971,
      "ಸಿಂಧೂ": 4972,
      "▁ಹೆಚ್ಚು": 4973,
      "Rowland1970": 4974,
      "ೆಷಿನ್": 4975,
      "ಾರ್ವತ್ರಿಕ": 4976,
      "ಸಂಸ್ಕೃತ": 4977,
      "nclm.nic.in/shared/linkim": 4978,
      "nclm.nic.in/shared/linkimages/": 4979,
      "QAAQBAJ&pg=PA": 4980,
      "_h": 4981,
      "arath": 4982,
      "-06": 4983,
      "Univers": 4984,
      "▁Linguistic": 4985,
      "ssam": 4986,
      "▁control": 4987,
      "duct": 4988,
      ",NGDP": 4989,
      "-S": 4990,
      "-with": 4991,
      ".ni": 4992,
      "/D": 4993,
      "2)[[": 4994,
      "DD": 4995,
      "_राज": 4996,
      "ls": 4997,
      "p?": 4998,
      "uth": 4999,
      "को": 5000,
      "गत": 5001,
      "गू": 5002,
      "तृत": 5003,
      "म\")": 5004,
      "वल": 5005,
      "श्य": 5006,
      "षय": 5007,
      "हरा": 5008,
      "हित": 5009,
      "िनेमा": 5010,
      "ी.": 5011,
      "ृद्ध": 5012,
      "ेघ": 5013,
      "ంజా": 5014,
      "గి": 5015,
      "టీ": 5016,
      "టాన్": 5017,
      "మంత్రి": 5018,
      "లను": 5019,
      "వె": 5020,
      "వరణ": 5021,
      "హదార": 5022,
      "ూచ": 5023,
      "▁z": 5024,
      "▁హ": 5025,
      "▁భారతదేశ": 5026,
      ".org": 5027,
      "▁[c": 5028,
      "▁[ग": 5029,
      "▁\"तमिल": 5030,
      "on,": 5031,
      "India.pdf)": 5032,
      "arli": 5033,
      "report": 5034,
      "▁सक": 5035,
      "्यों": 5036,
      "్రమ": 5037,
      "-16": 5038,
      "▁P.": 5039,
      "▁Public": 5040,
      "▁अव": 5041,
      "tical_": 5042,
      "▁प्रेस": 5043,
      "▁प्रौद्योगिक": 5044,
      "्वतंत्रता": 5045,
      "భారతదేశ_": 5046,
      "▁కొ": 5047,
      "▁व्य": 5048,
      "▁వ్యా": 5049,
      "▁new": 5050,
      "▁J.": 5051,
      "▁మత": 5052,
      "▁మతము": 5053,
      "160": 5054,
      "▁शु": 5055,
      "▁संसद": 5056,
      "తావరణ": 5057,
      "నాడు": 5058,
      "ियार": 5059,
      "▁लोक": 5060,
      "▁राज्य\")": 5061,
      "हाय": 5062,
      "परमाणु": 5063,
      "ोलन": 5064,
      "▁ఉంది.": 5065,
      "ेली": 5066,
      "efficient": 5067,
      "▁ఇతర": 5068,
      "▁जाती": 5069,
      "economic": 5070,
      "▁राजवंश": 5071,
      "ాయి": 5072,
      "▁स्था": 5073,
      "▁स्थान": 5074,
      "ज्ज": 5075,
      "ణాసియా": 5076,
      "▁life": 5077,
      "▁प्राचीन": 5078,
      "▁था।": 5079,
      "▁धर्म\")": 5080,
      "ांग्लादेश": 5081,
      "టెడ్": 5082,
      "▁ఆర్కైవు": 5083,
      "/files/": 5084,
      "महाद्वीप": 5085,
      "▁\"हिन्दी\")": 5086,
      "▁రైలు": 5087,
      "భూటాన్": 5088,
      "▁पहले": 5089,
      "_సామ్రాజ్యం": 5090,
      "ildlife": 5091,
      "▁[हिन्दी](https://hi.wikipedia.org/wiki/हिन्दी": 5092,
      "▁चुनावों": 5093,
      "pringer": 5094,
      "▁सैन्य": 5095,
      "వాతంత్ర్య": 5096,
      "-an": 5097,
      "09": 5098,
      "2]](https://en.wikipedia.org/wiki/India#cite_note-": 5099,
      "2-4": 5100,
      "Gua": 5101,
      "IB": 5102,
      "JIJ": 5103,
      "Taj": 5104,
      "Zva": 5105,
      "ham": 5106,
      "lurton": 5107,
      "ris": 5108,
      "▁el": 5109,
      "▁urban": 5110,
      "enni": 5111,
      "](https://en.wikipedia.org/wiki/United": 5112,
      "arh": 5113,
      "arendra": 5114,
      "▁them": 5115,
      "icob": 5116,
      "▁India](https://en.wikipedia.org/wiki/G": 5117,
      "▁influ": 5118,
      "▁summit": 5119,
      "-00": 5120,
      "▁pre": 5121,
      "▁painting": 5122,
      "▁Affairs": 5123,
      "▁S.": 5124,
      "umeration": 5125,
      "loc": 5126,
      "lopedia": 5127,
      "▁western": 5128,
      "▁This": 5129,
      "ravi": 5130,
      "ayback": 5131,
      "▁1960": 5132,
      "▁Europe": 5133,
      "▁eastern": 5134,
      "erry": 5135,
      "▁rem": 5136,
      "22)": 5137,
      "▁Registrar": 5138,
      "uduch": 5139,
      "▁Lank": 5140,
      "▁Kingdom": 5141,
      "avi": 5142,
      "▁[↑](https://en.wikipedia.org/wiki/India#cite_ref-FOOTNOTEMetcalfMetcalf2006": 5143,
      "illenni": 5144,
      "▁ext": 5145,
      "_Temple": 5146,
      "ext": 5147,
      "ikkim": 5148,
      "_Re": 5149,
      "▁contrib": 5150,
      "general_": 5151,
      "rough": 5152,
      "_Nadu": 5153,
      "amil_Nadu": 5154,
      "\")*,": 5155,
      "_Indian_general_": 5156,
      "▁dispu": 5157,
      "cyclopedia": 5158,
      "volution": 5159,
      "hanghai": 5160,
      "▁employ": 5161,
      "quality": 5162,
      "GuaJIJ": 5163,
      "ZvaGuaJIJ": 5164,
      "uducherry": 5165,
      "illennium": 5166,
      "_Indian_general_election": 5167,
      "ZvaGuaJIJgo": 5168,
      "-50": 5169,
      "-29": 5170,
      "/ark": 5171,
      "320": 5172,
      "300": 5173,
      "CL": 5174,
      "Vu": 5175,
      "ZVu": 5176,
      "bc": 5177,
      "f.fr": 5178,
      "kZVu": 5179,
      "map": 5180,
      "work": 5181,
      ":/121": 5182,
      "2022": 5183,
      "lem": 5184,
      "\\_(": 5185,
      "url": 5186,
      "▁Portal": 5187,
      "akes": 5188,
      "▁[\"National": 5189,
      "%20A": 5190,
      "48/cb": 5191,
      "atis": 5192,
      "html).": 5193,
      "hya": 5194,
      "cyclop": 5195,
      "▁Minorities": 5196,
      ".bnf.fr": 5197,
      "/ark:/121": 5198,
      ".bnf.fr/ark:/121": 5199,
      ".bnf.fr/ark:/12148/cb": 5200,
      "1%": 5201,
      "3-8": 5202,
      ";\r\n": 5203,
      "Human": 5204,
      "NA": 5205,
      "cess": 5206,
      "eu": 5207,
      "hra": 5208,
      "ii": 5209,
      "oast": 5210,
      "rof": 5211,
      "str": 5212,
      "tl": 5213,
      "▁[National": 5214,
      "▁[World": 5215,
      "es,": 5216,
      "reed": 5217,
      "ator": 5218,
      "atab": 5219,
      "▁culture": 5220,
      "▁billion": 5221,
      "23.": 5222,
      "24.": 5223,
      "bert": 5224,
      "▁Government": 5225,
      "▁2001": 5226,
      "▁Ocean": 5227,
      "ogue": 5228,
      "type": 5229,
      "gisl": 5230,
      "8/8": 5231,
      "▁composed": 5232,
      "urrent": 5233,
      "▁Programme": 5234,
      ".html).": 5235,
      "cording": 5236,
      "pectancy": 5237,
      "National_Informatics_Centre2005": 5238,
      "&ss": 5239,
      "4]](https://en.wikipedia.org/wiki/India#cite_note-": 5240,
      "9]](https://en.wikipedia.org/wiki/India#cite_note-": 5241,
      ":**": 5242,
      "Kashmir": 5243,
      "Provision": 5244,
      "SAARC_summit": 5245,
      "_घ": 5246,
      "_द": 5247,
      "ax": 5248,
      "ka": 5249,
      "lood": 5250,
      "mrits": 5251,
      "oard": 5252,
      "ranc": 5253,
      "yam": 5254,
      "ंत": 5255,
      "अभि": 5256,
      "क्": 5257,
      "खन": 5258,
      "गान": 5259,
      "ग्व": 5260,
      "च्": 5261,
      "जं": 5262,
      "टान": 5263,
      "थिल": 5264,
      "दार": 5265,
      "फोर्ड": 5266,
      "ब्ल": 5267,
      "बेट": 5268,
      "भु": 5269,
      "मु": 5270,
      "यत": 5271,
      "यर": 5272,
      "रत": 5273,
      "वास": 5274,
      "ेड": 5275,
      "ैंक": 5276,
      "ैथिल": 5277,
      "ॉल": 5278,
      "ॉंग्रेस": 5279,
      "ोस": 5280,
      "ौसेना": 5281,
      "१८": 5282,
      "२००": 5283,
      "ంశ": 5284,
      "ఆర్": 5285,
      "ఉత్తర": 5286,
      "ఒడి": 5287,
      "కీయ": 5288,
      "గలు": 5289,
      "చు": 5290,
      "జరా": 5291,
      "తూర్పు": 5292,
      "భు": 5293,
      "మన్": 5294,
      "యి": 5295,
      "లస": 5296,
      "ీన": 5297,
      "ేక": 5298,
      "ಕ್ರ": 5299,
      "ತ್ಯ": 5300,
      "ಧಾನ": 5301,
      "ಬ್": 5302,
      "ಸು": 5303,
      "್ಥ": 5304,
      "೦೦": 5305,
      "–4": 5306,
      "–24": 5307,
      "▁డ": 5308,
      "▁ತ": 5309,
      "▁ರಾಷ್ಟ್ರ": 5310,
      "▁ईसा": 5311,
      "▁జాబితా": 5312,
      "▁[ड": 5313,
      "▁[ल": 5314,
      "▁[భారతదేశ": 5315,
      "▁[दक्षिण": 5316,
      "▁[पाकिस्तान": 5317,
      "▁\"दक्षिण": 5318,
      "▁\"पाकिस्तान": 5319,
      "hib": 5320,
      "esti": 5321,
      "](https://hi.wikipedia.org/wiki/न": 5322,
      "](https://hi.wikipedia.org/wiki/पाकिस्तान": 5323,
      "▁साल": 5324,
      "astr": 5325,
      "▁मो": 5326,
      "▁मौ": 5327,
      "▁second": 5328,
      "राम": 5329,
      "atar": 5330,
      "](https://hi.wikipedia.org/wiki/भारत_के": 5331,
      "[[14": 5332,
      "▁far": 5333,
      "urve": 5334,
      "topic": 5335,
      "ular": 5336,
      "uled": 5337,
      "ver,": 5338,
      "hell": 5339,
      "▁women": 5340,
      "▁పట్ట": 5341,
      "▁**జాతీయ": 5342,
      "raj": 5343,
      "raz": 5344,
      "_की_": 5345,
      "](https://kn.wikipedia.org/wiki/ಚ": 5346,
      "ర్\")": 5347,
      "ंगाना": 5348,
      "▁भारत\")": 5349,
      "▁1965": 5350,
      "ly,": 5351,
      "▁Gu": 5352,
      "▁Nehru": 5353,
      "▁November": 5354,
      "architecture": 5355,
      "253": 5356,
      "▁आर्थिक": 5357,
      "నిక": 5358,
      "▁report": 5359,
      "▁[\"G": 5360,
      "ంగ్రె": 5361,
      "▁సభ": 5362,
      "ड़ियाँ": 5363,
      "▁उन": 5364,
      "▁ಸ್ಥ": 5365,
      ".gov.in": 5366,
      "काता": 5367,
      "తాబ్": 5368,
      "aves": 5369,
      "▁इंडिया": 5370,
      "ी](https://hi.wikipedia.org/wiki/द": 5371,
      "undament": 5372,
      "ರಾಜ": 5373,
      "ंडोन": 5374,
      "▁ప్రపంచ": 5375,
      "▁ప్రభు": 5376,
      "▁राज्यक्षेत्र": 5377,
      "▁विस्त": 5378,
      "▁विदेश": 5379,
      "oreign": 5380,
      "ंग्रेजी": 5381,
      "ोलकाता": 5382,
      "ंध्र": 5383,
      "key": 5384,
      "▁अन्त": 5385,
      "▁ఆసియా": 5386,
      "▁क्षेत्रों": 5387,
      "▁नेतृत": 5388,
      "▁[Government": 5389,
      "▁ವರ್": 5390,
      "केन्द्र": 5391,
      "ಂತ್ರಿ": 5392,
      "▁\"अंग्रेज़ी": 5393,
      "gional": 5394,
      "▁ಅನೇ": 5395,
      "athur": 5396,
      "మ్రాజ్య": 5397,
      "▁देश\")": 5398,
      "▁जनवरी": 5399,
      "](https://en.wikipedia.org/wiki/List_of_SAARC_summit": 5400,
      "हरिया": 5401,
      "ूर्वी": 5402,
      "economy": 5403,
      "पुरम": 5404,
      "▁मेला\"),": 5405,
      "ंग्रेज़ी_भाषा": 5406,
      "िशा": 5407,
      "timesofindia": 5408,
      "గుజరా": 5409,
      "ದೆ.\r\n": 5410,
      "▁technology": 5411,
      "anta": 5412,
      "alayal": 5413,
      "▁२०१": 5414,
      "awahar": 5415,
      "समिया": 5416,
      "▁సామ్రాజ్యం\")": 5417,
      "▁Hinduism": 5418,
      "ज्ञाप": 5419,
      "न्नई": 5420,
      "बंधन": 5421,
      "▁पुरालेखित।,": 5422,
      "త్యేక": 5423,
      "రాష్ట్రపతి": 5424,
      "kingdom": 5425,
      "ప్ప": 5426,
      "▁मानसून": 5427,
      "_और_संघ": 5428,
      "▁కాశ్మీ": 5429,
      "▁రాజవంశం": 5430,
      "▁युग": 5431,
      "रक्षा": 5432,
      "वादी": 5433,
      "▁स्वतंत्रता": 5434,
      "_के_आधार_पर_भारत_के_राज्यों_की_सूची": 5435,
      "तेलंगाना": 5436,
      "▁ಸಾಮ್ರಾಜ್ಯ": 5437,
      "▁చెంద": 5438,
      "▁ఆర్ధిక": 5439,
      "eserve": 5440,
      "%20%20%20%20": 5441,
      "चेन्नई": 5442,
      "▁बहुत": 5443,
      "▁ಜನಸಂಖ್ಯೆಯ": 5444,
      "ಟ್ಟು": 5445,
      "पीठ": 5446,
      "▁స్థాన": 5447,
      "hasha": 5448,
      "▁[↑](https://kn.wikipedia.org/wiki/ಭಾರತ#cite_ref-": 5449,
      "తమిళనాడు": 5450,
      "▁Persian": 5451,
      "-4020": 5452,
      "क्सफोर्ड": 5453,
      "▁निर्माण": 5454,
      "omason": 5455,
      "_Islands": 5456,
      "त्रिपुरा": 5457,
      "▁groups": 5458,
      "ప్రధానమంత్రి": 5459,
      "_BRICS_summit": 5460,
      "గణతంత్ర": 5461,
      "▁క్రీడ": 5462,
      "ootball": 5463,
      "▁ఉన్నాయి.": 5464,
      "तेलुगू": 5465,
      "भीमबेट": 5466,
      "▁ಸ್ವಾ": 5467,
      "overeign": 5468,
      "झारखंड": 5469,
      "छत्तीसगढ़": 5470,
      "िंधु": 5471,
      "ఆఫ్ఘ": 5472,
      "శ్రీలంక": 5473,
      "షియా": 5474,
      "▁मुख्य": 5475,
      "న్‌ఫ": 5476,
      "నేపాల్": 5477,
      "ब्बत": 5478,
      "▁[अंग्रेज़ी](https://hi.wikipedia.org/wiki/अंग्रेज़ी_भाषा": 5479,
      "rahmaputra": 5480,
      "emocracy": 5481,
      "▁ओर": 5482,
      "▁कुछ": 5483,
      "icobar": 5484,
      "▁summits\")": 5485,
      "ZvaGuaJIJgoC&pg=PA": 5486,
      "rancis": 5487,
      "अभिज्ञाप": 5488,
      "च्छ": 5489,
      "తాబ్ద": 5490,
      "▁ಅನೇಕ": 5491,
      "](https://en.wikipedia.org/wiki/List_of_SAARC_summits": 5492,
      "timesofindia.indiatimes.com/": 5493,
      "awaharl": 5494,
      "भीमबेटका": 5495,
      "अभिज्ञापक": 5496,
      "%)": 5497,
      "-D": 5498,
      "/India": 5499,
      "9–": 5500,
      "CH": 5501,
      "Ethnologue": 5502,
      "PO": 5503,
      "_2": 5504,
      "_24": 5505,
      "a)": 5506,
      "bbc": 5507,
      "f/": 5508,
      "ned": 5509,
      "2021": 5510,
      "198": 5511,
      "entury": 5512,
      "\\_par": 5513,
      "\\_articles": 5514,
      "▁mi": 5515,
      "▁des": 5516,
      "▁Territory": 5517,
      "ecret": 5518,
      "▁H.": 5519,
      "archive.org/detail": 5520,
      "166": 5521,
      "709": 5522,
      "ameters": 5523,
      "▁disc": 5524,
      "▁2024.": 5525,
      "langoff-1": 5526,
      "hristian": 5527,
      "fferent": 5528,
      "\\_parameters": 5529,
      "archive.org/details/": 5530,
      "\\_parameters#": 5531,
      "-n": 5532,
      "125": 5533,
      "7).": 5534,
      "AS": 5535,
      "Bharat": 5536,
      "Library": 5537,
      "_38": 5538,
      "_languages": 5539,
      "cog": 5540,
      "gra": 5541,
      "most": 5542,
      "▁°": 5543,
      "▁Qu": 5544,
      "dia/": 5545,
      "erg": 5546,
      "▁sector": 5547,
      "▁Centre": 5548,
      "unknown": 5549,
      "▁Rothermund": 5550,
      "rain": 5551,
      "_Ass": 5552,
      "aryana": 5553,
      "22-9": 5554,
      "▁name": 5555,
      "▁human": 5556,
      "good": 5557,
      "▁[Ministry": 5558,
      "▁\"British": 5559,
      "hmed": 5560,
      "olitical_": 5561,
      "_128": 5562,
      "contain": 5563,
      "feb": 5564,
      "india.gov.in/kno": 5565,
      "official": 5566,
      "irector": 5567,
      "▁Plateau": 5568,
      "etraglia": 5569,
      "windia/": 5570,
      "bank.org/": 5571,
      "▁Wikidata": 5572,
      "india.gov.in/knowindia/": 5573,
      ".\")\r\n": 5574,
      ".](https://upload.wikimedia.org/wikipedia/commons/thumb/": 5575,
      "313": 5576,
      "4]](https://en.wikipedia.org/wiki/India#cite_note-FOOTNOTE": 5577,
      "5]](https://en.wikipedia.org/wiki/India#cite_note-FOOTNOTE": 5578,
      "577": 5579,
      "6]](https://en.wikipedia.org/wiki/India#cite_note-FOOTNOTE": 5580,
      "74": 5581,
      "Ch": 5582,
      "MC": 5583,
      "MID": 5584,
      "_17": 5585,
      "aur": 5586,
      "aha": 5587,
      "ather": 5588,
      "ced": 5589,
      "cise": 5590,
      "code": 5591,
      "casting": 5592,
      "ght": 5593,
      "hat": 5594,
      "had": 5595,
      "ij": 5596,
      "iti": 5597,
      "lue": 5598,
      "law": 5599,
      "mon": 5600,
      "ncient": 5601,
      "ov": 5602,
      "pture": 5603,
      "rust": 5604,
      "sur": 5605,
      "yy": 5606,
      "▁low": 5607,
      "▁[f": 5608,
      "ency": 5609,
      "▁\"World": 5610,
      "th_BRICS_summit": 5611,
      "arlo": 5612,
      "202": 5613,
      "aland": 5614,
      "alli": 5615,
      "▁(nominal)": 5616,
      "outheast": 5617,
      "2012": 5618,
      "▁India.[[": 5619,
      "▁caus": 5620,
      "▁Civil": 5621,
      "▁Agency": 5622,
      "ref-10": 5623,
      "note-10": 5624,
      "▁Punjab": 5625,
      "igr": 5626,
      "iger": 5627,
      "▁man": 5628,
      "\"),[[": 5629,
      "loth": 5630,
      "_of_2011": 5631,
      "▁2014.": 5632,
      "21.": 5633,
      "▁Research": 5634,
      "▁app": 5635,
      "ema": 5636,
      "emic": 5637,
      "emographic": 5638,
      "agari": 5639,
      "hatt": 5640,
      "upt": 5641,
      "oples": 5642,
      "▁these": 5643,
      "ability": 5644,
      "](https://en.wikipedia.org/wiki/India#CITEREFM": 5645,
      "▁hum": 5646,
      "_and_C": 5647,
      "_Paper": 5648,
      "17.": 5649,
      "▁tree": 5650,
      "a_d": 5651,
      "▁[↑](https://en.wikipedia.org/wiki/India#cite_ref-FOOTNOTEB": 5652,
      "arty": 5653,
      "opulation_T": 5654,
      "▁development": 5655,
      "ports": 5656,
      "▁language\"),": 5657,
      "ociation": 5658,
      "▁Press](https://en.wikipedia.org/wiki/C": 5659,
      "ibet": 5660,
      "ibcode": 5661,
      "ikhism": 5662,
      "ender": 5663,
      "_1_of_2011": 5664,
      "▁[Dyson": 5665,
      "▁[![A": 5666,
      "▁1994": 5667,
      "674": 5668,
      "do-European": 5669,
      "ological": 5670,
      "▁languages\")": 5671,
      "▁addition": 5672,
      "▁liter": 5673,
      "▁when": 5674,
      "o-operation": 5675,
      "_Lank": 5676,
      "▁Islands\")": 5677,
      "gypt": 5678,
      "uisine": 5679,
      "odiversity": 5680,
      "dependence": 5681,
      "vanagari": 5682,
      "disha": 5683,
      ".php?": 5684,
      "ighth": 5685,
      "oint": 5686,
      "al_Population_T": 5687,
      "JPG": 5688,
      "▁mathema": 5689,
      "arnatic": 5690,
      "ynasty": 5691,
      "roadcasting": 5692,
      "otals_Paper": 5693,
      "8+5": 5694,
      "Provisional_Population_T": 5695,
      "_1_of_2011_India": 5696,
      "otals_Paper_1_of_2011_India": 5697,
      "Provisional_Population_Totals_Paper_1_of_2011_India": 5698,
      "-r": 5699,
      "6,": 5700,
      "AG": 5701,
      "C-0": 5702,
      "EX": 5703,
      "\\*": 5704,
      "_इ": 5705,
      "_श": 5706,
      "_धर्म": 5707,
      "_ప్రదేశ్": 5708,
      "hdr": 5709,
      "mill": 5710,
      "nc": 5711,
      "o-d": 5712,
      "ues": 5713,
      "ँची": 5714,
      "अंग्रेज़ी": 5715,
      "उप": 5716,
      "एन": 5717,
      "टना": 5718,
      "तन": 5719,
      "द्वार": 5720,
      "पार": 5721,
      "भग": 5722,
      "मरी": 5723,
      "रि": 5724,
      "स्व": 5725,
      "ेद": 5726,
      "ोला": 5727,
      "ం,": 5728,
      "ఉప": 5729,
      "కొ": 5730,
      "కేంద్రపాలిత": 5731,
      "జె": 5732,
      "ఢ్": 5733,
      "ది.": 5734,
      "నాల": 5735,
      "లే": 5736,
      "ళు": 5737,
      "ౌద్ధ": 5738,
      "▁औ": 5739,
      "▁भा": 5740,
      "▁ले": 5741,
      "▁భా": 5742,
      "▁भाग": 5743,
      "▁[य": 5744,
      "▁[ह": 5745,
      "▁[వి": 5746,
      "▁\"य": 5747,
      "an-": 5748,
      "ara": 5749,
      "ars": 5750,
      "2025": 5751,
      "rel": 5752,
      "](https://hi.wikipedia.org/wiki/दक्षिण": 5753,
      "](https://hi.wikipedia.org/wiki/तमिल": 5754,
      "▁काल": 5755,
      "▁कॉंग्रेस": 5756,
      "्रय": 5757,
      "भारतीय": 5758,
      "▁(c": 5759,
      "▁सभा": 5760,
      "▁सित": 5761,
      "▁समाज": 5762,
      "▁मई": 5763,
      "▁मन": 5764,
      "▁मह": 5765,
      "▁मिल": 5766,
      "▁मशीन": 5767,
      "adhya": 5768,
      "ेंगल": 5769,
      "र्ध": 5770,
      "](https://hi.wikipedia.org/wiki/भारत_के_राज्य": 5771,
      "्तु": 5772,
      "ాలీ": 5773,
      "▁में,": 5774,
      "▁2012.": 5775,
      "▁अभ": 5776,
      "▁जब": 5777,
      "-0)\r\n": 5778,
      "ర్చ": 5779,
      "▁द्वीप": 5780,
      "emon": 5781,
      "▁28.": 5782,
      "_(भारत)": 5783,
      "108": 5784,
      "agen": 5785,
      "▁नव": 5786,
      "_से": 5787,
      "_साम": 5788,
      "260": 5789,
      "▁व्या": 5790,
      "ాలు?action=edit&redlink=1": 5791,
      "_Act": 5792,
      "▁[\"P": 5793,
      "▁गई": 5794,
      "ड़िया": 5795,
      "▁शहर": 5796,
      "▁[मध्य": 5797,
      "]](https://hi.wikipedia.org/wiki/भारत#cite_note-pib": 5798,
      "म्भ": 5799,
      "_के_अन": 5800,
      "संधान": 5801,
      "त्तरी": 5802,
      "–సా.శ.18": 5803,
      "▁అత్య": 5804,
      "▁लिये": 5805,
      "▁यूनिवर्सिट": 5806,
      "▁ఆధ": 5807,
      "మాఖ్య": 5808,
      "వాణా": 5809,
      "ంటి": 5810,
      "content": 5811,
      "▁जनजाति": 5812,
      "-symbols": 5813,
      "▁राजधान": 5814,
      "▁దేశం": 5815,
      "रुणा": 5816,
      "డ్డ": 5817,
      "▁జనాభా": 5818,
      "దక్షిణాసియా": 5819,
      "national-symbols": 5820,
      "▁గల": 5821,
      "▁భారతదేశంలో": 5822,
      "ంగ్లీ": 5823,
      "యునై": 5824,
      "ష్ణ": 5825,
      "_చరిత్ర?action=edit&redlink=1": 5826,
      "ोर्ट": 5827,
      "-language\\_s": 5828,
      "▁రాష్ట్రాలు,": 5829,
      "▁साम्राज्य\")": 5830,
      "_మతము": 5831,
      "धुनिक": 5832,
      "▁మొద": 5833,
      "jection": 5834,
      "ूर्ण": 5835,
      "ources\\_(": 5836,
      "▁(2018),": 5837,
      "rishnan": 5838,
      "_देशों_की_सूची": 5839,
      "ताजमह": 5840,
      "▁చెయ్యబడింది.": 5841,
      "▁religious": 5842,
      "क्षरता": 5843,
      "▁स्थाप": 5844,
      "kZVuDwAAQBAJ&pg=PA": 5845,
      "▁[पाकिस्तान](https://hi.wikipedia.org/wiki/पाकिस्तान": 5846,
      "ेंगलुरु": 5847,
      "_साम्राज्य": 5848,
      "_के_अनुसार": 5849,
      "▁यूनिवर्सिटी": 5850,
      "యునైటెడ్": 5851,
      "-language\\_sources\\_(": 5852,
      "/hind": 5853,
      "1-3": 5854,
      "3–": 5855,
      "338": 5856,
      "6%": 5857,
      "S.": 5858,
      "_2011": 5859,
      "hut": 5860,
      "les/": 5861,
      "ption": 5862,
      "▁old": 5863,
      "en,": 5864,
      "▁\"19": 5865,
      "▁sim": 5866,
      "▁prom": 5867,
      "atch": 5868,
      "▁Central": 5869,
      "▁14.": 5870,
      "ull": 5871,
      "vert": 5872,
      "▁M.": 5873,
      "1017": 5874,
      "267": 5875,
      "▁only": 5876,
      "▁near": 5877,
      "▁[Singh": 5878,
      "407": 5879,
      "170": 5880,
      "27)": 5881,
      "▁[British": 5882,
      "iving": 5883,
      "▁def": 5884,
      "▁\"Government": 5885,
      "857": 5886,
      "▁[New": 5887,
      "▁[Kulke": 5888,
      "overnment_of_India": 5889,
      "▁use": 5890,
      "▁2022.\r\n": 5891,
      "▁along": 5892,
      "catal": 5893,
      "Hindustan": 5894,
      "ecurity": 5895,
      "arliest": 5896,
      "-logo": 5897,
      ".uk": 5898,
      "0&s": 5899,
      "1-4": 5900,
      "5).": 5901,
      "677": 5902,
      "ES": 5903,
      "F)": 5904,
      "For": 5905,
      "IF": 5906,
      "IUCN": 5907,
      "_-": 5908,
      "_g": 5909,
      "_pe": 5910,
      "_ಭಾಷೆ": 5911,
      "ett": 5912,
      "epend": 5913,
      "hu": 5914,
      "i.": 5915,
      "ie": 5916,
      "ith": 5917,
      "jan": 5918,
      "phere": 5919,
      "vil": 5920,
      "ಂಶ": 5921,
      "ಏಷ್ಯಾ": 5922,
      "ಧಿಕ": 5923,
      "ನಿ": 5924,
      "ಯನ್": 5925,
      "ಲ್ತ": 5926,
      "ಲೋಕ": 5927,
      "ಾಲ್": 5928,
      "ಿಣ": 5929,
      "▁ಭ": 5930,
      "▁United": 5931,
      "orn": 5932,
      "oro": 5933,
      "](Template:": 5934,
      "anat": 5935,
      "tici": 5936,
      "hild": 5937,
      "ed,": 5938,
      "anda": 5939,
      "asi": 5940,
      "ashi": 5941,
      "▁India*.": 5942,
      "▁India](https://en.wikipedia.org/wiki/C": 5943,
      "ation,": 5944,
      "ating": 5945,
      "▁colle": 5946,
      "adwe": 5947,
      "adras": 5948,
      "\\_or": 5949,
      "\\_contain": 5950,
      "[[೧": 5951,
      "▁Park": 5952,
      "ign_": 5953,
      "igarh": 5954,
      "ions": 5955,
      "]](https://en.wikipedia.org/wiki/India#cite_note-Combined": 5956,
      "▁Man": 5957,
      "▁att": 5958,
      "▁ago": 5959,
      "](https://kn.wikipedia.org/wiki/G": 5960,
      "irth": 5961,
      "imal": 5962,
      "▁B.;": 5963,
      "eccan": 5964,
      "pecially": 5965,
      "▁Games": 5966,
      "▁through": 5967,
      "22.": 5968,
      "▁ಸು": 5969,
      "AAJ": 5970,
      "▁gen": 5971,
      "▁growth": 5972,
      "▁ಮಾ": 5973,
      "14.": 5974,
      "▁[Central": 5975,
      "ಂದರೆ": 5976,
      "▁ಪಶ್ಚಿಮ": 5977,
      "▁ಪೂರ್": 5978,
      "▁\"Mughal": 5979,
      "a_Empire": 5980,
      "](https://en.wikipedia.org/wiki/Mugh": 5981,
      "▁within": 5982,
      "](https://en.wikipedia.org/wiki/British": 5983,
      "-107-0": 5984,
      "▁\"Template:": 5985,
      "arden": 5986,
      "▁exp": 5987,
      "issing": 5988,
      "▁ವ್ಯವ": 5989,
      "▁ನಂತರ": 5990,
      "49-2": 5991,
      "handigarh": 5992,
      "್ವೀಪ": 5993,
      "_Force": 5994,
      "ynth": 5995,
      "▁State": 5996,
      "attle": 5997,
      "%E0%B": 5998,
      "▁ಸಂಪ": 5999,
      "▁News": 6000,
      "ediff": 6001,
      "ದ್ದು": 6002,
      "ಕ್ಷಿಣ": 6003,
      "ortal:": 6004,
      "ographical": 6005,
      "Dyson2018),": 6006,
      "ಹಿಂದಿ": 6007,
      "ote:": 6008,
      "▁especially": 6009,
      "▁ರೂ": 6010,
      "▁ರಲ್ಲಿ": 6011,
      "▁ಚುನಾವಣೆ": 6012,
      "rishna": 6013,
      "culpture": 6014,
      "ಾಲಯ": 6015,
      "▁ಶತ": 6016,
      "-of-india-": 6017,
      "▁Buddhist": 6018,
      "ilgrim": 6019,
      ".htm)": 6020,
      "▁ಒಟ್ಟು": 6021,
      "](https://en.wikipedia.org/wiki/South_Asian_": 6022,
      "▁2018](https://en.wikipedia.org/wiki/India#CITEREFDyson2018),": 6023,
      "tudies": 6024,
      "akshadwe": 6025,
      "achine": 6026,
      "violence": 6027,
      "arnataka": 6028,
      "▁increased": 6029,
      "](https://en.wikipedia.org/wiki/History_of_": 6030,
      "ಳುವ": 6031,
      "▁ಬೆಳ": 6032,
      "countries_and_dependencies_by_population": 6033,
      "▁remain": 6034,
      "urvey": 6035,
      "▁ಸ್ವಾತಂತ್ರ್ಯ": 6036,
      "▁Quote:": 6037,
      "hattis": 6038,
      "ಧಿಕೃತ": 6039,
      "▁ಪೂರ್ವ": 6040,
      "](https://en.wikipedia.org/wiki/Mughal_": 6041,
      "akshadweep": 6042,
      "2)\r\n": 6043,
      "350": 6044,
      "534": 6045,
      "7.\r\n": 6046,
      "Alig": 6047,
      "_on": 6048,
      "_per": 6049,
      "_36": 6050,
      "lm": 6051,
      "oord": 6052,
      "que": 6053,
      "tandard": 6054,
      "vent": 6055,
      "▁<": 6056,
      "▁[978-0-521": 6057,
      "cit": 6058,
      "▁(b": 6059,
      "▁domestic": 6060,
      "▁Muslim": 6061,
      "ime": 6062,
      "rest": 6063,
      "emplate_": 6064,
      "238": 6065,
      "50th": 6066,
      ".jpe": 6067,
      "prof": 6068,
      "iance": 6069,
      "on-Alig": 6070,
      "-level": 6071,
      ".nlm": 6072,
      "bi.nlm": 6073,
      "▁Monetary": 6074,
      "Pages\\_using\\_infobox": 6075,
      "\\_country\\_with\\_": 6076,
      ".nih": 6077,
      "mritsar": 6078,
      "ncbi.nlm": 6079,
      "on-Aligned": 6080,
      "ncbi.nlm.nih": 6081,
      "/we": 6082,
      "123": 6083,
      ":EditPage/": 6084,
      ";[[": 6085,
      "E﻿": 6086,
      "Official": 6087,
      "_న": 6088,
      "_राज्य": 6089,
      "_15": 6090,
      "_एशिया": 6091,
      "a-b": 6092,
      "ek": 6093,
      "ंतर": 6094,
      "ईल": 6095,
      "ख्य": 6096,
      "घर": 6097,
      "चें": 6098,
      "तम": 6099,
      "तुल": 6100,
      "थियार": 6101,
      "फा": 6102,
      "बा": 6103,
      "मर": 6104,
      "मार": 6105,
      "वेश": 6106,
      "वैद": 6107,
      "शन": 6108,
      "िबंध": 6109,
      "ृष": 6110,
      "ृष्ण": 6111,
      "ोट": 6112,
      "्लेट": 6113,
      "ఖండ": 6114,
      "గం": 6115,
      "టిక": 6116,
      "డే": 6117,
      "ద్య": 6118,
      "మార్": 6119,
      "మాలయ": 6120,
      "లలో": 6121,
      "లకు": 6122,
      "ళ్": 6123,
      "వ](https://te.wikipedia.org/wiki/": 6124,
      "ానికి": 6125,
      "ాళు": 6126,
      "ీర్": 6127,
      "▁,": 6128,
      "▁५": 6129,
      "▁భ": 6130,
      "▁ला": 6131,
      "▁43": 6132,
      "▁80": 6133,
      "▁యు": 6134,
      "▁[प्र": 6135,
      "▁[तमिल": 6136,
      "▁[गुजरात": 6137,
      "▁\"ड": 6138,
      "▁\"ह": 6139,
      "▁\"వి": 6140,
      "alt": 6141,
      "ारो": 6142,
      "ारम्भ": 6143,
      "rem": 6144,
      "](https://hi.wikipedia.org/wiki/ग": 6145,
      "](https://hi.wikipedia.org/wiki/द": 6146,
      "▁कम": 6147,
      "▁किन": 6148,
      "्रह": 6149,
      "thehind": 6150,
      "▁सह": 6151,
      "▁स्तर": 6152,
      "▁सभ्यता": 6153,
      "trial": 6154,
      "▁popul": 6155,
      "geoh": 6156,
      "▁Chand": 6157,
      "ेंस": 6158,
      "\\_क": 6159,
      "र्ट": 6160,
      "▁fig": 6161,
      "्त्र": 6162,
      "illi": 6163,
      "ాలో": 6164,
      "ets": 6165,
      "▁अमेर": 6166,
      "▁अलग": 6167,
      "▁अर्थव्यवस्था": 6168,
      "స్వ": 6169,
      "స్లా": 6170,
      "वियत": 6171,
      "▁పాల": 6172,
      "▁जिन": 6173,
      "ाले": 6174,
      "ालैंड": 6175,
      "▁देव": 6176,
      "▁दोन": 6177,
      "న్\")": 6178,
      "न्ध": 6179,
      "▁बंगाल": 6180,
      "▁बड़े": 6181,
      "indic": 6182,
      "▁प्रधानमंत्री": 6183,
      "भाजन": 6184,
      "▁सेवा": 6185,
      "oung": 6186,
      "▁काम": 6187,
      "-39": 6188,
      "▁కార": 6189,
      "▁కలి": 6190,
      "▁व्यवस्था": 6191,
      "_Affairs": 6192,
      "రిహ": 6193,
      "రికత": 6194,
      "క్నాల": 6195,
      "▁आक": 6196,
      "▁आद": 6197,
      "ంది.\r\n": 6198,
      "నిమా": 6199,
      "▁ne": 6200,
      "▁సంగీతం": 6201,
      "▁परि": 6202,
      "▁शा": 6203,
      "ndhra": 6204,
      "▁संस्थान": 6205,
      "▁చి": 6206,
      "](https://hi.wikipedia.org/wiki/भारत#cite_ref-pib": 6207,
      "](https://hi.wikipedia.org/wiki/भारत#cite_ref-langoff": 6208,
      "]](https://hi.wikipedia.org/wiki/भारत#cite_note-langoff-1": 6209,
      "ियन": 6210,
      "ी](https://hi.wikipedia.org/wiki/म": 6211,
      "संबर": 6212,
      "सां": 6213,
      "त्ति": 6214,
      "▁रक्षा": 6215,
      "-7mar": 6216,
      "ులు\"),": 6217,
      "–సా.శ.13": 6218,
      "▁అయ": 6219,
      "_Data_": 6220,
      "▁ప్రధాన": 6221,
      "जापान": 6222,
      "▁\"मध्य": 6223,
      "हाँ": 6224,
      "aith": 6225,
      "ोली": 6226,
      "ప్రదాయ": 6227,
      "ప్రత్యేక": 6228,
      "ద్వీ": 6229,
      "▁ఉప": 6230,
      "](https://hi.wikipedia.org/wiki/मध्य": 6231,
      "issile": 6232,
      "▁రె": 6233,
      "▁[GDP": 6234,
      "న్నడ": 6235,
      "lectri": 6236,
      "द्यालय": 6237,
      "ంటు": 6238,
      "Asher2006": 6239,
      "AsherAsher2006": 6240,
      "▁దేశంలో": 6241,
      "गुप्त": 6242,
      "onstitutional": 6243,
      "120]](https://hi.wikipedia.org/wiki/भारत#cite_note-langoff-1": 6244,
      "ureau": 6245,
      "కాశ్మీ": 6246,
      "](https://hi.wikipedia.org/wiki/पंजाब": 6247,
      "](https://hi.wikipedia.org/wiki/पश्चिम": 6248,
      "ంధు": 6249,
      "Stein1998),": 6250,
      "Singh2009),": 6251,
      "వర్గం:Harv": 6252,
      "ों_की_सूची?action=edit&redlink=1": 6253,
      "▁CITEREFStein1998": 6254,
      "▁CITEREFSingh2009": 6255,
      "▁निभा": 6256,
      "](https://hi.wikipedia.org/wiki/भारत#CITEREFStein1998),": 6257,
      "](https://hi.wikipedia.org/wiki/भारत#CITEREFSingh2009),": 6258,
      "ద్ధం": 6259,
      "ద్ధి": 6260,
      "ాల్దీవ": 6261,
      "చ్చే": 6262,
      "KulkeRothermund200": 6263,
      "▁2016.\r\n": 6264,
      "దక్షిణ_": 6265,
      "/population": 6266,
      "▁थे": 6267,
      "▁पाकिस्तान": 6268,
      "▁కాంగ్రె": 6269,
      "▁उपमहाद्वीप": 6270,
      "कालीन": 6271,
      "▁2009](https://hi.wikipedia.org/wiki/भारत#CITEREFSingh2009),": 6272,
      "▁wid": 6273,
      "▁मंदिर\")": 6274,
      "eligious": 6275,
      "టెక్నాల": 6276,
      "नागालैंड": 6277,
      "▁ప్రాంతాలు": 6278,
      "धीरे": 6279,
      "హిమాలయ": 6280,
      "_from": 6281,
      "रोहर": 6282,
      "▁वर्षों": 6283,
      ".net": 6284,
      "View": 6285,
      "▁లే": 6286,
      "త్తరా": 6287,
      "నాగరికత": 6288,
      "▁देख": 6289,
      "క్కువ": 6290,
      "▁पार्टी": 6291,
      "క్‌సభ": 6292,
      "▁శాస్త్ర": 6293,
      "▁सिनेमा\"),": 6294,
      "ांति": 6295,
      "ांधी": 6296,
      "▁दृश्य": 6297,
      "▁1998](https://hi.wikipedia.org/wiki/भारत#CITEREFStein1998),": 6298,
      ".worldbank.org/": 6299,
      "ెలుగు": 6300,
      "▁होती": 6301,
      "▁भूमिका": 6302,
      "▁दिसंबर": 6303,
      "▁వచ్చింది.": 6304,
      "प्राचीन": 6305,
      "_ప్రాంత": 6306,
      "troduction": 6307,
      "uthority": 6308,
      "हित्य": 6309,
      "ेघालय": 6310,
      "▁\"पाकिस्तान\")": 6311,
      "▁नेतृत्व": 6312,
      "ర్చ:": 6313,
      "रुणाचल": 6314,
      "-language\\_sources\\_(en": 6315,
      ":EditPage/మూస:": 6316,
      "चेंज": 6317,
      "वैदिक": 6318,
      "िबंधीय": 6319,
      "ాళుక్య": 6320,
      "geohack": 6321,
      "](https://hi.wikipedia.org/wiki/भारत#cite_ref-langoff_128": 6322,
      "-7mar2011": 6323,
      "ప్రత్యేక:EditPage/మూస:": 6324,
      "120]](https://hi.wikipedia.org/wiki/भारत#cite_note-langoff-128)": 6325,
      "టెక్నాలజీ": 6326,
      "*](https://": 6327,
      "*](http://": 6328,
      "/b": 6329,
      "3).": 6330,
      "34)": 6331,
      "72": 6332,
      "7]](https://en.wikipedia.org/wiki/India#cite_note-": 6333,
      "7]](https://en.wikipedia.org/wiki/India#cite_note-FOOTNOTE": 6334,
      "82": 6335,
      "Census": 6336,
      "Language": 6337,
      "Petraglia": 6338,
      "_t": 6339,
      "_2024": 6340,
      "baki": 6341,
      "caste": 6342,
      "i_language": 6343,
      "khand": 6344,
      "mil": 6345,
      "mir": 6346,
      "pper": 6347,
      "subcontinent": 6348,
      "wana": 6349,
      "▁—": 6350,
      "▁ge": 6351,
      "▁eng": 6352,
      "▁histor": 6353,
      "iary": 6354,
      "orship": 6355,
      "ences": 6356,
      "ants": 6357,
      "](https://en.wikipedia.org/wiki/World": 6358,
      "erved": 6359,
      "artition": 6360,
      "alit": 6361,
      "es.[[": 6362,
      "ison": 6363,
      "ising": 6364,
      "ederal": 6365,
      "▁(in": 6366,
      "▁(ed.).": 6367,
      "ichell": 6368,
      "ately": 6369,
      "▁political": 6370,
      "atna": 6371,
      "uss": 6372,
      "▁As": 6373,
      "urry": 6374,
      "▁bu": 6375,
      "oln": 6376,
      "ango": 6377,
      "angam": 6378,
      "umar": 6379,
      "tock": 6380,
      "iland": 6381,
      "very": 6382,
      "lock": 6383,
      "978-3": 6384,
      "▁2016.": 6385,
      "▁work": 6386,
      "ourism": 6387,
      "ourbaki": 6388,
      "stani": 6389,
      "▁Michael": 6390,
      "rowing": 6391,
      "identifiers": 6392,
      "▁By": 6393,
      "india.com/": 6394,
      "hak": 6395,
      "115": 6396,
      "-415": 6397,
      "-459": 6398,
      "_Air": 6399,
      "-85": 6400,
      "25.": 6401,
      "▁though": 6402,
      "ubram": 6403,
      "harkhand": 6404,
      "oss": 6405,
      "▁forest": 6406,
      "406]](https://en.wikipedia.org/wiki/India#cite_note-": 6407,
      "▁\"Cambridge": 6408,
      "▁\"Central": 6409,
      "_Cooperation": 6410,
      "▁[Cambridge": 6411,
      "▁range": 6412,
      "otal": 6413,
      "▁[↑](https://en.wikipedia.org/wiki/India#cite_ref-FOOTNOTEStein2010": 6414,
      "▁before": 6415,
      "iley": 6416,
      "exist": 6417,
      "aking": 6418,
      "akistani": 6419,
      "class": 6420,
      "vention": 6421,
      "_Nations": 6422,
      "amese": 6423,
      "ambridge_University_Press": 6424,
      "▁vill": 6425,
      "ondon": 6426,
      "erves": 6427,
      "aceu": 6428,
      "▁regions": 6429,
      "1971": 6430,
      "ollingham": 6431,
      "hola": 6432,
      "▁coast": 6433,
      "▁Organisation": 6434,
      "4/4": 6435,
      "▁People": 6436,
      "cheduled": 6437,
      "▁[India](https://en.wikipedia.org/wiki/India": 6438,
      "ominion": 6439,
      "▁including": 6440,
      "ritsch": 6441,
      "vatsyayan-lord-4": 6442,
      "vatsyayan-lord_43": 6443,
      "_of_South_Asia": 6444,
      "owever,": 6445,
      "Articles\\_contain": 6446,
      "_Union": 6447,
      "harmaceu": 6448,
      "Allchin": 6449,
      "olonial": 6450,
      "do-Pakistani": 6451,
      "alayalam": 6452,
      "▁Press](https://en.wikipedia.org/wiki/Cambridge_University_Press": 6453,
      "hutan": 6454,
      "PetragliaAllchin": 6455,
      "406]](https://en.wikipedia.org/wiki/India#cite_note-vatsyayan-lord-4": 6456,
      "\"](https://web.archive.org/web/20": 6457,
      "/s": 6458,
      "4,": 6459,
      "418": 6460,
      "52": 6461,
      "613": 6462,
      "DR": 6463,
      "M50th": 6464,
      "NCL": 6465,
      "Web": 6466,
      "_0": 6467,
      "_v": 6468,
      "_26": 6469,
      "aut": 6470,
      "equality": 6471,
      "kb": 6472,
      "m2": 6473,
      "▁46": 6474,
      "20.": 6475,
      "2020": 6476,
      "▁pres": 6477,
      "istor": 6478,
      "▁Mana": 6479,
      "▁Dictionary": 6480,
      "10)": 6481,
      "▁Gana": 6482,
      "▁Health": 6483,
      "11.": 6484,
      "ensity": 6485,
      "35.": 6486,
      "%2C_India": 6487,
      "▁(2014).": 6488,
      "▁Time": 6489,
      "▁Chinese": 6490,
      "Report.pdf)": 6491,
      "nclm.nic.in/shared/linkimages/NCL": 6492,
      "tlas": 6493,
      "oordinated": 6494,
      "M50thReport.pdf)": 6495,
      "nclm.nic.in/shared/linkimages/NCLM50thReport.pdf)": 6496,
      "66": 6497,
      "9/": 6498,
      "C)": 6499,
      "CA": 6500,
      "Ne": 6501,
      "Pakistan": 6502,
      "aul": 6503,
      "a%2C": 6504,
      "ece": 6505,
      "hā": 6506,
      "s:": 6507,
      "stitu": 6508,
      "es.": 6509,
      "of\\_": 6510,
      "▁(2011": 6511,
      "19.": 6512,
      "id-": 6513,
      "-1\").\r\n": 6514,
      "▁census": 6515,
      "▁Ad": 6516,
      "\\_of\\_": 6517,
      "▁Society": 6518,
      "▁Minister": 6519,
      "▁1962": 6520,
      "opland": 6521,
      "▁2007.": 6522,
      "ody": 6523,
      "2221": 6524,
      "▁contin": 6525,
      "▁\"International": 6526,
      "onstitution_of_India": 6527,
      "▁adop": 6528,
      "_Fund": 6529,
      "▁different": 6530,
      "tiger": 6531,
      "IMFWEO.IN-": 6532,
      "text": 6533,
      "_of_Congress": 6534,
      "▁zone": 6535,
      "reedom": 6536,
      "atabase": 6537,
      "hmedabad": 6538,
      "indicator": 6539,
      "▁widely": 6540,
      "%3": 6541,
      "-R": 6542,
      "-w": 6543,
      "-the": 6544,
      ".పూ.": 6545,
      "1]](https://en.wikipedia.org/wiki/India#cite_note-": 6546,
      "41": 6547,
      "5]](https://en.wikipedia.org/wiki/India#cite_note-": 6548,
      "6)\r\n": 6549,
      "Collingham": 6550,
      "Ex": 6551,
      "S$": 6552,
      "ST": 6553,
      "Tarlo": 6554,
      "_ಚ": 6555,
      "_50": 6556,
      "_World": 6557,
      "_2004": 6558,
      "_ಧರ್ಮ": 6559,
      "_industry": 6560,
      "_ಪ್ರದೇಶ": 6561,
      "aos": 6562,
      "business": 6563,
      "cia": 6564,
      "der": 6565,
      "eat": 6566,
      "each": 6567,
      "iel": 6568,
      "janta": 6569,
      "k-": 6570,
      "lar": 6571,
      "late": 6572,
      "men": 6573,
      "odia": 6574,
      "pos": 6575,
      "rune": 6576,
      "yth": 6577,
      "yer": 6578,
      "अरब": 6579,
      "इन": 6580,
      "ईद": 6581,
      "ऍथ": 6582,
      "ऑक्सफोर्ड": 6583,
      "कणी": 6584,
      "ख़": 6585,
      "गध": 6586,
      "जल": 6587,
      "जपा": 6588,
      "जपुरी": 6589,
      "जिस्ट": 6590,
      "ताल": 6591,
      "थम": 6592,
      "थल": 6593,
      "दल": 6594,
      "दान": 6595,
      "नोल": 6596,
      "न्तर": 6597,
      "फ्रां": 6598,
      "बी": 6599,
      "बू": 6600,
      "बार": 6601,
      "मत": 6602,
      "मृत": 6603,
      "यपुर": 6604,
      "रस": 6605,
      "ल्ल": 6606,
      "शत": 6607,
      "शोक": 6608,
      "हम": 6609,
      "हें": 6610,
      "ाक": 6611,
      "ुरा": 6612,
      "ुम्ब": 6613,
      "ूबर": 6614,
      "ेक": 6615,
      "ॉग": 6616,
      "५७": 6617,
      "ంతం": 6618,
      "ఆగ": 6619,
      "కళ": 6620,
      "ఖండ్": 6621,
      "గ్": 6622,
      "గిన": 6623,
      "గఢ్": 6624,
      "జో": 6625,
      "ట్ర": 6626,
      "తెలుగు": 6627,
      "ద్రా": 6628,
      "పద": 6629,
      "భి": 6630,
      "యో": 6631,
      "లక్ష": 6632,
      "వర": 6633,
      "శో": 6634,
      "షా": 6635,
      "హు": 6636,
      "హార్": 6637,
      "హాయ": 6638,
      "ాష్ట్ర": 6639,
      "ీక": 6640,
      "ీహార్": 6641,
      "ుల": 6642,
      "ుల్": 6643,
      "ోల్": 6644,
      "ోత్స": 6645,
      "ౌర్య": 6646,
      "ಂ](https://kn.wikipedia.org/wiki/": 6647,
      "ಂಗಳ": 6648,
      "ಅಸ್": 6649,
      "ಉತ್ತ": 6650,
      "ಕಡ": 6651,
      "ಗಢ": 6652,
      "ಚಲ": 6653,
      "ಜರಾ": 6654,
      "ಟ್": 6655,
      "ಡು": 6656,
      "ತ್": 6657,
      "ತಮಿ": 6658,
      "ದ್ರಾ": 6659,
      "ಮಾ": 6660,
      "ಮನ್": 6661,
      "ರತ": 6662,
      "ರೀ": 6663,
      "ರ್ಯ": 6664,
      "ಲಸ": 6665,
      "ವರ": 6666,
      "ವ್": 6667,
      "ಶ್ವ": 6668,
      "ಶ್ಮ": 6669,
      "ಹಿ": 6670,
      "ಹಿಮ": 6671,
      "ಿಹ": 6672,
      "ೈಸ್ತ": 6673,
      "ೋಕ್": 6674,
      "೦೯": 6675,
      "▁ಗ": 6676,
      "▁रा": 6677,
      "▁ना": 6678,
      "▁9.": 6679,
      "▁kingdom": 6680,
      "iated": 6681,
      "http://": 6682,
      "▁[Y": 6683,
      "▁[श": 6684,
      "▁[హ": 6685,
      "▁[ಕ": 6686,
      "▁[ಭಾರತ": 6687,
      "▁[राज्य": 6688,
      "▁[978-81": 6689,
      "ened": 6690,
      "▁\"హ": 6691,
      "▁\"ಕ": 6692,
      "▁\"साँच": 6693,
      "▁\"साँचा:": 6694,
      "▁\"ఢిల్లీ": 6695,
      "\")\"": 6696,
      "ino-": 6697,
      "inema": 6698,
      "tile": 6699,
      "him": 6700,
      "hir": 6701,
      "arth": 6702,
      "ala": 6703,
      "ester": 6704,
      "](https://hi.wikipedia.org/wiki/हिन्द": 6705,
      "](https://hi.wikipedia.org/wiki/साँच": 6706,
      "](https://hi.wikipedia.org/wiki/साँचा:": 6707,
      "ofker": 6708,
      "्रार": 6709,
      "cid": 6710,
      "omo": 6711,
      "▁(S": 6712,
      "▁(19": 6713,
      "▁सूच": 6714,
      "▁सीमा": 6715,
      "asthan": 6716,
      "ick": 6717,
      "icts": 6718,
      "▁India\"](https://web.archive.org/web/201": 6719,
      "leg": 6720,
      "▁मन्दिर": 6721,
      "्यूरो": 6722,
      "truction": 6723,
      "▁inter": 6724,
      "్రూ": 6725,
      "idy": 6726,
      "](https://te.wikipedia.org/wiki/సి": 6727,
      "▁school": 6728,
      "रात": 6729,
      "▁पड़": 6730,
      "▁प्लेट": 6731,
      "ingap": 6732,
      "acmill": 6733,
      "ataraj": 6734,
      "▁Asher": 6735,
      "ानगर": 6736,
      "▁See": 6737,
      "▁Sabha": 6738,
      "▁fol": 6739,
      "▁four": 6740,
      "▁हाला": 6741,
      "▁हथियार": 6742,
      "urk": 6743,
      "uran": 6744,
      "angered": 6745,
      "igved": 6746,
      "▁main": 6747,
      "well": 6748,
      "ాలా": 6749,
      "ాలలో": 6750,
      "याधी": 6751,
      "िकी": 6752,
      "్యం": 6753,
      "213": 6754,
      "fir": 6755,
      "ोंकणी": 6756,
      "▁would": 6757,
      "▁direct": 6758,
      "▁Temple": 6759,
      "▁Routledge": 6760,
      "▁ज़": 6761,
      "ratic": 6762,
      "ालर": 6763,
      "](https://kn.wikipedia.org/wiki/ಕ": 6764,
      "▁led": 6765,
      "ర్ణా": 6766,
      "ర్మే": 6767,
      "ಾರು": 6768,
      "▁B.": 6769,
      "न्स": 6770,
      "s.\"\r\n": 6771,
      "▁बार": 6772,
      "▁बने": 6773,
      "▁बड़ा": 6774,
      "indhi": 6775,
      "▁प्रस": 6776,
      "भाष": 6777,
      "▁नौसेना": 6778,
      "ount": 6779,
      "▁[↑](https://en.wikipedia.org/wiki/India#cite_ref-4": 6780,
      "▁*India": 6781,
      "_सा": 6782,
      "्टॉक": 6783,
      "hap": 6784,
      "hailand": 6785,
      "లోక్‌సభ": 6786,
      "▁N.": 6787,
      "▁Nicobar": 6788,
      "_in_New": 6789,
      "-345": 6790,
      "▁वृद्ध": 6791,
      "क्षण": 6792,
      "क्षद्वीप": 6793,
      "_A7C": 6794,
      "▁आन्द": 6795,
      "▁third": 6796,
      "तिब्बत": 6797,
      "▁వంశ": 6798,
      "▁rel": 6799,
      "▁Intelligence": 6800,
      "थाईल": 6801,
      "]](https://hi.wikipedia.org/wiki/भारत#cite_note-10": 6802,
      "री](https://hi.wikipedia.org/wiki/": 6803,
      "15.": 6804,
      "_Pradesh": 6805,
      "ಲಿಗ್ರಾ": 6806,
      "▁गठ": 6807,
      "▁\"Chin": 6808,
      "▁ಸಾರ್ವತ್ರಿಕ": 6809,
      "ogam": 6810,
      "ogri": 6811,
      "▁ಮನ": 6812,
      "▁ಮೊ": 6813,
      "▁ಮಿಲಿ": 6814,
      "▁ಮೆಷಿನ್": 6815,
      "▁Languages": 6816,
      "ండర్": 6817,
      "▁[महाराष्ट्र": 6818,
      "ngineering": 6819,
      "कांक": 6820,
      "ಂದು": 6821,
      "](https://books.google.com/books?id=3TRtDwAAQBAJ&pg=PA": 6822,
      "ियान": 6823,
      "हिमालय": 6824,
      "త్మా": 6825,
      "a_1": 6826,
      "▁[↑](https://en.wikipedia.org/wiki/India#cite_ref-FOOTNOTEM": 6827,
      "ಲ್ಲ": 6828,
      "](Special:BookSources/978-81": 6829,
      "ंडमान": 6830,
      "▁\"Special:BookSources/978-81": 6831,
      "▁అతి": 6832,
      "▁लिया": 6833,
      "▁सागर": 6834,
      "ికి": 6835,
      "ountries/": 6836,
      "▁\"महाराष्ट्र": 6837,
      "▁विज्ञान": 6838,
      "▁now": 6839,
      "हाब": 6840,
      "परेशन": 6841,
      "▁करना": 6842,
      "▁करता": 6843,
      "ंग्रेज": 6844,
      "33-7": 6845,
      "मीरात": 6846,
      "ద్దు": 6847,
      "](https://hi.wikipedia.org/wiki/महाराष्ट्र": 6848,
      "▁areas": 6849,
      "▁రహదార": 6850,
      "▁31": 6851,
      "మాచల్": 6852,
      "▁సామ్రాజ్య": 6853,
      "▁ವಲಸ": 6854,
      "రువా": 6855,
      "రుణా": 6856,
      "ರಿವ": 6857,
      "ರಿಯಾ": 6858,
      "▁Ved": 6859,
      "న్నో": 6860,
      "ameez": 6861,
      "▁[2](https://hi.wikipedia.org/wiki/भारत#cite_ref-FOOTNOTE": 6862,
      "▁Urdu": 6863,
      "▁ಅಧಿಕೃತ": 6864,
      "▁ಬಿ": 6865,
      "▁ಬ್ರಿ": 6866,
      "▁[1](https://hi.wikipedia.org/wiki/भारत#cite_ref-FOOTNOTE": 6867,
      "▁[![The": 6868,
      "▁चार": 6869,
      "మిజో": 6870,
      "▁ఇది": 6871,
      "राष्ट्रीय_स": 6872,
      ".nic.in/)\r\n": 6873,
      "हारजिस्ट": 6874,
      "](https://kn.wikipedia.org/wiki/ಭಾರತ#cite_ref-": 6875,
      "▁\"Indus": 6876,
      "ा_वार": 6877,
      "िवस": 6878,
      "▁वर्षा": 6879,
      "_भारतीय_": 6880,
      "ahal": 6881,
      "do-G": 6882,
      "](https://en.wikipedia.org/wiki/Indus": 6883,
      "▁ಪ್ರಪಂ": 6884,
      "DwAAQBAJ": 6885,
      "alaysia": 6886,
      "▁జరి": 6887,
      "▁घरेलू": 6888,
      "▁విస్త": 6889,
      "समूह": 6890,
      "](https://hi.wikipedia.org/wiki/पूर्व": 6891,
      "ष्ठ": 6892,
      "▁2007\r\n": 6893,
      "न्नड़": 6894,
      "▁भाषा\")[[": 6895,
      "ಿತ್ರ": 6896,
      "▁plain": 6897,
      "ukesh": 6898,
      "ಿಯಲ್ಲಿ": 6899,
      "ನೇಪಾ": 6900,
      "▁శతాబ్ద": 6901,
      "▁ಇತಿಹಾಸ": 6902,
      "▁change": 6903,
      "▁ಸಂಸ್ಥೆ": 6904,
      "ట్టు": 6905,
      "आईएस": 6906,
      "▁था,": 6907,
      "श्मीरी": 6908,
      "ರಾಜ್ಯಸಭೆ": 6909,
      "दाख": 6910,
      "ेर-": 6911,
      "రాష్ట్రాలు": 6912,
      "▁emerg": 6913,
      "ಮುಂಬ": 6914,
      "▁Pradesh\")": 6915,
      "athematics": 6916,
      "వేద": 6917,
      "▁शासित": 6918,
      "▁[Archived](https://web.archive.org/web/20210": 6919,
      "▁రాజకీయ": 6920,
      "]](https://kn.wikipedia.org/wiki/ಭಾರತ#cite_note-1": 6921,
      "ंपन": 6922,
      "ंपरा": 6923,
      "ಗಣತಿ": 6924,
      "▁[↑](https://hi.wikipedia.org/wiki/भारत#cite_ref-10": 6925,
      "त्पत्ति": 6926,
      "–123": 6927,
      "pib.nic.in/": 6928,
      "▁subcontinent\")": 6929,
      "ಣಿಪು": 6930,
      "ambodia": 6931,
      "▁अपने": 6932,
      "ually": 6933,
      "హిమాచల్": 6934,
      "ार्कट": 6935,
      "▁तटीय": 6936,
      "%E0%A4%A": 6937,
      "▁ಧರ್ಮ\")": 6938,
      "హాత్మా": 6939,
      "▁These": 6940,
      "लिंग": 6941,
      "▁Force": 6942,
      "▁Organization": 6943,
      "भूटान": 6944,
      "೨೦೦೯": 6945,
      "▁ಭಾಷೆಗಳು": 6946,
      "जयपुर": 6947,
      "जयनगर": 6948,
      "▁agriculture": 6949,
      "िज़ोर": 6950,
      "▁[↑](https://kn.wikipedia.org/wiki/ಭಾರತ#cite_ref-1": 6951,
      "▁species": 6952,
      "chedule": 6953,
      "emocratic": 6954,
      "णिपुर": 6955,
      "णिपुरी": 6956,
      "लोकसभा": 6957,
      "▁ప్రదేశ్\")": 6958,
      "शासित_प्रदेश": 6959,
      "ಯುಕ್ತ": 6960,
      "▁ಮುಖ್ಯ": 6961,
      "హారాష్ట్ర": 6962,
      "▁सुरक्षा": 6963,
      "्रांति": 6964,
      "▁2025.": 6965,
      "శాస్త్ర": 6966,
      "ತೆಲ": 6967,
      "▁ಲಕ್ಷ": 6968,
      "olkata": 6969,
      "రాజస్థాన్": 6970,
      "▁వాతావరణ": 6971,
      "पातकाल": 6972,
      "ಗುಜರಾ": 6973,
      "_न्या": 6974,
      "धिराज्य": 6975,
      "దినోత్స": 6976,
      "▁जलवायु": 6977,
      "▁घाटी": 6978,
      "బెంగాలీ": 6979,
      "nergy": 6980,
      "▁river": 6981,
      "యన్మార్": 6982,
      "ಟೆಲಿಗ್ರಾ": 6983,
      "ಪಂಜಾ": 6984,
      "ಭೂಮಿ": 6985,
      "▁rock": 6986,
      "▁ముఖ్య": 6987,
      "▁लगभग": 6988,
      "ूरोप": 6989,
      "भोजपुरी": 6990,
      "▁majority": 6991,
      "▁वार्ता:": 6992,
      "स्लाम": 6993,
      "▁occup": 6994,
      "Sharma2007": 6995,
      "present": 6996,
      "लयालम": 6997,
      "▁सदस": 6998,
      "▁राजनीतिक": 6999,
      "▁[पंजाब](https://hi.wikipedia.org/wiki/पंजाब": 7000,
      "entral_": 7001,
      "▁Before": 7002,
      "elangana": 7003,
      "▁ಸಿರಿವ": 7004,
      "▁ನಗರ": 7005,
      "▁ಹೆಸರು": 7006,
      "೨೦೧೪": 7007,
      "_राजवंश": 7008,
      "ంజాబ్": 7009,
      "▁వ్యాస": 7010,
      "▁शुरू": 7011,
      "lurton199": 7012,
      "ravidian": 7013,
      "▁employed": 7014,
      "खनऊ": 7015,
      "ಕ್ರೈಸ್ತ": 7016,
      "razil": 7017,
      "▁ಸ್ಥಾನ": 7018,
      "हरियाणा": 7019,
      "గుజరాత్": 7020,
      "ఆఫ్ఘనిస్తాన్": 7021,
      "న్‌ఫర్మే": 7022,
      "igration": 7023,
      "lothing": 7024,
      "▁appro": 7025,
      "IFT": 7026,
      "ಲೋಕಸಭೆ": 7027,
      "तुल्य": 7028,
      "फाएं": 7029,
      "ृषि": 7030,
      "వ](https://te.wikipedia.org/wiki/List_of_": 7031,
      "▁दोनों": 7032,
      "రిహద్దు": 7033,
      "▁निभाई": 7034,
      "చ్చేరి": 7035,
      "mirates": 7036,
      "olnar": 7037,
      "Tarlo1996": 7038,
      "business-": 7039,
      "runei": 7040,
      "ऍथनोल": 7041,
      "ुम्बई": 7042,
      "ಂಗಳೂ": 7043,
      "ಅಸ್ಸಾ": 7044,
      "ಶ್ಮೀ": 7045,
      "▁\"साँचा": 7046,
      "](https://hi.wikipedia.org/wiki/साँचा_वार": 7047,
      "ingapore": 7048,
      "acmillan": 7049,
      "▁Asher,": 7050,
      "याधीश": 7051,
      "ర్ణాటక": 7052,
      "_in_New_Delhi": 7053,
      "▁वृद्धि": 7054,
      "▁[महाराष्ट्र](https://hi.wikipedia.org/wiki/महाराष्ट्र": 7055,
      "▁\"महाराष्ट्र\")": 7056,
      "▁ವಲಸೆ": 7057,
      "రుణాచల్": 7058,
      "हारजिस्ट्रार": 7059,
      "▁ಪ್ರಪಂಚ": 7060,
      "ार्कटिका": 7061,
      "న్‌ఫర్మేషన్": 7062,
      "ऍथनोलॉग": 7063,
      "](https://hi.wikipedia.org/wiki/साँचा_वार्ता:": 7064,
      ",4": 7065,
      ".ed": 7066,
      "3-1": 7067,
      "324": 7068,
      "8%": 7069,
      "Jha": 7070,
      "ault": 7071,
      "c/c": 7072,
      "f/f": 7073,
      "rance": 7074,
      "ze": 7075,
      "](https://id": 7076,
      "onk": 7077,
      "International": 7078,
      "▁(a)": 7079,
      "▁sq": 7080,
      "▁Policy": 7081,
      "▁Day": 7082,
      "ager": 7083,
      "18.": 7084,
      "▁Report": 7085,
      "▁Index": 7086,
      "159": 7087,
      "_Pro": 7088,
      "16.": 7089,
      "▁Asia:": 7090,
      "1):": 7091,
      "orthographic": 7092,
      "_capita": 7093,
      "isease": 7094,
      "▁Short": 7095,
      "▁2020.": 7096,
      "▁km2": 7097,
      "_projection": 7098,
      "▁commun": 7099,
      "Wikipedia\\_articles": 7100,
      "documents/": 7101,
      "...]": 7102,
      "itzel": 7103,
      "▁Minorities,": 7104,
      "▁(b)": 7105,
      ".edu": 7106,
      "orthographic_projection": 7107,
      ")\"),": 7108,
      "-ex": 7109,
      ".co": 7110,
      "226": 7111,
      "400": 7112,
      "422": 7113,
      "9857": 7114,
      ":IN": 7115,
      "EN": 7116,
      "Home": 7117,
      "HDR": 7118,
      "Th": 7119,
      "Tab": 7120,
      "_con": 7121,
      "g)": 7122,
      "gu": 7123,
      "jana": 7124,
      "nt": 7125,
      "tats": 7126,
      "went": 7127,
      "′′": 7128,
      "▁web": 7129,
      "tten": 7130,
      "▁[n": 7131,
      "-138": 7132,
      "▁can": 7133,
      "ustr": 7134,
      "78.": 7135,
      "ilbert": 7136,
      "▁men": 7137,
      "00%20A": 7138,
      "▁Mar": 7139,
      "▁जय": 7140,
      "▁top": 7141,
      "▁Br": 7142,
      "▁*2011": 7143,
      "▁Economy": 7144,
      "ritten": 7145,
      "-49857": 7146,
      "ablish": 7147,
      "▁[SAARC": 7148,
      "-2_Data_": 7149,
      "ana-m": 7150,
      "ana-49857": 7151,
      "7.208": 7152,
      "_Mon": 7153,
      "%202-": 7154,
      "_and_union_territ": 7155,
      "▁\"De": 7156,
      "▁Hindus": 7157,
      "news18": 7158,
      "▁trillion": 7159,
      "▁77.208": 7160,
      "▁[International": 7161,
      "national-an": 7162,
      "atter": 7163,
      "data.worldbank.org/": 7164,
      "india/national-an": 7165,
      "▁21.": 7166,
      "/A-2_Data_": 7167,
      "▁\"Official": 7168,
      "ethnologue": 7169,
      "-gana-m": 7170,
      "▁[*An": 7171,
      "-report": 7172,
      "tribution": 7173,
      "ize": 7174,
      "-of-": 7175,
      "them-of-india-": 7176,
      "censusindia.gov.in/2011census/P": 7177,
      "censusindia.gov.in/2011census/population": 7178,
      ".com/news/india/national-an": 7179,
      "iteracy": 7180,
      "▁Environmental": 7181,
      "_enumeration": 7182,
      "UNHDR": 7183,
      "-on-jana": 7184,
      "rief-on-jana": 7185,
      "aranth": 7186,
      "imachal": 7187,
      "cogni": 7188,
      "les/00%20A": 7189,
      "\\_or\\_": 7190,
      "hattisgarh": 7191,
      "a-brief-on-jana": 7192,
      "61389": 7193,
      "CA/A-2_Data_": 7194,
      "hār": 7195,
      "Tables/00%20A": 7196,
      "ana-498576.": 7197,
      "%202-India.pdf)": 7198,
      "_and_union_territories": 7199,
      "news18.com/news/india/national-an": 7200,
      "▁77.20833": 7201,
      "data.worldbank.org/indicator": 7202,
      "ethnologue.com/": 7203,
      "-gana-mana-498576.": 7204,
      "them-of-india-a-brief-on-jana": 7205,
      "censusindia.gov.in/2011census/PCA/A-2_Data_": 7206,
      "censusindia.gov.in/2011census/population_enumeration": 7207,
      "Tables/00%20A%202-India.pdf)": 7208,
      "news18.com/news/india/national-anthem-of-india-a-brief-on-jana": 7209,
      "censusindia.gov.in/2011census/PCA/A-2_Data_Tables/00%20A%202-India.pdf)": 7210,
      "news18.com/news/india/national-anthem-of-india-a-brief-on-jana-gana-mana-498576.": 7211,
      "/news/": 7212,
      "3.\r\n": 7213,
      "5-3": 7214,
      "7-8": 7215,
      "Countries": 7216,
      "Front": 7217,
      "Wright": 7218,
      "_to": 7219,
      "atic": 7220,
      "cod": 7221,
      "eag": 7222,
      "etry": 7223,
      "even": 7224,
      "global": 7225,
      "ited": 7226,
      "iodiversity": 7227,
      "mall": 7228,
      "n-": 7229,
      "ocal": 7230,
      "page": 7231,
      "put": 7232,
      "ren": 7233,
      "rban": 7234,
      "tate": 7235,
      "tool": 7236,
      "u,": 7237,
      "upee": 7238,
      "vest": 7239,
      "wat": 7240,
      "▁known": 7241,
      "org": 7242,
      "orpor": 7243,
      "pec": 7244,
      "](https://www": 7245,
      "ene": 7246,
      "enj": 7247,
      "enous": 7248,
      "an,": 7249,
      "anchi": 7250,
      "ties/": 7251,
      "](https://en.wikipedia.org/wiki/National": 7252,
      "alace": 7253,
      "alk:": 7254,
      "reen": 7255,
      "omain": 7256,
      "itar": 7257,
      "itation": 7258,
      "▁(199": 7259,
      "▁(2007": 7260,
      "▁(India)": 7261,
      "ouch": 7262,
      "▁independence": 7263,
      "-0\").\r\n": 7264,
      "▁pur": 7265,
      "▁prac": 7266,
      "acred": 7267,
      "▁cre": 7268,
      "uries": 7269,
      "ola": 7270,
      "igenous": 7271,
      "▁millennium": 7272,
      "▁[↑](https://en.wikipedia.org/wiki/India#cite_": 7273,
      "una": 7274,
      "▁division": 7275,
      "▁Trade": 7276,
      "](https://en.wikipedia.org/wiki/India#cite_ref-vatsyayan-lord_43": 7277,
      "rove": 7278,
      "rocod": 7279,
      "▁ap": 7280,
      "▁lim": 7281,
      "▁last": 7282,
      "▁Dance": 7283,
      "▁Dyson": 7284,
      "▁\"Special:EditPage/Template:": 7285,
      "ayana": 7286,
      "ecu": 7287,
      "▁1971": 7288,
      "▁Emer": 7289,
      "2649": 7290,
      "269,": 7291,
      "lymp": 7292,
      "beral": 7293,
      "▁Ganges": 7294,
      "▁Greek": 7295,
      "upreme": 7296,
      "286": 7297,
      "287,": 7298,
      "-349": 7299,
      "-4\").\r\n": 7300,
      "▁east": 7301,
      "▁republic": 7302,
      "▁Francis": 7303,
      "aks": 7304,
      "akers": 7305,
      "▁International": 7306,
      "_and_Development": 7307,
      "168": 7308,
      "40px-": 7309,
      "▁\"Climate": 7310,
      "lief": 7311,
      "_Commissioner": 7312,
      "27.": 7313,
      "-90": 7314,
      "▁[China": 7315,
      "](https://en.wikipedia.org/wiki/China": 7316,
      "▁\"Ministry": 7317,
      "▁talk:": 7318,
      "ajasthan": 7319,
      "](Special:EditPage/Template:": 7320,
      "undarb": 7321,
      "ensus_Commissioner": 7322,
      "](https://en.wikipedia.org/wiki/Ministry_of_": 7323,
      "▁become": 7324,
      "](Special:BookSources/978-0-521": 7325,
      "rchitecture": 7326,
      "▁\"Special:BookSources/978-0-521": 7327,
      "orea": 7328,
      "▁\"Template": 7329,
      "48)": 7330,
      "▁ancient": 7331,
      "▁2011](https://en.wikipedia.org/wiki/India#CITEREF": 7332,
      "▁\"Delhi": 7333,
      "](https://en.wikipedia.org/wiki/Template_": 7334,
      "▁Vedic": 7335,
      "](https://en.wikipedia.org/wiki/Delhi": 7336,
      "_Ram": 7337,
      "_River": 7338,
      "gions": 7339,
      "▁US$": 7340,
      "▁\"Routledge": 7341,
      "](https://en.wikipedia.org/wiki/Routledge": 7342,
      "▁[Tamil": 7343,
      "](https://en.wikipedia.org/wiki/List_of_countries_by_": 7344,
      "▁[Routledge": 7345,
      "angetic": 7346,
      "hyan": 7347,
      "▁2014](https://en.wikipedia.org/wiki/India#CITEREF": 7348,
      "▁tea": 7349,
      "▁(2017).": 7350,
      "limate_": 7351,
      "▁centuries": 7352,
      "▁2007](https://en.wikipedia.org/wiki/India#CITEREF": 7353,
      "talk:": 7354,
      "▁[Fisher": 7355,
      "▁[History": 7356,
      "▁sever": 7357,
      "▁China": 7358,
      "230-345": 7359,
      "▁[t](https://en.wikipedia.org/wiki/Template_": 7360,
      "▁numbers": 7361,
      "▁Talbot,": 7362,
      "▁[e](Special:EditPage/Template:": 7363,
      "▁[v](Template:": 7364,
      "Fisher2018),": 7365,
      "▁Buddha": 7366,
      "▁upper": 7367,
      "▁2025.\r\n": 7368,
      "Environment": 7369,
      "▁refor": 7370,
      "▁milk": 7371,
      "▁military": 7372,
      "Hindustani": 7373,
      "▁2018](https://en.wikipedia.org/wiki/India#CITEREFFisher2018),": 7374,
      "ennai": 7375,
      "▁Data*.": 7376,
      "merican": 7377,
      "▁(1,269,": 7378,
      "▁Conservation": 7379,
      "egistrar_G": 7380,
      "rotected": 7381,
      "forcement": 7382,
      "▁3,287,": 7383,
      "▁India](https://en.wikipedia.org/wiki/Government_of_India": 7384,
      "▁mi)": 7385,
      "ibetan": 7386,
      "▁1994](https://en.wikipedia.org/wiki/India#CITEREF": 7387,
      "▁Games\")": 7388,
      "-107-02649": 7389,
      "▁engineering": 7390,
      "▁village": 7391,
      "first": 7392,
      "Wright2010": 7393,
      "▁(2007).": 7394,
      "▁Dyson,": 7395,
      "▁[China](https://en.wikipedia.org/wiki/China": 7396,
      "undarbans": 7397,
      "▁\"Routledge\").": 7398,
      "▁[Routledge](https://en.wikipedia.org/wiki/Routledge": 7399,
      "230-34549-2": 7400,
      "▁[t](https://en.wikipedia.org/wiki/Template_talk:": 7401,
      "-107-02649-0": 7402,
      "*](https://web.archive.org/web/201": 7403,
      "-v": 7404,
      "-गंगा": 7405,
      "0–": 7406,
      "1200": 7407,
      "12.": 7408,
      "1%20": 7409,
      ":\r\n": 7410,
      "OLA": 7411,
      "p.org/": 7412,
      "t\")": 7413,
      "voy": 7414,
      "zer": 7415,
      "ँकि": 7416,
      "ंबर": 7417,
      "इल": 7418,
      "ईस्ट": 7419,
      "ऊर्जा": 7420,
      "ऋतु": 7421,
      "ऑपरेशन": 7422,
      "कु": 7423,
      "जवा": 7424,
      "तग": 7425,
      "त्या": 7426,
      "तमान": 7427,
      "थी": 7428,
      "दु": 7429,
      "नत": 7430,
      "ल्त": 7431,
      "वत": 7432,
      "वली": 7433,
      "शील": 7434,
      "सत": 7435,
      "सैन": 7436,
      "ीक": 7437,
      "ुक": 7438,
      "ुस्तान": 7439,
      "ूस": 7440,
      "ेय": 7441,
      "४.": 7442,
      "५०": 7443,
      "ంతి": 7444,
      "కాల": 7445,
      "కారం": 7446,
      "ఖ్": 7447,
      "గంగా": 7448,
      "టో": 7449,
      "డిన": 7450,
      "తీ": 7451,
      "ధి": 7452,
      "ధించ": 7453,
      "నల్": 7454,
      "మన": 7455,
      "మర": 7456,
      "ర్యా": 7457,
      "లం": 7458,
      "లతో": 7459,
      "లమె": 7460,
      "ీస్": 7461,
      "ూప": 7462,
      "ూరు": 7463,
      "ెనీ": 7464,
      "ౌక": 7465,
      "▁ऐ": 7466,
      "▁ద": 7467,
      "▁ఫ": 7468,
      "▁దక్షిణ": 7469,
      "▁హిందూ": 7470,
      "▁గాంధీ": 7471,
      "g/250px-": 7472,
      "▁[ए": 7473,
      "▁[28": 7474,
      "▁[భారతదేశం": 7475,
      "▁[ఢిల్లీ": 7476,
      "▁\"प्र": 7477,
      "▁\"राष्ट्रीय": 7478,
      "▁\"विशेष:EditPage/साँचा:": 7479,
      "arak": 7480,
      "](https://hi.wikipedia.org/wiki/य": 7481,
      "](https://hi.wikipedia.org/wiki/विशेष:EditPage/साँचा:": 7482,
      "▁कर्ज": 7483,
      "भारत)\")": 7484,
      "▁(भारत)\")": 7485,
      "▁सूर": 7486,
      "asp?": 7487,
      "ica": 7488,
      "▁India\"](https://": 7489,
      "lect": 7490,
      "lease": 7491,
      "▁मील": 7492,
      "ations/": 7493,
      "▁पै": 7494,
      "▁पहु": 7495,
      "▁पश्चिम": 7496,
      "ారస": 7497,
      "\\_c": 7498,
      "\\_identifiers": 7499,
      "र्क": 7500,
      "र्तग": 7501,
      "ume": 7502,
      "ాలను": 7503,
      "00–సా.శ.పూ.": 7504,
      "స్](https://te.wikipedia.org/wiki/": 7505,
      "▁Religion": 7506,
      "विद्यालय": 7507,
      "▁పెద్ద": 7508,
      "ర్లు": 7509,
      "▁दी": 7510,
      "राजनी": 7511,
      "▁Bengali": 7512,
      "s.com": 7513,
      "▁बनी": 7514,
      "▁बड़ी": 7515,
      "▁प्रण": 7516,
      "▁प्रभा": 7517,
      "▁प्रकार": 7518,
      "▁प्रारम्भ": 7519,
      "लावा": 7520,
      "▁\"Sanskrit": 7521,
      "▁निय": 7522,
      "▁नृत्य": 7523,
      "లు\")": 7524,
      "_सिनेमा": 7525,
      "ता\")": 7526,
      "-45": 7527,
      "स्ता": 7528,
      "ित्व": 7529,
      "न्दा": 7530,
      "▁आय": 7531,
      "ంది": 7532,
      "▁వే": 7533,
      "▁Factbook": 7534,
      "री\")": 7535,
      "रीक्षण": 7536,
      "▁गए": 7537,
      "▁पर्यटन": 7538,
      "▁परमाणु": 7539,
      "▁परंपरा": 7540,
      "ादरा": 7541,
      "_महासागर": 7542,
      "▁संख्या": 7543,
      "नेट": 7544,
      "म्प्र": 7545,
      "_के_देश": 7546,
      "ी](https://hi.wikipedia.org/wiki/प": 7547,
      "ी](https://hi.wikipedia.org/wiki/स": 7548,
      "ज़ा": 7549,
      "త్తం": 7550,
      "monsoon": 7551,
      "▁(సా.శ.15": 7552,
      "▁(సా.శ.13": 7553,
      "▁అనే": 7554,
      "राष्ट्रीय_": 7555,
      "▁ప్రజ": 7556,
      "తం\")": 7557,
      "▁भाषाएँ": 7558,
      "▁विवाद": 7559,
      "▁विभाग": 7560,
      "ంచి": 7561,
      "▁ఆఫ్": 7562,
      "भिन्न": 7563,
      "▁సాం": 7564,
      "▁(PPP": 7565,
      "ార్లమె": 7566,
      "▁Vol": 7567,
      "▁[भारत](https://hi.wikipedia.org/wiki/भारत": 7568,
      "newsite": 7569,
      "general": 7570,
      "కిస్థాన్": 7571,
      "▁जनता": 7572,
      "▁నే": 7573,
      "▁నగర": 7574,
      "▁जाते": 7575,
      "▁\"ब्रिटिश": 7576,
      "▁इसी": 7577,
      "ాయి.": 7578,
      "िवेश": 7579,
      "ध्यम": 7580,
      "టిబె": 7581,
      "▁समूह": 7582,
      "్రీ.పూ.": 7583,
      "▁घोष": 7584,
      "ండియా": 7585,
      "▁ఎక్కువ": 7586,
      "▁ఎన్నో": 7587,
      "स्थाप": 7588,
      "▁[उत्तर": 7589,
      "▁जिसके": 7590,
      "▁सिंह": 7591,
      "▁\"उत्तर": 7592,
      "](https://hi.wikipedia.org/wiki/उत्तर": 7593,
      "्यटन\")": 7594,
      "▁./వర్గం:Wikipedia\\_articles": 7595,
      "▁१९९": 7596,
      "िल्ली\")": 7597,
      "_సం": 7598,
      "वर्ष": 7599,
      "ారు.\r\n": 7600,
      "▁./श्रेणी:CS1\\_": 7601,
      "▁[संयुक्त": 7602,
      "టుంబ": 7603,
      "▁अपनी": 7604,
      "श्रीनगर": 7605,
      "▁భారత్": 7606,
      "▁एशिया\")": 7607,
      "▁[t](https://hi.wikipedia.org/wiki/साँचा_वार्ता:": 7608,
      "▁डॉल": 7609,
      "2001),": 7610,
      "▁[e](https://hi.wikipedia.org/wiki/विशेष:EditPage/साँचा:": 7611,
      "▁[v](https://hi.wikipedia.org/wiki/साँचा:": 7612,
      "▁उत्तर-प": 7613,
      "lag_of_India": 7614,
      "धु-गंगा": 7615,
      "మెరి": 7616,
      "▁\"संस्कृत": 7617,
      "माजिक": 7618,
      "ईसाई": 7619,
      "▁ऊर्जा": 7620,
      "▁మొత్తం": 7621,
      "▁हुआ।": 7622,
      "▁2004](https://hi.wikipedia.org/wiki/भारत#CITEREF": 7623,
      "బాద్": 7624,
      "](https://hi.wikipedia.org/wiki/संस्कृत": 7625,
      "▁वायु": 7626,
      "ంపెనీ": 7627,
      "▁प्रतिशत": 7628,
      "▁रहे": 7629,
      "_का_खाना": 7630,
      "urchasing": 7631,
      "హ్మ": 7632,
      "▁उद्यान\")": 7633,
      "countries_by_GDP_(nominal)": 7634,
      ".aspx?rel": 7635,
      "_उत्पाद": 7636,
      "▁ఏర్": 7637,
      "▁शक्तिपीठ": 7638,
      "్రిటిషు": 7639,
      "india.gov.in/india-glance/national-symbols": 7640,
      "▁राजवंश\")": 7641,
      "१८५७": 7642,
      "ंडोनेशिया": 7643,
      "▁विदेशी": 7644,
      "_और_संघ_क्षेत्र": 7645,
      "ecretary": 7646,
      "AGE": 7647,
      "▁सितंबर": 7648,
      "▁जबकि": 7649,
      "▁व्यापार": 7650,
      "▁అత్యధిక": 7651,
      "_के_अनुसार_देशों_की_सूची": 7652,
      "_per_capita": 7653,
      "_राज्यक्षेत्र": 7654,
      "ీర్ణ": 7655,
      "▁किन्तु": 7656,
      "▁सहयोग": 7657,
      "దక్షిణ_ఆసియా": 7658,
      "-language\\_sources\\_(en)\r\n": 7659,
      "▁गठबंधन": 7660,
      "pib.nic.in/newsite": 7661,
      "ूरोपीय": 7662,
      "ल्तनत": 7663,
      "सैनिक": 7664,
      "lease.aspx?rel": 7665,
      "▁डॉलर": 7666,
      ",5": 7667,
      "-asia": 7668,
      "/).": 7669,
      "0/0": 7670,
      "4-3": 7671,
      "BRICS": 7672,
      "First": 7673,
      "Mumbai": 7674,
      "St": 7675,
      "States": 7676,
      "TC": 7677,
      "_45": 7678,
      "wa": 7679,
      "▁Z": 7680,
      "▁40": 7681,
      "▁ob": 7682,
      "tegr": 7683,
      "ices": 7684,
      "19)": 7685,
      "-03": 7686,
      "▁poll": 7687,
      "-12)": 7688,
      "▁based": 7689,
      "ily": 7690,
      "▁2017.": 7691,
      "links": 7692,
      "▁Book": 7693,
      "▁Gujarat": 7694,
      "116": 7695,
      "opal": 7696,
      "place": 7697,
      "▁nation": 7698,
      "▁John": 7699,
      "establish": 7700,
      "osi": 7701,
      ".[[23": 7702,
      "▁On": 7703,
      "▁Library": 7704,
      "epublic": 7705,
      "270": 7706,
      "▁West": 7707,
      "489": 7708,
      "▁expectancy": 7709,
      "_Times": 7710,
      "▁\"New": 7711,
      "▁\"Kashmir": 7712,
      "times.indiatimes.com/": 7713,
      "▁[Ludden": 7714,
      "3,422": 7715,
      "/articles/": 7716,
      "d/d": 7717,
      "cms).": 7718,
      "KulkeRothermund2004),": 7719,
      "▁(2018).": 7720,
      "ksai": 7721,
      "resident_of_India": 7722,
      "▁(2006).": 7723,
      "economictimes.indiatimes.com/": 7724,
      "Library_of_Congress": 7725,
      "▁adopted": 7726,
      "onkani": 7727,
      "->": 7728,
      "-O": 7729,
      "-j": 7730,
      "-li": 7731,
      "-27": 7732,
      ".ಎ": 7733,
      "/in": 7734,
      "1.\r\n": 7735,
      "3-7": 7736,
      "4_": 7737,
      "9]](https://en.wikipedia.org/wiki/India#cite_note-FOOTNOTE": 7738,
      "9-6": 7739,
      "David": 7740,
      "MAAJ": 7741,
      "SN": 7742,
      "South_Asia": 7743,
      "_ಬ": 7744,
      "_18": 7745,
      "_1.": 7746,
      "_ಸಂ": 7747,
      "fun": 7748,
      "gul": 7749,
      "ji": 7750,
      "mal": 7751,
      "mand": 7752,
      "mas": 7753,
      "mod": 7754,
      "more": 7755,
      "oz": 7756,
      "paper": 7757,
      "search": 7758,
      "ten": 7759,
      "xim": 7760,
      "yr": 7761,
      "ಂಪ": 7762,
      "ಇಂಡ": 7763,
      "ಘಟ": 7764,
      "ಧಿ": 7765,
      "ಪಾರ": 7766,
      "ರೇಂದ್ರ": 7767,
      "ವು": 7768,
      "ವರಿ": 7769,
      "ವನ್ನು": 7770,
      "ಾಂಗ್": 7771,
      "ೆ.": 7772,
      "ೊಡ್": 7773,
      "ೋದಿ": 7774,
      "್‌": 7775,
      "್ನೆ": 7776,
      "೨]](https://kn.wikipedia.org/wiki/ಭಾರತ#cite_note-": 7777,
      "▁ಜ": 7778,
      "▁೨": 7779,
      "▁ve": 7780,
      "▁education": 7781,
      "▁ಗಣರಾಜ್ಯ": 7782,
      "▁ರಾಜ": 7783,
      "ores": 7784,
      "orse": 7785,
      "pen": 7786,
      "▁[ಹಿಂದೂ": 7787,
      "en:": 7788,
      "▁\"ನ": 7789,
      "▁\"ಭಾರತ": 7790,
      "▁\"ಹಿಂದೂ": 7791,
      "▁\"ISO": 7792,
      "inan": 7793,
      "anada": 7794,
      "ont": 7795,
      "th](https://kn.wikipedia.org/wiki/List_of_": 7796,
      "till": 7797,
      "er-": 7798,
      "eri": 7799,
      "erm": 7800,
      "ers,": 7801,
      "arrow": 7802,
      "reater": 7803,
      "isted": 7804,
      "▁often": 7805,
      "ital": 7806,
      "ico": 7807,
      "lex": 7808,
      "tradition": 7809,
      "▁su": 7810,
      "▁set": 7811,
      "▁served": 7812,
      "am\")": 7813,
      "▁com": 7814,
      "▁central": 7815,
      "ad-": 7816,
      "adakh": 7817,
      "uscript": 7818,
      "▁Comm": 7819,
      "▁Cather": 7820,
      "▁After": 7821,
      "▁Studies": 7822,
      "▁festi": 7823,
      "velo": 7824,
      "ilk": 7825,
      "igonom": 7826,
      "▁middle": 7827,
      "▁market": 7828,
      "▁maint:": 7829,
      "los": 7830,
      "lose": 7831,
      "hek": 7832,
      "cha": 7833,
      "unle": 7834,
      "fied": 7835,
      "▁where": 7836,
      "ourts": 7837,
      "▁Total": 7838,
      "style": 7839,
      "]](https://en.wikipedia.org/wiki/India#cite_note-1": 7840,
      "raw": 7841,
      "](https://kn.wikipedia.org/wiki/ಹಿಂದೂ": 7842,
      "್ರೀ": 7843,
      "emen": 7844,
      "107": 7845,
      "1016": 7846,
      "▁India\").[[": 7847,
      "508": 7848,
      "ayashi": 7849,
      "▁1901": 7850,
      "rib": 7851,
      "240": 7852,
      "ldlife": 7853,
      "bercul": 7854,
      "haw": 7855,
      "▁Nuclear": 7856,
      "_in_the": 7857,
      "-405": 7858,
      "▁even": 7859,
      "▁epic": 7860,
      "▁early": 7861,
      "_Agency": 7862,
      "abel": 7863,
      "ained": 7864,
      "tempor": 7865,
      "ension": 7866,
      "ensive": 7867,
      "osis": 7868,
      "_Park": 7869,
      "ಲಿಮ್": 7870,
      "AAMAAJ": 7871,
      "▁growing": 7872,
      "▁Law": 7873,
      "▁Indians": 7874,
      "▁Wiley": 7875,
      "▁[*P": 7876,
      "▁[Craven": 7877,
      "▁ಪು": 7878,
      "▁ಪ್ರಾ": 7879,
      "▁rise": 7880,
      "▁rural": 7881,
      "▁rupee": 7882,
      "ಗಳನ್ನು": 7883,
      "-2\").": 7884,
      "▁ass": 7885,
      "alls": 7886,
      "allav": 7887,
      "-55": 7888,
      "ತ್ತಿ": 7889,
      "ommaraj": 7890,
      "ಸ್ಲಿಮ್": 7891,
      "_Modi": 7892,
      "2011religion": 7893,
      "_and_N": 7894,
      "▁\"Tamil": 7895,
      "▁[Pakistan": 7896,
      "hinese": 7897,
      "ublisher": 7898,
      "▁develo": 7899,
      "▁\"En": 7900,
      "kee": 7901,
      "▁ಹಾಗ": 7902,
      "▁\"Ge": 7903,
      "%2C5": 7904,
      "ಕ್ಕಿ": 7905,
      "▁ಕಾ": 7906,
      "▁ಕೆ": 7907,
      "▁ಕ್ರಿ": 7908,
      "](https://en.wikipedia.org/wiki/En": 7909,
      "ically": 7910,
      "▁ವಾ": 7911,
      "_Tamil_Nadu": 7912,
      "▁ನದಿ": 7913,
      "ians": 7914,
      "ರಿಂದ": 7915,
      "▁V.": 7916,
      "ompan": 7917,
      "ompany": 7918,
      "neworld": 7919,
      "▁trade": 7920,
      "▁[Delhi": 7921,
      "ಸಂಸ": 7922,
      "ಸಂಯುಕ್ತ": 7923,
      "ಾಗರೀ": 7924,
      "▁1997": 7925,
      "_Economic": 7926,
      "ಸಿದ": 7927,
      "್ರಾಡಳಿತ": 7928,
      "ohan": 7929,
      "ohenj": 7930,
      "್ಯಾಪಾರ": 7931,
      "arlung": 7932,
      "ರಾಷ್ಟ್ರಪತಿ": 7933,
      "_dance": 7934,
      "▁ಆಡಳಿತ": 7935,
      "AsherTalbot202": 7936,
      "▁whose": 7937,
      "ಿಯಿಂದ": 7938,
      "2014-p": 7939,
      "ವಿರ": 7940,
      ".jpg/250px-S": 7941,
      "KulkeRothermund2016": 7942,
      "ದ್ದ": 7943,
      "ಮುಖ್ಯ": 7944,
      "oorkee": 7945,
      "ರೆಗೆ": 7946,
      "urrency": 7947,
      "son2014-p": 7948,
      "▁Shankar": 7949,
      "▁ಎಂಬ": 7950,
      "▁ಎನ್.": 7951,
      "▁ಸಾವಿರ": 7952,
      "▁century,": 7953,
      "_Organisation": 7954,
      "_War": 7955,
      "ittances": 7956,
      "▁ಉಪ": 7957,
      "▁[Office": 7958,
      "▁ಕೋಟ": 7959,
      "▁speakers": 7960,
      "dira": 7961,
      "ವೆ.": 7962,
      "ropped": 7963,
      "▁include": 7964,
      "▁2008](https://en.wikipedia.org/wiki/India#CITEREF": 7965,
      "ೇಂದ್ರಾಡಳಿತ": 7966,
      "▁ವಿಭ": 7967,
      "▁cities": 7968,
      "ilgir": 7969,
      "ಗಿನ": 7970,
      "athakali": 7971,
      "sites/": 7972,
      "rupee": 7973,
      "▁mathematics": 7974,
      "ampion": 7975,
      "Ludden2014": 7976,
      "ಲಾದೇಶ": 7977,
      "Wikipedia:": 7978,
      "▁Africa": 7979,
      "ಹಾರಾ": 7980,
      "▁major": 7981,
      "union_territory": 7982,
      "▁transm": 7983,
      "lackb": 7984,
      "riage": 7985,
      "anorama": 7986,
      "▁%),": 7987,
      "iosphere": 7988,
      "▁ರಾಜ್ಯಗಳು": 7989,
      "▁contribu": 7990,
      "](https://kn.wikipedia.org/wiki/ಚಿತ್ರ": 7991,
      "undamental": 7992,
      "awaharlal": 7993,
      "unknown\\_parameters#": 7994,
      "▁caused": 7995,
      "a_dynasty": 7996,
      "o-daro": 7997,
      "▁oldest": 7998,
      "ಲ್ತ್‌": 7999,
      "▁ಶತಮಾನ": 8000,
      "ಳುವಳಿ": 8001,
      "](https://en.wikipedia.org/wiki/Mughal_Empire": 8002,
      "Census2011religion": 8003,
      "▁[India](https://en.wikipedia.org/wiki/India)": 8004,
      "harmaceutical": 8005,
      "ಿಹ್ನೆ": 8006,
      "▁ಮೊದ": 8007,
      "entral_In": 8008,
      "Tarlo1996-26": 8009,
      "ಂಗಳೂರು": 8010,
      "Home_Affairs": 8011,
      "▁[↑](https://en.wikipedia.org/wiki/India#cite_ref-1": 8012,
      "](https://en.wikipedia.org/wiki/India#cite_ref-vatsyayan-lord_432": 8013,
      "ecutive": 8014,
      "beralisation": 8015,
      "Davidson2014-p": 8016,
      "ಘಟನೆ": 8017,
      "ಾಂಗ್ಲಾದೇಶ": 8018,
      "ೊಡ್ಡ": 8019,
      "inancial": 8020,
      "▁Catherine": 8021,
      "berculosis": 8022,
      "▁ಹಾಗೂ": 8023,
      "ಾಗರೀಕ": 8024,
      "ohenjo-daro": 8025,
      "▁ಎನ್.ಡಿ": 8026,
      "](https://kn.wikipedia.org/wiki/ಚಿತ್ರ:": 8027,
      "\";\r\n": 8028,
      ")\"))": 8029,
      "6_": 8030,
      "68.": 8031,
      "8,": 8032,
      "97": 8033,
      "AQAAQBAJ&pg=PA": 8034,
      "English": 8035,
      "Flag_of_India": 8036,
      "LD": 8037,
      "_10": 8038,
      "_history": 8039,
      "aci": 8040,
      "bate": 8041,
      "egh": 8042,
      "hl": 8043,
      "ogo": 8044,
      "oefficient": 8045,
      "po": 8046,
      "post": 8047,
      "s)": 8048,
      "▁vers": 8049,
      "▁7.": 8050,
      "▁4.": 8051,
      "▁68": 8052,
      "ed\\_": 8053,
      "▁(1):": 8054,
      "not": 8055,
      "-05": 8056,
      "ama_": 8057,
      "▁code": 8058,
      "▁Century": 8059,
      "▁100": 8060,
      "etwork": 8061,
      "chol": 8062,
      "▁Rec": 8063,
      "▁Movement": 8064,
      "▁Dec": 8065,
      "▁1980": 8066,
      "former": 8067,
      "13.": 8068,
      "library": 8069,
      "147": 8070,
      "▁[*M": 8071,
      "Harv\\_and\\_Sfn\\_no-target\\_errors\r\n": 8072,
      "▁\"Gross": 8073,
      "-dis": 8074,
      "_domestic": 8075,
      "ukh": 8076,
      "▁Anthem": 8077,
      "▁consid": 8078,
      "orities/": 8079,
      "_Index": 8080,
      "▁Commissioner,": 8081,
      "ross_domestic": 8082,
      "a/a": 8083,
      "AsherTalbot2008),": 8084,
      "_Development_Index": 8085,
      "cms)": 8086,
      "_product": 8087,
      "-largest-": 8088,
      "ground": 8089,
      "PPP)": 8090,
      "countries_by_GDP_(PPP)": 8091,
      "eghalay": 8092,
      "ross_domestic_product": 8093,
      ",&s": 8094,
      "-se": 8095,
      "428": 8096,
      "=0&s": 8097,
      "British": 8098,
      "KI": 8099,
      "Raj": 8100,
      "_त": 8101,
      "_28": 8102,
      "_30": 8103,
      "_यु": 8104,
      "_अन": 8105,
      "_జాబితా": 8106,
      "aver": 8107,
      "bhasha": 8108,
      "gad": 8109,
      "lc": 8110,
      "music": 8111,
      "ns": 8112,
      "system": 8113,
      "uin": 8114,
      "ंस": 8115,
      "ंजन": 8116,
      "इटे": 8117,
      "एम": 8118,
      "केंद्र": 8119,
      "चार": 8120,
      "डम": 8121,
      "णार्": 8122,
      "धर्": 8123,
      "मूल": 8124,
      "यपालिका": 8125,
      "र्य": 8126,
      "रिया": 8127,
      "ल्ड": 8128,
      "व\\_": 8129,
      "शक्ति": 8130,
      "हू": 8131,
      "ाँ": 8132,
      "िरा": 8133,
      "िंह": 8134,
      "ीकरण": 8135,
      "ूना": 8136,
      "ेज": 8137,
      "ैली": 8138,
      "ोत्तर": 8139,
      "४७": 8140,
      "ఆంధ": 8141,
      "కీ": 8142,
      "కాలు": 8143,
      "క్రమ": 8144,
      "గర్": 8145,
      "డో": 8146,
      "థి": 8147,
      "నె": 8148,
      "నాలు": 8149,
      "పించ": 8150,
      "బడ్డ": 8151,
      "భర": 8152,
      "మహ": 8153,
      "మై": 8154,
      "యన": 8155,
      "రంగ": 8156,
      "లయా": 8157,
      "వార": 8158,
      "శీ": 8159,
      "షనల్": 8160,
      "స్య": 8161,
      "ృద్ధి": 8162,
      "ెంగ": 8163,
      "ేర": 8164,
      "–17": 8165,
      "–120": 8166,
      "▁३": 8167,
      "▁దా": 8168,
      "▁local": 8169,
      "▁Univers": 8170,
      "▁धीरे": 8171,
      "▁నాగరికత": 8172,
      "▁టెక్నాలజీ": 8173,
      "▁establish": 8174,
      "https": 8175,
      "](https://catal": 8176,
      "▁[ख": 8177,
      "▁[राष्ट्रीय": 8178,
      "▁[राजस्थान": 8179,
      "▁[नेपाल": 8180,
      "▁\"श": 8181,
      "▁\"वि": 8182,
      "▁\"पु": 8183,
      "▁\"का": 8184,
      "▁\"सा": 8185,
      "▁\"विश्व": 8186,
      "▁\"गुजरात": 8187,
      "▁\"राजस्थान": 8188,
      "▁\"नेपाल": 8189,
      "\")1": 8190,
      "](https://hi.wikipedia.org/wiki/वि": 8191,
      "](https://hi.wikipedia.org/wiki/प्र": 8192,
      "](https://hi.wikipedia.org/wiki/गुजरात": 8193,
      "](https://hi.wikipedia.org/wiki/राजस्थान": 8194,
      "▁कह": 8195,
      "the-world": 8196,
      "▁सश": 8197,
      "▁समा": 8198,
      "▁समान": 8199,
      "▁सम्प": 8200,
      "▁सल्तनत": 8201,
      "▁मंत्र": 8202,
      "्यु": 8203,
      "्यपालिका": 8204,
      "్రై": 8205,
      "్రప్రదేశ్": 8206,
      "ided": 8207,
      "](https://te.wikipedia.org/wiki/ఢిల్లీ": 8208,
      "राक": 8209,
      "▁पहा": 8210,
      "20085": 8211,
      "▁policy": 8212,
      "▁Council": 8213,
      "ानक": 8214,
      "ानून": 8215,
      "र्भ": 8216,
      "](https://hi.wikipedia.org/wiki/भारत_स": 8217,
      "▁Summit": 8218,
      "▁हिल": 8219,
      "olia": 8220,
      "ilar": 8221,
      "िको": 8222,
      "िकेट": 8223,
      "▁अभी": 8224,
      "దేశం": 8225,
      "దేశాల": 8226,
      "దేశాలు": 8227,
      "▁Te": 8228,
      "stre": 8229,
      "▁Ram": 8230,
      "▁Modi": 8231,
      "▁Machine": 8232,
      "▁जै": 8233,
      "▁जिन्": 8234,
      "्षिक": 8235,
      "▁air": 8236,
      "_केंद्र": 8237,
      "ర్‌": 8238,
      "ेशिया\")": 8239,
      "▁25.": 8240,
      "s.jpg": 8241,
      "▁बल": 8242,
      "▁ब्रिटिश": 8243,
      "▁बौद्ध": 8244,
      "▁बैंक": 8245,
      "103": 8246,
      "ंगल": 8247,
      "ंगीत": 8248,
      "elated": 8249,
      "▁ती": 8250,
      "▁तो": 8251,
      "▁तुल": 8252,
      "▁तीस": 8253,
      "▁नगर": 8254,
      "▁से](https://": 8255,
      "లు?action=edit&redlink=1": 8256,
      "▁*A": 8257,
      "రాఠ": 8258,
      "_सु": 8259,
      "_स्": 8260,
      "_सागर": 8261,
      "▁Home": 8262,
      "▁కి": 8263,
      "▁కో": 8264,
      "క్టో": 8265,
      "▁आप": 8266,
      "▁आंद": 8267,
      "▁आधुनिक": 8268,
      "abin": 8269,
      "నియా": 8270,
      "▁వర్": 8271,
      "▁వారస": 8272,
      "1991": 8273,
      "1857": 8274,
      "▁[\"World": 8275,
      "स्लि": 8276,
      "स्चेंज": 8277,
      "ap_en": 8278,
      "ల్వే": 8279,
      "▁సరిహద్దు": 8280,
      "▁మన": 8281,
      "▁మూ": 8282,
      "15/": 8283,
      "29.": 8284,
      "▁गति": 8285,
      "ड़िशा": 8286,
      "▁उस": 8287,
      "▁उद्योग": 8288,
      "▁[Ar": 8289,
      "▁around": 8290,
      "uccess": 8291,
      "▁शांति": 8292,
      "ండమా": 8293,
      "▁संस्कृत": 8294,
      "▁చిన్న": 8295,
      "]](https://hi.wikipedia.org/wiki/भारत#cite_note-Combined": 8296,
      "తాన": 8297,
      "ముఖ": 8298,
      "्याचल": 8299,
      "ी](https://hi.wikipedia.org/wiki/न": 8300,
      "త్వం": 8301,
      "त्ता": 8302,
      "al_T": 8303,
      "▁being": 8304,
      "▁(సా.శ.14": 8305,
      "ंडल": 8306,
      "ులు,": 8307,
      "–సా.శ.17": 8308,
      "ternet": 8309,
      "▁ప్రతి": 8310,
      "▁ప్రస్తు": 8311,
      "▁ప్రకారం": 8312,
      "▁ప్రముఖ": 8313,
      "पांड": 8314,
      "▁\"मुंबई": 8315,
      "▁भाषाएं": 8316,
      "ంచిన": 8317,
      "కుడు": 8318,
      "ismatch": 8319,
      "▁[↑](https://hi.wikipedia.org/wiki/भारत#cite_ref-5": 8320,
      "▁[↑](https://hi.wikipedia.org/wiki/भारत#cite_ref-Combined": 8321,
      "_by": 8322,
      "నుమ": 8323,
      "कार्यपालिका": 8324,
      "ింది.\r\n": 8325,
      "द्वित": 8326,
      "▁any": 8327,
      "वाँ": 8328,
      "▁రో": 8329,
      "▁రంగ": 8330,
      "▁రవాణా": 8331,
      "▁సాధించ": 8332,
      "्राम": 8333,
      "ష్టు": 8334,
      "ंदर": 8335,
      "ंत्रिक": 8336,
      "▁पुलिस": 8337,
      "▁प्रदेश](https://hi.wikipedia.org/wiki/मध्य": 8338,
      ",_కేంద్రపాలిత": 8339,
      "ంతో": 8340,
      "त्न": 8341,
      "त्म": 8342,
      "▁\"कु": 8343,
      "](https://hi.wikipedia.org/wiki/कु": 8344,
      "मान्य": 8345,
      "▁తరువా": 8346,
      "_power": 8347,
      "పాలన": 8348,
      "▁[कु": 8349,
      "िवास": 8350,
      "▁वर्ण": 8351,
      "▁वर्तमान": 8352,
      "ం](https://te.wikipedia.org/wiki/భారతీయ": 8353,
      "फ़िल": 8354,
      "](https://hi.wikipedia.org/wiki/ब्रिटिश": 8355,
      "గుర్": 8356,
      "నేషనల్": 8357,
      "▁हिमालय": 8358,
      "_map_en": 8359,
      "anced": 8360,
      "▁ప్రాంతం": 8361,
      "వందే": 8362,
      "गणतंत्र": 8363,
      "684": 8364,
      "▁किया।": 8365,
      "▁రాజ్యం](https://te.wikipedia.org/wiki/": 8366,
      "AsherTalbot20085": 8367,
      "▁బా": 8368,
      "▁బహు": 8369,
      "▁బెంగ": 8370,
      "▁CITEREFKulkeRothermund2004": 8371,
      "▁गया।[[": 8372,
      "▁[उर्दू": 8373,
      "आई.": 8374,
      "ాల్లో": 8375,
      "▁notation": 8376,
      "▁\"उर्दू": 8377,
      "](https://hi.wikipedia.org/wiki/उर्दू": 8378,
      "▁अधिकार": 8379,
      "तिहासिक": 8380,
      "▁१९८": 8381,
      "स्कृत](https://hi.wikipedia.org/wiki/संस्कृत": 8382,
      "-factbook": 8383,
      "रेन्द्र": 8384,
      "▁मानव": 8385,
      "िल्ली](https://hi.wikipedia.org/wiki/द": 8386,
      "2%29": 8387,
      "वर्ल्ड": 8388,
      "శ్వా": 8389,
      "गुजराती": 8390,
      "ूचना-विज्ञान": 8391,
      "ారిటీ": 8392,
      "▁पूर्वी": 8393,
      "▁अपना": 8394,
      "▁[↑](https://hi.wikipedia.org/wiki/भारत#cite_ref-FOOTNOTEStein1998": 8395,
      "గోళ": 8396,
      "▁across": 8397,
      "▁\"दिल्ली\")": 8398,
      "▁Thomas": 8399,
      "బడిన": 8400,
      "▁बहुमत": 8401,
      "ड़ीसा": 8402,
      "ministered": 8403,
      "▁Art": 8404,
      "తున్న": 8405,
      "న్నిక": 8406,
      "▁స్వాతంత్ర్య": 8407,
      "▁కాలంలో": 8408,
      "▁माध्यम": 8409,
      "कल_घ": 8410,
      "▁सुधार": 8411,
      "राष्ट्रपति\")": 8412,
      "ष्णकट": 8413,
      "cat.org/": 8414,
      "etary_Fund": 8415,
      "िन्धु-गंगा": 8416,
      "▁थी।": 8417,
      "▁According": 8418,
      "ంపి": 8419,
      "▁संगीत": 8420,
      "▁इतिहास\")": 8421,
      "బెంగాల్": 8422,
      "MetcalfMetcalf2012-": 8423,
      "▁धरोहर": 8424,
      "राठी": 8425,
      "▁दृष्ट": 8426,
      "_एवं": 8427,
      "ెలవు": 8428,
      "▁नीति": 8429,
      "](https://te.wikipedia.org/wiki/భారతదేశంలో_": 8430,
      "5/5": 8431,
      "▁ऑफ": 8432,
      "▁वार्षिक": 8433,
      "रेलू_उत्पाद": 8434,
      "▁अनुसंधान": 8435,
      "britannica.com/place": 8436,
      "▁सूचना-विज्ञान": 8437,
      "▁అధికారిక": 8438,
      "हायक": 8439,
      "ఆర్ధిక": 8440,
      "▁मौसम": 8441,
      "▁పట్టణ": 8442,
      "rajbhasha": 8443,
      "▁विस्तृत": 8444,
      "▁కాశ్మీరు": 8445,
      "irectorate": 8446,
      "▁लेकर": 8447,
      "▁अभियान": 8448,
      "_सेना": 8449,
      "ంగ్లీషు": 8450,
      "▁similar": 8451,
      "▁लाख": 8452,
      "thehindu": 8453,
      "\\_कड़ियाँ": 8454,
      "▁अमेरिका": 8455,
      "▁అయిన": 8456,
      "▁రెండు": 8457,
      "ాల్దీవులు": 8458,
      "cia.gov/": 8459,
      "ట్రో": 8460,
      "ుల్తాన": 8461,
      "▁हालाँकि": 8462,
      "రాష్ట్రాలు,_కేంద్రపాలిత": 8463,
      "దినోత్సవం": 8464,
      "▁వ్యాసం:": 8465,
      "_Monetary_Fund": 8466,
      "_and_union_territories_of_India": 8467,
      "data.worldbank.org/indicator/S": 8468,
      "▁पहुँच": 8469,
      "ార్లమెంట": 8470,
      "▁[भारत](https://hi.wikipedia.org/wiki/भारत)": 8471,
      "▁./వర్గం:Wikipedia\\_articles\\_with\\_": 8472,
      "▁2004](https://hi.wikipedia.org/wiki/भारत#CITEREFKulkeRothermund2004),": 8473,
      "▁ఏర్ప": 8474,
      "tegration": 8475,
      "इटेड": 8476,
      "णार्क": 8477,
      "मूल्य": 8478,
      "ूनाइटेड": 8479,
      "ఆంధ్రప్రదేశ్": 8480,
      "లయాళ": 8481,
      "▁[राजस्थान](https://hi.wikipedia.org/wiki/राजस्थान": 8482,
      "▁\"राजस्थान\")": 8483,
      "the-world-factbook": 8484,
      "▁हिल्स": 8485,
      "▁तुलना": 8486,
      "स्लिम": 8487,
      "▁प्रदेश](https://hi.wikipedia.org/wiki/मध्य_प्रदेश": 8488,
      "▁[उर्दू](https://hi.wikipedia.org/wiki/उर्दू": 8489,
      "िल्ली](https://hi.wikipedia.org/wiki/दिल्ली": 8490,
      "कल_घरेलू_उत्पाद": 8491,
      "ष्णकटिबंधीय": 8492,
      "రాష్ట్రాలు,_కేంద్రపాలిత_ప్రాంత": 8493,
      "%7C": 8494,
      "%7c": 8495,
      "*](https://www.": 8496,
      "*](https://web.archive.org/web/200": 8497,
      ",85": 8498,
      ".c": 8499,
      ".tool": 8500,
      "/M": 8501,
      "223": 8502,
      "3]](https://en.wikipedia.org/wiki/India#cite_note-": 8503,
      "4-0": 8504,
      "6.\r\n": 8505,
      "AL": 8506,
      "Al": 8507,
      "BI": 8508,
      "Constituent": 8509,
      "K:": 8510,
      "Navy": 8511,
      "OV": 8512,
      "PT": 8513,
      "Test": 8514,
      "Un": 8515,
      "Zoro": 8516,
      "_&": 8517,
      "_india": 8518,
      "_2008": 8519,
      "a](https://en.wikipedia.org/wiki/A": 8520,
      "audi": 8521,
      "bird": 8522,
      "cutt": 8523,
      "dministrative": 8524,
      "digenous": 8525,
      "eg": 8526,
      "ealand": 8527,
      "fer": 8528,
      "hag": 8529,
      "io": 8530,
      "i](https://en.wikipedia.org/wiki/M": 8531,
      "jha": 8532,
      "jayan": 8533,
      "lé": 8534,
      "ole": 8535,
      "pub": 8536,
      "rr": 8537,
      "sol": 8538,
      "water": 8539,
      "ypr": 8540,
      "–Pakistan": 8541,
      "▁X": 8542,
      "▁35": 8543,
      "▁38": 8544,
      "▁times": 8545,
      "ora": 8546,
      "orne": 8547,
      ".wikidata": 8548,
      ".org/wiki/Q": 8549,
      "▁[Harle": 8550,
      "▁[978-0-19-9": 8551,
      "▁[978-0-521-80904-7": 8552,
      "enter": 8553,
      "ination": 8554,
      "in-O": 8555,
      "anch": 8556,
      "though": 8557,
      "](https://en.wikipedia.org/wiki/19": 8558,
      "hili": 8559,
      "ergy": 8560,
      "ardian": 8561,
      "alak": 8562,
      "alcutt": 8563,
      "isa": 8564,
      "istic": 8565,
      "isak": 8566,
      "anding": 8567,
      "ito": 8568,
      "itor": 8569,
      "itchi": 8570,
      "▁(union": 8571,
      "ought": 8572,
      "ases": 8573,
      "asian": 8574,
      "](https://en.wikipedia.org/wiki/Indian": 8575,
      "ich": 8576,
      "▁India](https://en.wikipedia.org/wiki/P": 8577,
      "now": 8578,
      "▁sultanate": 8579,
      "▁small": 8580,
      "ample": 8581,
      "acher": 8582,
      "ge.org/": 8583,
      "aten": 8584,
      "▁cap": 8585,
      "▁char": 8586,
      "▁common": 8587,
      "ads": 8588,
      "ustice": 8589,
      "▁Col": 8590,
      "▁Commission": 8591,
      "▁Cynth": 8592,
      "\\_text": 8593,
      "▁Singh": 8594,
      "▁Schwartzberg": 8595,
      "▁Schedule": 8596,
      "▁fl": 8597,
      "urg": 8598,
      "urasia": 8599,
      "urasian": 8600,
      "▁bel": 8601,
      "olice": 8602,
      "anged": 8603,
      "ilt": 8604,
      "▁Prin": 8605,
      "igin": 8606,
      "igni": 8607,
      "▁mark": 8608,
      "▁mountain": 8609,
      "heet": 8610,
      "heel": 8611,
      "etnam": 8612,
      "_of_N": 8613,
      "teri": 8614,
      "ially": 8615,
      "rak": 8616,
      "mentin-O": 8617,
      "▁Bharat": 8618,
      "emi": 8619,
      "emor": 8620,
      "▁Desert": 8621,
      "_(union_territory": 8622,
      "elug": 8623,
      "▁1970": 8624,
      "▁[↑](https://en.wikipedia.org/wiki/India#cite_ref-3": 8625,
      "▁[↑](https://en.wikipedia.org/wiki/India#cite_ref-Combined": 8626,
      "▁E.": 8627,
      "riy": 8628,
      "24_A7C": 8629,
      "_in_T": 8630,
      "-4)": 8631,
      "▁eaten": 8632,
      "forge.org/": 8633,
      "_Ag": 8634,
      "▁three": 8635,
      "ples": 8636,
      "abour": 8637,
      "▁reg": 8638,
      "1999": 8639,
      "](https://en.wikipedia.org/wiki/India#CITEREFCraven1997": 8640,
      "▁Journal": 8641,
      "▁[\"M": 8642,
      "29)": 8643,
      "_Publishing": 8644,
      "16]](https://en.wikipedia.org/wiki/India#cite_note-": 8645,
      "40.": 8646,
      "▁grad": 8647,
      "▁Olymp": 8648,
      ".gov.": 8649,
      "▁L.": 8650,
      "▁London": 8651,
      "epali": 8652,
      "-9\").\r\n": 8653,
      "](https://en.wikipedia.org/wiki/Climate_": 8654,
      "Harvard": 8655,
      "▁turn": 8656,
      "-2\").\r\n": 8657,
      "-2](Special:BookSources/978-1": 8658,
      "▁[↑](https://en.wikipedia.org/wiki/India#cite_ref-FOOTNOTECraven1997": 8659,
      "▁[Mughal": 8660,
      "ysis": 8661,
      "](Special:BookSources/978-0-19-9": 8662,
      "alled": 8663,
      "▁original](http://www.": 8664,
      "-5196": 8665,
      "▁\"Special:BookSources/978-0-19-9": 8666,
      "artial": 8667,
      "2006),": 8668,
      "▁\"East": 8669,
      "▁\"Economic": 8670,
      "](https://en.wikipedia.org/wiki/Economic": 8671,
      "ible": 8672,
      "radition": 8673,
      "National_Park": 8674,
      "398": 8675,
      "_Bank": 8676,
      "▁\"Russia": 8677,
      "▁\"Registrar": 8678,
      "ultures": 8679,
      "](https://en.wikipedia.org/wiki/Russia": 8680,
      "amily": 8681,
      "▁[Russia": 8682,
      "_Games": 8683,
      "▁1999": 8684,
      "▁79.": 8685,
      "](https://en.wikipedia.org/wiki/International": 8686,
      "▁(2016).": 8687,
      "eneral_and_C": 8688,
      "▁subject": 8689,
      "▁[Indus": 8690,
      "▁legisl": 8691,
      "ervice": 8692,
      "ites": 8693,
      "▁centre": 8694,
      "▁plate": 8695,
      "58)": 8696,
      "_Indian_subcontinent": 8697,
      "▁./Category:Articles\\_contain": 8698,
      "▁Plain": 8699,
      "edium": 8700,
      "ortality": 8701,
      "incely": 8702,
      "oney": 8703,
      "▁2023.": 8704,
      "▁2023](https://en.wikipedia.org/wiki/India#CITEREF": 8705,
      "-language\\_text": 8706,
      "ppines": 8707,
      "_relations": 8708,
      "▁music\")": 8709,
      "izor": 8710,
      ".png)\r\n": 8711,
      "ujarati": 8712,
      "▁about": 8713,
      "▁diversity": 8714,
      "ID-19": 8715,
      "▁election\"),": 8716,
      "_of_the_": 8717,
      "▁well": 8718,
      "Vijayan": 8719,
      "Vietnam": 8720,
      "▁traditional": 8721,
      "▁rights": 8722,
      "al_Pradesh": 8723,
      "aharash": 8724,
      "Harle1994),": 8725,
      "IAF": 8726,
      "▁longer": 8727,
      "▁highest": 8728,
      ".svg/40px-": 8729,
      "▁player": 8730,
      "_Shankar": 8731,
      "Robb2011": 8732,
      "olden_Temple": 8733,
      "default": 8734,
      "otsp": 8735,
      "▁Publishing\").": 8736,
      "▁families": 8737,
      ".svg.png)](File:": 8738,
      "▁Europe*](https://books.google.com/books?id=": 8739,
      "astrian": 8740,
      "hristianity": 8741,
      "▁mathematic": 8742,
      "67733-7": 8743,
      "▁colleges": 8744,
      "▁popular": 8745,
      "ichell2000": 8746,
      "_Air_Force": 8747,
      "ubraman": 8748,
      "kbar": 8749,
      "▁kingdoms": 8750,
      "ataraja": 8751,
      "▁following": 8752,
      "▁\"China\")": 8753,
      "do-Gangetic": 8754,
      "▁emerged": 8755,
      "▁approxim": 8756,
      "IFTY": 8757,
      "](https://www.wikidata": 8758,
      "ouchability": 8759,
      "ensus_Commissioner_of_India": 8760,
      "egistrar_General_and_C": 8761,
      "▁1994](https://en.wikipedia.org/wiki/India#CITEREFHarle1994),": 8762,
      "wait": 8763,
      "Library_of_Congress2004": 8764,
      "▁festival": 8765,
      "temporary": 8766,
      "▁developed": 8767,
      "▁1997](https://en.wikipedia.org/wiki/India#CITEREFCraven1997": 8768,
      "entral_Intelligence": 8769,
      ".toolforge.org/": 8770,
      "OVID-19": 8771,
      "Zoroastrian": 8772,
      "lémentin-O": 8773,
      "yprus": 8774,
      "hilippines": 8775,
      "alakrishnan": 8776,
      "alcutta": 8777,
      "itchison": 8778,
      "▁Cynthia": 8779,
      "ignific": 8780,
      "_(union_territory)": 8781,
      "Vijayanagar": 8782,
      "](https://www.wikidata.org/wiki/Q": 8783,
      "egistrar_General_and_Census_Commissioner_of_India": 8784,
      "▁1997](https://en.wikipedia.org/wiki/India#CITEREFCraven1997),": 8785,
      "lémentin-Ojha": 8786,
      "\"](http://www.": 8787,
      "#P": 8788,
      "-H": 8789,
      "-for": 8790,
      "-22": 8791,
      "/)": 8792,
      "/india/": 8793,
      "2-1)": 8794,
      "3%": 8795,
      "430": 8796,
      "6-": 8797,
      "96": 8798,
      "Atlas": 8799,
      "CCN": 8800,
      "RA": 8801,
      "Sanskrit": 8802,
      "_term": 8803,
      "bd": 8804,
      "cs": 8805,
      "culture": 8806,
      "gi": 8807,
      "m=1": 8808,
      "nised": 8809,
      "p)": 8810,
      "parliament": 8811,
      "zon": 8812,
      "}}": 8813,
      "▁78": 8814,
      "▁33": 8815,
      "region": 8816,
      "▁(J": 8817,
      "▁India\r\n": 8818,
      "\\_template": 8819,
      "\\_Wiki": 8820,
      "urmu": 8821,
      "▁17.": 8822,
      "▁12.": 8823,
      "\"),[": 8824,
      "▁Britannica": 8825,
      "▁Barb": 8826,
      "263": 8827,
      "113": 8828,
      "▁2002": 8829,
      "archive\\_template": 8830,
      "308": 8831,
      "135": 8832,
      "▁Out": 8833,
      "▁Le": 8834,
      "▁Ludden": 8835,
      "titution": 8836,
      "%2C_A": 8837,
      "%2C_M": 8838,
      "light": 8839,
      "ublications/": 8840,
      "IND": 8841,
      "roupadi": 8842,
      "▁History*](https://books.google.com/books?id=": 8843,
      "/countries/": 8844,
      "34238": 8845,
      "▁Present": 8846,
      "/08/": 8847,
      "▁population\"))": 8848,
      "▁1,210": 8849,
      "imf.org/": 8850,
      "▁product\")": 8851,
      "aedia": 8852,
      "ause": 8853,
      "11934238": 8854,
      "▁house\")": 8855,
      "▁capita\"))": 8856,
      "_house": 8857,
      "▁dispute": 8858,
      "cyclopaedia": 8859,
      "Human_Development_Index": 8860,
      "Webarchive\\_template": 8861,
      "s.com/": 8862,
      "▁version": 8863,
      "parliamentofindia": 8864,
      "▁Ludden,": 8865,
      "Webarchive\\_template\\_": 8866,
      "-h": 8867,
[...]
